008B
0045
FFE4
0084
FFE7
FFD2
0072
FFDE
FFC9
0067
006A
0030
0032
000E
FFF5
0014
0005
0003
008D
0069
002D
003C
FFED
FFEC
FFFA
FFEE
FFF5
0001
FFE9
0025
FFCC
FFCE
0020
FFC7
FFE5
0057
00F8
0026
0025
002B
FF54
FFB1
FF92
FF1B
FF7E
0013
FFC9
000B
FFC3
FFC4
0009
FFAD
FFCC
003B
FFB6
FFA9
FFC8
FFB6
FFCC
FFF9
FFA2
FFB6
002B
FFD0
0060
005F
004B
00A5
00B0
007E
009C
00CC
00D6
0086
FFF2
00BF
FFE0
FF5A
002B
FF70
FFB3
0076
0080
0036
0074
0028
FFA3
FFF1
FF91
FFA2
00A0
00AB
0052
009E
0003
FF8A
FFCE
FF86
FFC1
FF96
FFBA
0058
FF77
FFE4
0065
FFED
0055
004F
0116
000E
FFA0
FFFD
FEE4
FFDC
FF17
FFB5
00B8
FFEE
FF9B
000D
FF72
FFE2
00C9
FFE0
00A8
00B7
FFBD
FFC3
0060
FF9C
00B4
0134
005F
0102
006D
FFBE
0032
0032
007D
00F6
003E
009A
007B
FF73
FFE9
0093
005E
FFCE
0023
0079
0016
FFA0
0018
0032
FFE7
FFEE
0059
0023
FFC2
001C
0096
005C
0033
FFCC
FFD9
006F
0022
FFA3
0038
00BB
0070
00C1
001F
FFFD
00EA
00AF
FFE8
0043
010D
007E
0029
002C
FFA9
FF96
006D
FFE4
FFA4
FFC3
0056
0056
FFFB
FFBE
0095
003E
FFB0
001E
00A8
001D
FFB1
FFC6
FFDC
FF9A
FFC2
0001
FFF4
FFD2
FFFB
FF4E
FF94
FFEC
FFD8
FF76
FFC1
0046
FFCE
FF79
0027
FF95
FFA4
FFB8
FF9B
005F
FF9D
002F
00A1
0013
FFB2
FF8A
FFAB
FF9C
0004
FFC4
0024
006A
001A
FF93
FF77
FF7F
FFAC
003A
FFCD
0039
0078
FFEF
0053
0024
0060
00A3
FFE4
008A
0021
FFB8
FF80
FF3D
0081
FEE7
FFF1
0074
FF7D
0090
0020
FFBB
006A
008F
0045
0104
004B
00BF
006E
FFD5
FFE0
00FD
00C0
00CB
00B4
FFD3
00E3
0032
FFAA
009C
0081
FFDC
00F3
FFDD
FF5E
0089
FF84
FFE3
FFF2
FFCC
001D
FFC2
0037
00A5
004C
FFF9
000F
FFC8
FFEA
002C
0079
00B0
0097
00CB
010C
00D3
FFC8
FFD5
002D
00E3
0102
00CE
010C
012A
00FD
FFCF
FF8C
FFE4
0037
0031
FFB4
FFB6
001B
0025
FFAF
FF67
FF5E
00E4
0107
002A
0042
FF9E
FF8F
FFA3
FFD7
FFFA
0051
FFF8
FF82
FFF0
FFE2
FFDD
0184
01E3
0154
005F
0075
007A
001C
002F
005B
0059
0059
0006
FF92
FF1E
FF53
0023
001A
FFE6
007E
0009
0013
0058
0070
004A
0056
0092
0091
008B
00D4
0085
FFE8
FFD3
0015
00B7
00D9
0066
0097
00D1
00A3
FFE3
FFBB
000E
00F1
00CB
0078
0084
00CD
0088
0071
FFE8
003B
00A3
0077
0051
FF87
FFAF
FFD1
FFD5
FFB1
FF75
0033
0017
FFA2
0014
0081
0047
0027
FFF0
0042
00A5
002D
0026
0037
FFFA
FFDD
0120
00D0
003C
FFED
0003
0072
FFCF
FFAC
FFB0
FFE4
FFB6
FFC0
FFB7
FF57
FF88
FFBC
FF92
0003
FF9E
FFCF
0069
FFB7
000F
0091
FFDC
FF99
FFB5
FFA2
FFB1
FFEC
FFBF
FFDB
000E
FFC7
FF8A
FFB1
FF95
FFB3
FFED
FFCD
0007
000B
0094
0045
FF8A
008A
003B
FF83
00AD
FFEC
FF7A
FF64
0019
003F
FFAF
0068
005E
FFC7
0087
0028
006A
005B
FFDF
00A6
0054
FFB3
00AD
0017
FF7E
005C
003F
FFB4
008D
FFD3
FF65
0059
FFB8
FF99
007F
0028
0003
0062
FFD6
0026
0037
FFD3
0054
0046
FFC5
FFAA
0069
000B
FFDF
005D
0042
0003
0038
003E
0069
FFC5
FFE8
001B
FFBF
FFAF
FFC3
000B
003A
0068
FFA1
FFCA
001C
FFA2
FF88
FF8F
FFF8
001D
005C
FFB2
FFB7
FFEB
0007
FFAF
FFE0
FF9C
FF7F
FFFC
FFE2
FF89
FF73
00E2
0083
FFD4
FFC8
FFE9
002B
FFA9
FF96
FFC1
001A
FFB6
FFE1
FFF7
FFAB
FFA0
0050
0023
0006
0045
0085
00CC
0104
012D
00EC
00CF
00E1
0141
0079
00D7
012B
0078
FFE8
008E
00E4
FFB7
003C
00F5
0018
FFC1
0010
002C
FFD8
FFC0
0048
0021
FF8D
0007
009E
000B
0033
FFBB
FFBB
0061
0026
FF63
002B
00AE
00BD
0176
0001
001F
01DE
00A4
FF93
00FD
0112
FF36
0002
0041
FF81
FFB0
009E
0042
FF2F
0021
0057
00EE
0002
FFE0
0137
0052
FF7F
00C3
00B0
FFA5
FFE0
FFD3
FFAF
FFBA
FFB6
0036
0019
FFC2
0018
FF93
FFB6
005F
FFCE
FF64
0036
0041
FFBB
FF9B
0003
009E
002E
009D
0063
0099
0054
FFCE
FFB3
FFE5
002D
0021
00A0
00B1
005B
0069
FFFB
FFA8
0005
0060
004A
00CB
00B7
0091
0066
FFEE
FFE3
FF9D
FF9A
FFC5
FFAE
FFE4
FF9B
FFA1
FFE3
000A
0064
000E
00AA
00AB
FFB0
0051
FF79
FF39
0022
0012
FFC5
002A
FFB7
FFAD
FFC3
FFA2
FFFE
00D7
00B2
007C
0003
FFD0
FFDD
FFF4
0054
0083
0035
FFB0
FFC3
FF9E
FF93
FFE0
000B
003C
0035
0040
00BA
0021
000F
00AD
006C
0055
001B
005E
003F
0005
0007
003C
000F
FFDB
0002
0078
0020
0047
FFE5
FFF4
0048
FFFD
FFCA
0004
006D
0016
00F7
0018
00A0
016C
00A9
006A
00AD
0118
0075
FF9D
001F
FF9D
FF83
FFD7
FFF3
FF64
0007
0061
0088
0010
007E
00FB
0048
004F
0096
009C
0041
0035
0015
0032
FFEA
FFEF
0017
0021
FFF7
002B
FF6D
FFD0
0027
FFC1
FF6F
FFFE
000C
FFA5
FFAB
0161
0065
FFD9
01B5
00EC
FFAA
010F
0111
0003
FF8E
FFFD
0020
FF7D
FFDF
0037
FF9F
FFA1
003A
FF5D
FFFB
0019
FF5A
FFC1
0043
FF8D
FF7B
0058
FF9C
00B6
00DB
FFBE
006E
015D
0006
FFC1
0110
000F
FF62
FFE2
00C9
FF43
FFBD
0170
FFBD
FF69
FFA9
0077
00A7
FFB8
0012
010D
000B
FF86
00B9
FFE0
FF9D
FFF4
FFBD
FFB5
0011
FFB6
0031
0021
FFD3
0017
FFED
FFAF
0040
0002
FFAE
0027
006E
0037
0018
FFBF
FFE3
FF91
FFC0
FFB3
FFEF
001C
0091
007F
0041
0029
FFD6
FFC8
FFE0
0042
0071
00A9
00B5
005A
0018
FFBE
FFCE
FFFD
0078
0090
FFAA
0002
0038
FFBD
0016
000B
0019
0012
FFE1
0022
FF67
FF5C
FF3A
FF7F
0061
0013
00E4
00E8
FF89
FF9A
002B
FFBF
0052
00AE
0075
0096
0010
FFA3
0007
009F
00F3
01C6
0185
00E5
0080
FFF1
001E
0060
001B
006B
0053
FF8E
0006
FF8B
FF60
0011
007E
0077
004E
0103
0085
007A
00F8
004E
FF8F
FFA7
0015
FFA6
FFD0
0002
FFDF
FFF2
FFD2
FF73
FF9E
000A
FF88
FFB4
FFF2
FFD0
FFC3
FFB5
0074
FF8B
FF84
0088
FF86
FF98
006A
FF74
FFA4
00A1
00BA
004B
00CD
0021
FFD2
00EA
0053
FF70
00B0
FFB9
FF92
00D7
FFBB
FF75
00A4
FF96
FF6A
0034
FF75
FF91
FFDA
FF58
FF84
FFD3
FF5C
FFB2
0015
0016
00AE
FFDD
FFF8
00B8
FFD0
FFEF
0085
FF89
FFE0
FFF1
FFCE
FF63
FFA5
FFD6
FFD6
FFB8
00A0
0032
FFCD
007F
0100
00E2
FFA4
FFA3
0020
00C9
0054
FFBF
007D
011D
0123
FF7C
FF84
0024
00CC
0065
FFBB
003C
00AE
0095
FFB4
FF89
FFE5
0080
00A0
001F
FF7A
0022
005B
FFF8
FF90
FF54
0053
FFF1
FF94
FFF3
0033
000C
FFA6
FFA1
FFD7
FF7C
0002
006C
FFDF
FF87
FFA7
00AF
00D3
00AF
FF9F
FF93
FF8C
0091
0028
FFAD
0068
007E
008C
FF84
FF93
FFF3
FF5C
FF52
FFBD
FF6D
FF50
FFB1
FFD9
FFAD
FFB1
FFC9
FFB5
FFA3
FFE8
FFCE
FFE8
FFC7
FF94
FF97
FFC3
FFB2
FF93
FFD8
FFD0
FFEF
0002
FFD7
FFC3
0010
FFD0
FFB3
FFD1
FFCE
FFDB
0031
0059
0085
0071
00E7
00A3
008E
00B2
0110
FFF4
FFE8
FFEF
002F
0002
FFEC
000E
000E
000A
0020
0037
004B
001F
FFD3
FFE1
FFD1
FF9C
FF9E
0066
0053
002C
0068
002E
0019
003F
001D
FFCB
