FFDB
000C
0036
FFBF
FFA3
0056
FF9D
FFA5
002E
001B
FFEA
FFEB
FFC6
FF64
0003
FFAC
FF3A
FFB7
001C
FFF9
FFC9
0079
0118
FFC9
FFF9
00A2
0046
FFE9
FFBA
0002
FFDB
FFBD
FF8C
FFBD
FF92
FFBE
002E
FFF6
FFC8
FFA8
0024
FF64
FF96
FFF1
002D
FFE8
000E
001C
0010
0057
FFDB
000E
0030
FFD2
0023
FFE9
FFDB
FFEB
0037
FFD0
FFF1
FFC6
FFFA
FFF5
0079
006C
0022
0008
00AE
FFE0
0006
0062
0077
FF8A
0031
0111
00DD
0000
FFE3
011F
FFD7
0005
FFF4
FFCE
FFD9
FFBA
FFB3
FFCB
FFBF
FFC7
0049
FFD9
FFE2
009E
0117
FFC7
FFD1
0082
0014
003E
0094
0055
0198
00DF
00DC
00CF
007A
FFD2
FFB8
FFF4
0012
FFA2
FF89
FF8D
FFE3
FF61
0003
001A
FFE1
FFE5
001E
0064
0028
0023
FFC3
FFFF
FF8D
FF80
0015
0040
000A
FF9E
FFCD
00F6
0065
FFE4
FF84
FFCD
FFDC
FFDB
FFBA
0018
0027
0046
0040
FFB4
FFE0
0002
FFDC
002D
FFE1
0026
004D
00E1
000C
FFA6
008D
FFB0
0056
FFB1
000F
0091
FF9C
FFBB
FFF4
FFB5
FFE6
FFFE
FFD9
0001
FFE8
FFF0
00A0
FFF7
00A9
006D
FFC8
0053
FFD6
0025
000E
0030
005E
000B
0043
0056
0005
FFF7
0011
FFAA
0014
FFFB
0009
0037
002A
001A
0037
003E
FFBB
005F
0009
FFFB
0045
FFAD
0016
FFDE
FFC1
003D
FFEC
001E
FFE6
FF68
FFC2
FFAF
FF84
FFE2
FFC4
FFFB
FFF2
0040
FFD6
FFD4
004A
FFAD
0022
FFF0
FFD8
0026
FF95
0096
0047
FFC7
0067
FFEB
FFD1
001A
0001
0040
000B
0003
001E
FFFF
003A
0024
FF93
0001
FFF9
FFA9
002B
FFF7
FFE9
0031
0059
0066
FFD5
0088
FFE6
FFF8
FFEA
FFB2
0070
FFB7
0019
000E
FF87
0088
FFE4
FF7F
0025
FF75
FFE2
FFA7
FFDA
FFCE
FFDA
FFE4
0001
FFB8
FFD1
FF9F
0003
FFD9
FFF9
FFE3
FF71
FFD2
FF5F
FF81
0053
002D
0004
002D
FFBF
0033
FFD4
0038
0086
003A
0041
FFDA
0070
003D
FFCC
FFD1
FFF7
0023
FFC7
FFBF
0001
FF8B
FFB1
FFFC
FFCB
FF93
FFFF
FFE5
003A
002F
006A
008D
0014
0021
FFB9
FF8D
FFF0
FFB6
FFD7
0034
00D7
0092
0014
FFDF
FF8E
FFDD
FFED
FFF7
0004
0031
0038
001A
FFDE
FFD9
FFDA
FFF0
0046
FFF7
002A
0036
0021
FFE6
FFCF
004F
0061
0016
001C
FFB8
000C
FFE0
001C
00B4
FFBA
FFEA
0035
FFE8
FFC4
FFEC
FFA7
FFA0
FFD8
0005
FFAE
FFD9
FFD1
002C
0041
002B
000F
FFF5
FFCB
FFD3
0014
FFF6
0002
FFDE
FFDA
FFB6
FFD5
000E
FFEE
FFE2
0026
FFC3
000D
0014
FFE7
0019
000F
0024
FFE1
006F
008D
FFD5
FFE1
FF86
FFA4
0000
FFA7
004C
FFBE
FFA2
0040
0051
0001
001F
FFDF
0023
0011
FFD0
FFE4
0008
FF92
FFDE
0014
FFBE
FFC5
FFD7
FFB7
FFC8
FFA7
FFED
FFA1
FF7A
000C
FFEF
FFE9
0000
FFFA
0008
0007
0003
0010
000D
FFE3
FFE1
FFF4
FFE4
FFF6
0002
FFFA
0004
003C
0024
0004
FFD6
000A
0002
FFFD
FFFB
FFF8
0013
000C
FFD9
FFF3
FFF0
FFD2
FFF5
FFED
FFE8
FFF1
FFFF
0013
FFD9
000A
0028
FFF1
FFE7
FFDA
000B
0013
FFFB
000C
FFF8
FFFD
FFEE
0003
FFFD
0002
000E
0000
FFEA
FFF3
FFEB
FFF7
FFF9
FFF1
0011
FFD1
FFDB
000F
FFFC
FFDA
0016
0017
001D
006A
0007
FFB3
0011
000F
FFCF
FFE9
FFF4
FFE9
FFF4
FFF2
0016
FFE5
FFF7
001E
FFFA
FFF2
FFEC
003F
0018
FFDB
FFE3
000E
FFF3
FFF2
FFEF
FFF1
0038
FFBE
FFE2
0030
FFEB
FFC4
0003
FFFF
FFE4
0007
FFF1
FFF8
FFDF
FFD6
FFE2
FFFC
FFF6
FFFC
FFCE
FFF7
001D
FFF4
FFCB
FFF7
0004
FFE7
FFF6
0042
001A
FFE7
FFF7
0031
0022
FFED
FFF4
0000
FFFB
0023
0029
FFD9
FFEA
FFF3
FFF9
FFF5
FFF8
FFF6
FFC0
FFF7
FF97
FF9E
FF9B
0004
FFDC
FFE5
0001
FF92
FFFE
FFB0
0046
0021
0030
007C
004B
0018
0042
FFFF
0007
0020
0001
FF72
FFE1
FFC2
0030
FFE3
FFBE
FFBB
FFFA
0000
FFD2
002C
001E
005F
004B
FFDC
00C0
00B3
0014
00C9
0114
0050
0061
006D
FFDD
0069
008C
0013
0040
006B
002E
001D
FFE2
FFCF
FFE1
FFB8
FFF1
FFB7
FFC8
FFFA
0039
FFA0
0004
001E
FFAA
FF77
0040
FFE3
FF76
0099
0019
FF9D
FFC0
FFCA
FF72
FF58
FF42
FF69
FFD9
0013
FFEC
0004
0035
001D
0056
00D4
003B
004B
0045
001E
FFE6
FFC5
FFCB
FF81
FF96
FFB5
0066
FFE1
FFD8
FF75
FF7A
FFA1
FEF3
FF4F
FF81
0008
0011
FFFC
0045
0080
002C
0093
00E5
0032
FFBA
FFC8
FFCF
FF72
FF6B
FFF7
FFA5
FFAF
FFE3
00B6
0063
FFD0
00BB
006B
FFB5
00A6
0064
FFEB
FFC9
FFF9
FFDB
FFE4
0009
FFE3
FFF5
0006
FFF4
002B
FFDD
FFDE
0019
FFCF
FF9E
0031
0007
FFFB
0049
FFC3
FFC3
0029
FFCD
FFB5
0016
0004
0032
0009
000F
0017
FFEE
FFEF
0004
0010
001B
0022
005B
FFE2
FF99
003F
FFE8
FFE3
002B
0007
001E
0064
FFE5
FFCF
0042
FFF3
FFEF
0040
0047
0068
0060
004F
001E
0061
0026
004C
003E
002D
0070
0025
FFD5
FFBE
0028
FFD4
FFCF
001D
FFF1
FFD6
0012
FF48
FF99
0029
FF74
FF3F
0073
FFED
FFBD
008D
FFCA
FFBB
FFF6
FF95
0004
0021
FFFC
0032
003B
0020
FFF5
001A
FFE8
FFFE
002C
0024
0058
0026
0028
001E
000D
FFEF
0027
0015
001D
004B
FFF9
FF72
FFD0
0057
FF97
FFC8
009D
000E
0028
0034
FFDA
FFA6
0051
FFF8
FFCD
0019
0020
0054
FFE4
FFC9
FFF3
FFEA
FF7F
FFA0
003C
FFB8
FFC3
0069
0038
0003
0014
FFD1
FFB5
001C
0028
FFEF
000B
FFF0
FFD9
FFBC
FFB3
FF96
0006
FFB9
FF96
FFC6
FF80
000D
FF7C
FFAD
0009
FFC1
FFE6
002C
0026
FFD2
FFD0
FFB5
000F
FFFF
FFFE
0030
0037
FFF4
002A
001E
FFFB
FFD4
FFE7
004C
FFE2
FFD0
000A
FFDE
FFF4
FFF0
FFF6
003F
0015
003F
0014
0073
0072
000D
004D
0068
FFDC
0097
0063
0001
00B9
0100
0052
00B2
00A9
0013
009D
008D
0027
FFD2
FF9D
0008
FFC3
FFAD
0043
FFD8
FFDF
FFF0
FFB1
FF4E
0005
FF58
FF39
0007
FFA7
FFB1
0059
0027
001B
002F
002F
FFA1
FFEC
006C
FFDA
FFD0
005D
0022
FFD5
0012
0040
002E
0039
0023
0043
0037
0066
007A
0039
005D
0017
0072
003C
FFF4
FFF5
000D
0011
000E
FFC1
FFEA
0022
FFC8
000A
004C
007E
0009
FFF1
003D
001F
0037
0095
0028
FFD4
FF6E
FFFC
FF8B
FF8B
003D
FFAF
FF8D
0027
0044
0021
0027
000D
FF9D
FF90
000D
FFE5
FFCB
FFA3
FF95
FFDE
FF65
FF86
FFE8
FFB3
FFCA
FFAA
FFC8
0028
000B
FFB7
FFDB
000A
FFC7
FFAA
0062
FFF5
003B
00FA
FF95
FFF8
0068
FFFD
0002
0085
0023
FFC4
FFE8
0049
FFD6
0022
0006
000D
FFA7
0075
FFCF
00A0
002B
FFB6
00F4
002F
FFDF
0064
FFDC
FFD8
FFEF
FFAC
FF81
000C
FF9C
FFC3
0043
0055
FFE1
000C
0030
FFC0
002A
0002
FF89
FFD4
007F
001A
004A
005D
000E
006F
002F
0006
FFF0
FFD0
FF65
FFA2
FFB0
FFBE
FFBF
FFCA
FFCF
0033
0069
FF7F
0082
0017
FF94
0106
FFFB
FF92
0059
FFE3
0073
FFE8
FFC9
0002
0014
FFC2
002B
0003
0071
FFE6
0035
0040
FFBE
0076
005C
FFB8
FFE7
FFE3
0037
007E
FF86
005D
00E3
FFA5
FFF7
0086
FFF5
FF95
0090
FFD6
FFB5
004C
001E
0002
0054
0007
00CD
FFE9
FFEE
007F
003A
FFB0
003C
FFD5
0006
FFB5
FF88
FFC1
FF5B
0008
FFC4
FFB2
0019
001E
FF9B
FFC9
FFE8
FF7D
FFEE
FFEE
FFC8
FFDD
0018
0042
0010
0031
FFFD
FFD8
FFF7
FFB1
0008
0067
0016
FFD9
007E
FFD4
0036
0075
0046
008F
0000
FFB2
FFE2
FFAB
FFF8
FFF3
FF81
FFF3
FFD9
0071
001E
FFF8
0054
0000
0018
003A
0025
004B
002D
FFC4
FF82
008F
FFEE
0026
0094
00C4
00F4
001B
FFA7
FF80
0033
FFCF
FFCE
0019
0033
004F
005A
002B
0029
003A
0009
0005
0016
FFF1
0003
0003
FFEA
FFCF
001C
FFD2
FF95
FFD3
FFCA
FFE0
0006
FF6A
FFA7
FF9A
FF65
FFC6
FFDB
FFC1
FFC7
0051
FFFD
FFED
0079
FFFF
0034
0029
0075
009C
0001
FF93
FF9E
FFE5
FF77
FFD4
FFC7
FFC4
FFFE
FFFE
FF81
FFC8
FFE8
FF7A
FFBF
FFA8
FF91
FFBD
005E
FFE3
FFAE
0072
0013
0006
008E
00F2
00AA
0025
0000
FFFE
0027
FFDC
FFCB
FFCF
FFB6
FFB8
FFF0
FFA5
FFA1
0029
FFF5
FFF7
0036
004A
004E
0022
002B
004F
FFDB
FFDD
FFF5
FFB4
FFF2
0005
0027
0016
0019
FFFC
FFFE
0016
0029
0028
001E
FFEF
FFE9
FFF7
FFB5
FFF9
0044
FFDC
003F
0037
001A
FFDB
FFDA
000F
FFC1
FFD5
0040
0012
0018
0012
FFE0
FFCD
FFCB
FFCD
0045
FFBC
0064
0085
FFD6
FFA0
FFB8
FFA7
FF67
FFCC
FF9A
FFDE
0042
FFE9
FFB4
FFBC
FFEA
FFA0
FFF4
FFDB
FFE2
005B
0027
FFFF
0001
0008
FFFF
000F
FFFB
001B
0049
0052
0014
0035
0013
0013
0011
0036
002F
000D
0006
FFB0
FFE9
0007
FFC9
0005
0036
007D
0030
FFFB
FFC6
FFD5
FFC3
FFAA
000A
FFC3
FFDA
003D
0017
FFC2
FFB8
0011
FFC1
FFEE
0020
004C
0060
000D
FFD1
FFD0
0038
FFEE
FFFF
0066
0063
002D
FFE1
FFB4
FFB8
FF8A
FFA3
001F
FFBA
0039
004F
0041
FFF9
FFE8
0046
000D
0006
0043
0018
0021
FFE4
FFD8
FFFF
FF8F
FF98
FFD9
FFFD
FFF5
000A
FFF6
0009
0029
FFD9
FFF1
FFFE
FFE5
FFFD
0014
0090
0060
0028
002C
0026
000C
0020
003F
003A
004D
0058
003E
002B
0035
0023
0056
0076
006B
FFF7
FF9E
0031
FFDE
FF92
0008
002B
0029
FFFD
FFC2
FFA9
0065
FFE9
0049
005D
FFFD
004C
000D
FFFC
FF81
0009
FF2B
FF6C
0014
FFF7
0040
000D
FFC1
FF5E
FFD3
FF84
FF64
FFEC
FFDD
FFDB
0015
000D
FFE2
005D
003A
0036
0041
0043
0036
000F
0020
0050
0045
0009
FFC3
FFBE
007D
001B
0006
FFC0
FF86
0041
FF9E
FF8A
FFF1
0038
0011
FF9F
0066
FFE1
FFD8
FF82
FFB1
008C
0002
003D
006A
FFFA
FF9D
FFFC
FFB7
FF5F
FFBA
0023
FFE3
0003
FFBA
FF7D
001F
FFB8
FF77
FFF1
0028
FFF5
FFF7
FFCB
001B
0033
FFAB
FFAC
FFBE
001F
002F
FFE6
0082
FFDB
0045
0040
FFF3
0084
0079
001D
0052
004E
001B
0003
FF6D
FF50
FFE0
002C
0020
0007
0014
0053
009F
FFE8
0026
0045
FFF4
FFCE
FFCD
FF70
FFDD
0000
0014
0053
003D
0040
0039
FFDF
003C
0027
0060
009E
00AE
0048
0069
002C
FFD2
FF7A
FFD2
0001
FFC7
FF57
FFD3
0024
FF8D
FFBD
0034
0061
000C
0060
0051
0013
0078
001D
FFC4
006F
00EB
0058
007C
FFF2
FFCE
FFC6
FF1E
FF9D
FFEC
0020
FFCA
FFEF
FF86
FF8C
0036
FF59
FFA3
0011
0030
0027
004A
0021
FFF2
007E
003F
FFEE
FF91
FF9D
FFED
FF92
FFFD
000C
0014
000D
0061
FF75
FFC9
FFF5
FFC0
FF26
FFE6
0040
FF4E
FF9C
0055
0060
0024
008D
005E
FFDA
0009
FF9E
FFCE
FF89
FFEE
FFDB
0010
FF85
FFB4
0078
FF85
FF9D
FF82
FFAD
0038
FFCA
FF67
FFEB
0034
FFB4
FFD9
009E
0093
FFED
0041
005C
FFFF
0054
FFA0
FF77
FFEC
000F
0051
005A
FFFE
FFFD
0084
FFFD
FFF6
FFB1
0021
FFCB
FFA1
FFCB
000C
FF9A
FF78
FFBA
0017
0055
000E
FFB9
FFE7
0018
000F
0018
0035
FFDF
FFF9
0035
FFF9
003E
0018
FFDE
002F
006D
00B1
005D
003F
FFED
000B
000E
FFA9
FFCB
003D
0008
FFC0
FFBE
FFDF
FFAD
0004
FFDE
FFCE
0021
006A
00D5
0023
008E
FFD1
FFFD
0073
FFB8
FFD7
FF98
0098
0080
FFBF
FF66
FF89
FFC3
FFED
0013
0015
FFF4
FFC1
FFF5
FFB5
FFE1
FFF2
FFC0
FFED
001C
0089
0019
003D
FFF9
FFF5
0066
FFDD
FFCA
FFFB
FFC1
000A
FFD3
FFF2
FFED
FFD4
FFF4
004D
001A
FFE7
FFDF
0014
FF92
002F
FFFB
FF8B
0068
FF9B
0085
0030
FFCB
0009
FFA9
FFF3
0031
0013
0062
0027
FFDF
0045
FFBF
FFEC
0017
FFBB
0008
0016
FFCC
0058
FF92
FFF5
004D
FFAE
002D
004F
0072
0074
0017
0025
FF77
FFCD
FFF4
FF65
FFC9
FF78
0082
0029
0013
004E
FFDD
FFFC
001D
FFA5
FFB1
FFA5
FFDE
FFAF
FF8F
FFD8
FFAC
FFB6
0043
FFDE
0024
0007
FFE6
FFCD
FFEF
0001
FF99
FFAE
FFC2
FFA9
FFD8
FFFD
0007
FFF8
FFE6
0007
FFD4
FF9A
FF9D
FFD5
FFDE
FFF9
001D
FFEB
FFE9
FFF2
0065
002D
0006
FFC4
FFBB
FFF2
0019
FFDD
0009
FF85
FFB5
FFF6
FFBF
FF92
FFE4
0032
FFCA
0027
00AB
00AC
0054
FFFC
0089
00AE
FFC9
FFC1
FFD6
004B
0081
0061
FFE8
0013
0012
FFD6
FFE3
001A
FFA2
FF8F
FFE0
FFD0
FFA5
FFDF
003D
FFF2
002E
FFD2
0037
004B
000A
0015
FFF2
FFEB
FFEA
FFC7
0023
FFC3
FFC7
FFEB
FFBF
FFE8
001F
FFDA
0045
0015
FFD3
FFF8
FFEB
003C
0012
FFD0
FFEF
FFE3
001F
000B
FFD5
FFD7
FFD1
FFFB
0010
FFD5
0028
FFE5
FFD0
FFD1
FFBD
FFBA
FFAA
FFC1
003B
0023
FFE4
0065
002B
FFC1
0003
0051
FFF6
FF9F
FFDE
FFD9
FF7D
FFCF
FFEE
FFAD
FFA9
004A
002F
002A
00D4
006D
0021
002B
0090
0067
FFD9
FFAD
FFF8
003A
000E
FFE1
0007
FFEE
FFF5
002A
FFE7
001D
FFEA
FFBB
FF9F
002C
002B
FFE3
0064
FFF9
FFE8
0026
FFC7
FF85
FFEC
0074
FFD6
0053
0015
FFDC
FFF7
FFF7
0034
0015
FFCA
FFE5
0080
002E
0045
00C5
000A
FFBE
005D
FFC9
FFA4
FFE4
0050
002D
0046
004C
0054
0008
FFBA
FFC5
0008
FFE6
0053
FFE6
FFE4
0025
002E
FFDE
0068
0022
0018
0084
006F
FFCF
FFC1
0094
FF89
FF9C
001F
FFFC
FFFC
0001
FFA4
FF93
FFB6
FFA5
FFA3
FFC3
FF9E
FFB1
0018
FFE9
FFFD
FFE6
0008
FFFF
003B
004D
00A4
002E
0052
0029
00A5
001A
FFBE
003C
FFC3
0011
FFFA
FFB5
002D
FFE7
FFF3
0027
005A
0057
00A9
FFCC
FFEE
FFB1
004C
002D
FFDC
002B
004F
0055
0053
0008
FFCB
FFA8
0011
FFCC
FFC6
0028
0041
0079
FFD9
FFB4
00E9
FFBA
FF7A
003E
FF87
FFCB
FFB6
FFF2
0025
FFAC
000F
FFFC
0033
FFB8
0035
003D
FFCE
FFD7
001B
FF57
FF7B
FF99
FF7B
FFB5
FF9E
FFAA
FFEA
FFFE
0033
0023
00BB
00C0
0034
FF9C
FF84
FF9C
FF93
FFC1
FFF0
0049
00AF
0077
003A
FFD9
FFE8
0093
005B
0018
FFE0
FFE5
FFDA
002F
FFA9
FFCD
0003
FF74
FF7A
FFAC
0010
0040
001B
0043
0056
FFDE
000E
0005
FFCA
FFC1
FFE3
FFAF
FF92
FFF5
FFEF
FFD8
0003
0043
000E
0053
0061
FFA8
FFD8
003A
FFA4
FFA1
FFBC
FFA4
0014
FF9D
FFCB
0002
FF67
FF96
FFE2
008C
00A8
007E
006E
FF42
FF97
00C9
FFE0
FFE6
0043
000B
FFD2
FFFC
0039
001D
001A
FFF7
FFF5
005D
FFC4
FFBA
0023
FF95
FFAE
002F
0013
FFFF
FFF9
003D
003C
FFA8
FFBD
0017
0053
FFDA
FFDB
009E
FFBF
FF7C
0035
000A
FFFD
FF4D
FF50
FF9A
FFA7
0033
0095
0029
FFE3
001E
003B
0002
FFCB
001B
FF30
FF75
FF9D
FF87
FF97
0020
FFE1
0000
0072
0088
004A
006D
002B
FFFF
0011
FFB3
FFAC
FF3D
FF87
0023
FFE6
FFAA
0016
FF92
FF83
001E
0013
FFC4
FFD9
FFC6
FF81
FFBF
FFF9
FFA3
001F
002B
0014
000C
000A
001E
0015
002D
006B
004B
FFD9
0031
0001
FF92
FF80
FFC7
FFF6
FFBE
FFDC
FFDA
FFEB
0011
FFC7
FFAC
FFDF
00E2
009E
FFDC
0038
004C
0003
0015
0027
FFF0
005F
00CC
0033
FFB1
0060
0039
FFAF
FF85
FFFD
FFE8
FFB2
0003
FFE4
FFE0
004B
FFA9
FFBA
004C
FFD2
FFB5
0014
0014
FFC4
0021
000F
0023
FFF7
002E
00A4
0096
FFFA
0075
0044
000A
FFCB
FFBD
003E
FFE0
FFD7
0043
0028
FFDD
FFDF
002A
0010
0038
00AF
006A
FFC0
0060
0042
0017
FFDB
FFCB
005B
0096
004B
FFD5
0051
0067
FF7C
FF89
FFA4
004F
FFBE
FFD4
0035
002D
FFE1
FFE8
FF72
000B
FFC9
FF7C
FFF8
000A
FFC5
001A
0033
0003
FFF2
000A
0024
001B
009B
00A7
0008
FFC1
FF61
FFBA
0025
FFAC
FFAD
002B
FFE4
FFF8
FFE0
0031
FFE1
0032
0004
FFE5
0067
FFD7
000F
FF96
008B
004E
0080
007F
FF65
0079
FFEF
FF79
FFE9
FFED
FFDC
FFED
FFE1
FFFA
0019
FFEB
FFDA
FFA2
FF91
003D
FF8F
00BE
0074
FFC6
0098
FFEE
001E
FF87
FFC7
FFC6
FFAD
0004
FFE4
FFDE
0033
0007
FFCD
FFFE
0001
FFD6
000B
FFAC
FFE3
000F
FFFC
FFA9
0046
FF9F
0047
005C
FFAF
0063
002F
FF8E
FFFC
001B
FFEF
FFAD
FFB3
0023
FFE0
FFEC
FFE9
FFDC
FFEA
FFE5
0066
FFCF
FFFB
0046
FF84
0066
0007
FFE9
0083
FFB7
0055
000C
FF96
006D
FFD9
0001
000A
FFF1
0062
0029
FFE3
000A
FFFC
006F
0015
FFD1
0117
FFE7
FF9D
00A9
FFE1
0026
FF63
FFFA
0015
FFC1
0097
FFE2
0021
002A
FF87
00B4
FFE0
FFF4
00DA
FFA9
0024
0070
FFD8
009A
FFC8
FFEE
000D
FFB8
FFC2
FFEB
FFE7
FF8C
FFF6
000B
FFD2
0010
FF8A
000D
0034
FFD0
0002
000A
FFE3
002A
001F
FFBD
FFBE
FFF8
FFFC
FFE6
FFF0
FFD9
FFFD
0021
FF9E
FFA8
0022
FFE4
FFAD
FFBC
0044
FFCF
0012
005D
FFFE
FFAE
0056
003B
0007
0039
FFCA
002F
FFDC
FFC0
001D
FFDF
FFBC
FFE6
0053
FFFD
002F
FFD7
FFD7
0003
FFED
0021
0029
0022
FFF9
0021
0000
FFC6
001A
0007
FFDF
0009
0066
FFC4
FFF8
0031
FFD7
FFD4
FFE7
FFD8
FFCC
FFEF
004A
FFEA
FFB8
0000
0038
FFEB
FF89
FF91
FFBE
002C
005E
001B
FFCD
0008
002D
FFEC
FFF3
003B
0004
0002
FFD3
FFDB
FFEE
FFDE
0012
000D
003A
FFE7
002E
006D
FFD0
FFF6
0045
000E
0011
FFE6
008E
0009
FF8A
0017
0060
FFC4
FFC5
0004
0012
FFE5
0008
FFAC
FFC4
003B
FFC9
FFC0
FFF6
006A
001B
FFF2
0012
0026
FFCA
FF9B
000E
FFE7
FFCF
0017
004A
0016
FF96
FFC8
0043
0012
FFE7
003E
FF9F
FFD0
002F
FFD1
FFBD
FFFA
0006
FFE1
FFF4
FFB0
FFC3
FFFD
0008
0016
001A
001A
0020
FFD5
FFA2
FF9F
FFFA
FFDD
000B
0003
FFE4
FFFB
003C
0065
0036
FFD2
FFA6
FFBF
0003
FFEC
FFF0
FFFF
FFBD
FFDF
FFF6
FFA1
FFB9
0019
FFE7
FFF0
0066
00BD
005A
FFDE
0029
0076
FFD8
FFA0
FFD9
0060
0094
0051
FFC8
FFE9
FFEB
FFF2
FFA3
FFDC
FFED
FFB4
FFCB
0029
FFD2
FFBD
003F
FFFB
FFFB
0034
003C
0014
000A
001A
000E
0016
0014
0027
0084
0058
FFF0
FFB7
FF9C
FFAF
FFCE
FF9A
FFDA
0005
FFD7
FFF8
FFDB
FFEF
000D
0017
FFE0
0009
004E
0057
FFDF
FFD9
FFCF
FFBF
0008
FFC0
FFC7
0025
FFF8
FFEA
FFBC
FF96
FFBA
FFF8
FFAE
0009
FFFA
001A
0026
FFCF
FFE1
000F
FFDF
FF91
FFA2
FFF4
FF82
FFD9
0007
FFC4
FFC4
0052
0018
003B
007C
00C1
002B
FFB6
0021
003C
FFF2
FFCD
FFEF
003A
0007
FFEB
0039
0030
001E
002B
0012
0020
0016
FFFA
0004
0012
FFEE
FFDF
FFBF
FFF5
FFE2
0039
FFEF
FFAB
0093
000A
FFC4
FFFD
007E
FFEF
FFEA
FFFC
000F
FFED
0006
0008
0018
FFFB
FFEB
FFF7
0007
FFF1
00B9
002C
FFE6
009A
FFF2
001C
FFB6
FF97
FF98
FFB8
0016
FFEF
FFE3
FFFE
FFB0
FFEA
FFF6
FFDC
FFEE
0047
FFFB
001B
002A
0018
0011
001A
0016
003E
0015
000A
007F
FFDC
002A
0015
0008
FFFC
FFCF
FFC3
FFDC
FFB0
FFAA
FFC9
0014
FFFB
0012
0053
0031
0005
002A
0058
0009
0003
FFE1
FFD9
0005
003E
FFC2
0024
002C
FFBE
FFFA
FFEE
0003
0051
0065
0026
0027
004A
0023
005A
002D
FFC2
009D
0078
FFB1
0015
0086
FFE9
FFCE
FFD1
FFAA
0054
FFF5
FFDF
001A
0035
001F
0059
FFEC
FFF0
005D
003D
FFC3
006F
000B
FFE1
FFBD
FFDC
0007
FF92
FFC4
0001
FFF6
0008
FFEE
FFD4
FFE0
0038
FFCF
FF84
0006
000C
FF80
FFFB
0027
FFB0
FFD4
0000
FFE9
FFEE
0019
FFF8
FFD2
010A
FFEA
0014
00BA
0075
001D
003B
0054
FFC4
FFA1
0000
0028
FF4A
FFD3
0013
FF89
FFD6
009C
0087
FFFA
FFEB
00E6
FFE6
0009
0009
0021
0041
005B
0030
0016
00B9
00A6
FFF9
FFB0
FF67
0027
003D
0000
FFC8
FFF8
0018
000A
FF6D
FFAE
004D
001E
0001
FFCD
006C
FFEE
0039
0011
0017
00A6
002A
FFC2
FFCD
FFD7
FF83
FFEB
FFEE
FFAC
FFFE
FF98
FF9C
0020
FF89
0002
004C
FF91
006E
00DF
0063
000E
FFDE
0094
0098
FFEF
FFF9
FFA6
0022
FFD9
FFB6
FFE8
FFC0
FFFE
002C
FF5F
FFFE
0097
FF76
FF80
FFF1
FF73
0011
006D
FFB3
00BB
0093
00D6
0005
FFBC
00C2
FFDF
FFBD
FFFC
0003
FFD1
FFFF
FFF0
FFAD
FFF1
FFD0
0033
0016
FFB7
0123
006B
004D
001A
FFAC
FFEC
0009
FF6B
FF93
FFCE
0010
FFDB
FFFF
0003
FF83
FFA9
FFC5
FFBD
FFEC
0011
FFD1
0040
FFD4
FFD7
FFE0
FFC6
FFD1
FF99
0064
000D
0017
0070
FFF0
FFBB
FFCD
FFDC
FFDF
FFB3
0004
0007
FFF9
0007
0035
0046
0012
0019
000F
FFFE
FFF5
0058
000E
FFDB
002A
FFEC
0005
000D
007A
004B
006C
0000
0001
0086
FFA2
FFC7
FFF5
0047
0029
0077
0075
005A
00BB
002E
0018
FFE5
FFD8
FFFA
FFDC
FFD7
FFE1
FFE7
FFC3
FFDE
FF90
FFE5
00C5
FF74
FF66
0034
FF85
FF89
FF95
FFB0
FFC9
001F
0032
0016
002A
0042
0010
001D
0074
0049
0003
0083
FFFF
FFC8
0033
FFFA
FFDB
FFE5
0017
0027
0013
0061
0053
0072
0004
000F
FFED
FFE0
0016
007E
001B
005E
003A
000D
003B
0049
005A
0005
0061
FFFC
FFD0
005F
FFD4
FFEC
005F
FFE6
000A
003F
FFD0
000F
FF86
FFD7
FFE3
FFE1
FFF2
004B
FFA9
FF86
FFCC
FFF9
FF7E
FFBA
FFE1
FFDF
FFF1
FF83
FF95
FFA3
FFDA
FFD1
FFA1
FFD4
FFFA
008F
FFA8
FFFA
0064
FFAA
FFCA
FFFF
0034
FF95
004B
FF94
FFB3
006E
FFB2
FFE6
0001
FFFA
0044
FFC9
FFDF
FFF7
FF88
006C
003F
FFFA
00D6
0039
FFA4
003C
FFA6
0009
FFD8
FFF2
000D
0036
003B
FFF5
FFA1
FF5F
FF36
FFC6
FFEB
FFD0
0066
001D
FFB9
003A
FFF5
FF9B
0040
0011
FFC9
0060
0040
FFDA
0038
FFD1
FFFB
FFFE
FFFC
0009
FFED
FF67
FFDA
FFB3
FFE8
008F
FF88
FFE8
0056
0022
006E
FF9B
000E
FFF6
FF8C
0054
0014
0004
FFE5
0045
0058
FFB7
FFCE
FF7B
FFB5
FFE6
FFC5
0071
0057
FFC1
0040
0032
FFAF
00AE
0049
0023
FFC7
000D
0007
FFC1
FFD7
0031
FFEB
0008
004E
008D
FFB9
FFA0
FFE3
FFA3
0001
FFCC
FFFA
0005
FFC3
004E
006C
FFEB
0023
0003
FFED
000C
0042
FFFD
FFFB
001A
FF9F
FFAD
FF95
FFCA
FFA4
FFD5
FFF0
0006
FFE7
FFE1
FFB8
FFF0
FFDD
FFDF
0003
