011A
0086
FF55
0151
0038
FF14
012D
002E
FEC5
00FB
FFB8
FF08
0123
FFF8
FE93
0160
FFEC
FE99
00A0
FFCC
FF18
017D
0004
FE54
015F
FF9D
FE95
0181
011D
00CE
FF97
FF8E
FFAD
FF0C
FF03
FF86
00FF
00B0
0086
FFA2
0003
0028
FF28
FF46
FF22
015E
014C
0065
FF5C
FFB1
0036
FF0B
FF16
FF25
0148
0132
018F
0004
009E
003E
FEE3
FE5B
FEAA
00E6
012F
00CB
0028
0095
0006
FEC1
FE87
FEDC
00CE
0114
00C3
004E
0033
0033
FEEC
FEBE
FF3C
FF32
011B
0142
FE43
00A8
0181
FE40
FF65
0118
FF4F
010C
00C0
FE7D
0068
0138
FE89
FF49
009B
FFA9
0094
0118
FEA8
0080
00FB
FE78
FF28
00FC
01B7
01B0
017B
01AA
0139
0136
0167
011F
007E
010B
0141
00DF
0138
00D6
00C1
010E
00EB
0049
018B
0139
00E8
0123
012F
010D
00E3
00D3
0048
FE7E
0067
0140
FE78
0092
015A
FF42
000D
00B0
FEE2
00AE
00FF
FF02
009F
011C
FF7A
001E
00B9
FEE8
00B4
0125
FEDB
0082
0122
FF57
0012
009F
FE68
FE21
FEBB
FF07
FF22
00C5
00BF
01B5
01F7
FED6
FED1
FF42
FF91
FFCA
00C4
002D
0152
0178
FF1F
FED5
FF70
FF6E
FFCB
0063
00FE
0147
0174
FF2D
FEE0
FE7E
FF40
FEC3
FEB9
FF1A
FEEB
FF7C
FF3C
FED4
FF04
FEF8
FF12
FF1B
FF0C
FF3B
FF7F
FF1C
FEEC
FEDD
FF5A
FF48
FEFE
FEFB
FF5C
FF52
