FFDF
002E
0014
FFE4
003B
002A
FFFD
0002
FF93
FFD0
0015
0054
FFC8
001B
0046
000B
0025
FFEB
0024
003F
FFE3
FFAC
001B
0026
FFD7
FFF5
0002
FFD8
FF9D
0055
0019
FFC7
FFF9
0027
000E
FFE3
005A
0026
0001
FFEF
0010
000C
006A
0021
FFC4
FFED
FFFE
0048
0003
0007
0001
FFF1
FFBF
FFFD
0008
FFC2
FFF5
0005
FFFB
FFAA
FFFD
FFE4
0037
FFEE
0062
0018
FFD3
0028
FFFE
0024
FFF2
FF9E
FFCB
FFEA
FFE4
0018
FFC2
FFE4
0030
0013
FFF8
002F
0010
0005
004E
FFF2
0002
0058
002C
FFD3
000E
FFC7
0031
0012
0014
FF93
0038
FFE1
0027
FFB1
FFEE
002B
FFFC
0002
0016
FFB3
0052
0025
FFEE
0036
FFEB
FFFA
0026
000E
002F
000B
FFE3
006F
0051
FFBA
FFB0
FFF0
FFC0
FFD3
0043
0020
FFE3
FFD2
FFEF
FFF3
000D
FFEB
0004
0014
FFD5
0022
FFDB
FFFE
0029
002D
0012
0005
FFF4
FFCC
FFF4
002E
0035
000B
FFEC
FFEB
0007
000B
0016
FFEC
0019
FFEB
001B
0000
FFD1
FFF4
0006
FFDD
0015
FFC3
0026
000F
0019
0040
0023
FFCD
FFE6
0012
000A
FFE8
003D
000D
0052
000D
FFFA
004A
FFFA
000D
0042
000B
FFD5
FFE5
FFE1
0026
FFE6
0008
000F
FFF7
FFBE
FFEE
FFCF
0013
002C
002B
FFE1
000D
FFED
0035
FFEC
0035
0022
FFD4
0000
FFD8
FFDB
0039
0003
002B
FFFD
FFCC
FFBB
FFEE
003F
FFF5
000B
FFF2
001D
002A
FFD1
FFC3
FFD8
FFA9
0003
FFBB
FFD9
FFBD
003E
002C
000B
FFBC
FFDB
FFCE
0008
0042
0010
003B
0014
002E
FFE9
002B
FFE7
0013
004F
FFF1
FFC8
001A
FFEF
000F
FFF1
FFED
0026
0029
FFA9
000B
001A
0023
0031
FFC7
FFBE
FFCF
FFE1
0028
0029
0039
FFEB
003A
002A
000C
0029
0018
0007
0017
FFA5
FFDC
FFBF
FFD9
FFFC
0076
FFA0
FFEC
0019
0011
FFF3
0019
FFB3
0017
FFE9
001E
0017
001B
0029
003B
0002
0010
FFCE
FFA5
FFCD
0013
FFFC
0013
FFFA
000D
0048
FFD2
FFD3
FFA8
FFFE
0060
004E
0009
001F
000A
FFEE
FFAC
FFCA
0009
0013
0018
002A
000D
001A
FFEA
FFEC
0012
000C
FFB6
0033
002A
FFEA
0046
FFF7
FFEA
0037
FFF3
FFFE
001D
FFDE
0024
FFF2
0026
FFF4
002E
FFDD
FFC6
0029
000E
FFDD
0055
0010
001C
FFEB
0013
0027
0040
FFC8
0005
0011
FFD4
0009
FFD8
FF90
FFBF
000A
005F
001F
FF8F
000B
0015
FFDE
0025
FFD0
0047
0026
0021
0018
FFDA
FFDB
001E
000D
FFEE
0003
FFE6
004A
0007
FFDE
003F
FFE5
0042
FFB8
FFF2
FFDA
000A
FFF4
0021
FFD4
0016
000A
0027
FFEC
FFEE
0031
0075
007D
0030
FFCF
FFD5
0046
FFDA
0060
FFD4
FF8E
002B
FFFA
0043
0001
FFF3
0035
0061
0038
FFFF
002C
FFE9
FFF1
0014
FFC1
FFF9
001F
FFBA
0038
000E
FFEB
FFEE
001B
0076
0048
FFE2
0009
FF9D
FFEF
FFDA
0033
0023
0006
FFC6
FF7F
FFF9
0027
FFF8
0045
0016
FFDE
0020
0000
0052
FFDC
000E
0009
FFF7
000B
FFAD
FFDA
0008
003C
0043
FFBD
FF9A
FFE3
FFEF
FFC7
0006
000F
FFC3
001E
0030
FFCD
0005
0001
FFB4
0020
FFCF
FFE6
FF97
0021
001C
001A
FFC4
FFBA
FFDB
002D
FFFD
0056
0029
0033
0022
0012
0025
FFC5
FFED
FFF5
0026
FFFE
001C
FFD8
0034
FFDF
FFE6
0041
004F
FFFB
FF90
FFFC
009E
FFEF
FFB0
0030
FF7E
FFDB
00B3
FFB5
FFDD
0022
0055
0028
FFD3
0085
FFCF
FFC7
000B
FFAC
FFE0
FFF4
FFB6
FFBE
004F
FFC2
FFEB
0001
FFB0
0038
FFBB
0034
FFB9
005A
FFEE
002C
FFD0
FFC2
003D
FFF9
0018
FFDC
FF84
003B
FFCE
FFF3
FFBC
FFB5
0062
0060
FFE2
FFE1
0025
0030
0042
0095
004C
0053
005E
FFC8
FF8C
FF9C
FFC9
0076
FFE6
FFB8
FFC4
0003
FFE4
005D
0012
006B
FFDC
001E
FFBC
003C
FFBA
FFC7
0024
FFEA
FFE9
001C
FFD4
0036
0022
0018
0062
004F
FFDF
FFE3
007C
FFB4
FFF2
0065
FFF6
001B
FFF7
FFE7
FFEB
FFF9
FFE2
FFE7
FFBC
FFC9
006A
0043
0045
0058
0000
FFC4
FFEC
FFC4
FFD1
FFBF
0024
0042
FFF5
FFEC
FFC0
FFD0
FFFA
FFFD
FFFB
000E
0042
FFE8
003A
0004
FFFE
FFFB
0033
FFFC
0020
FFDF
FFE5
0009
000C
FFC8
FFB6
0028
FFFD
FFF2
005C
FFCC
0010
FFBF
FFD3
0017
005D
FFE7
005E
0032
0016
0012
0022
000D
FFE3
002D
001E
FFB5
0049
FF82
0053
FFBC
0013
0042
FFDF
001B
005F
0044
0000
001B
006C
FFF2
FF87
FFFE
FFF2
0008
FFFF
0068
0026
0002
FFC7
FFD9
FFA0
FFF7
FFDC
005A
FFBC
FFD8
0016
FFE1
002C
001D
0005
FFFD
0011
FFFE
FFFE
FFF3
0019
001B
FFF0
FFDB
FFDE
0013
FFEA
FFF5
0017
0031
FFE0
000B
FFE8
0042
FFE5
FFB4
0009
FFF2
FFC3
000F
0007
FFEB
0000
0031
0016
0036
FFEB
FFE6
FFDE
FFFD
0016
0032
000E
FFFC
0008
FFFF
FFD0
0038
FFE4
0000
FFFF
000F
0000
FFCC
FFFC
FFFC
0021
0027
FFFC
FFC3
FFFB
FFEC
FFF2
000C
0001
0012
FFFA
0021
FF9F
FF73
FF89
FFE5
001E
0040
FFE8
006C
000B
0013
001A
FF7C
FFF8
003E
0024
003B
FF7A
0022
000D
0000
FFEB
000C
001E
FFFC
0040
FFFA
FF9D
FFE7
0040
0047
FFEE
005C
FFE9
0031
002B
FFF1
0020
FFAD
0010
FFF7
001E
FFEC
FF97
FFEC
FFD7
FFEE
FFF0
FFFC
FFF8
0013
FFA4
001D
0050
002B
FFF2
0042
0016
FFE5
004A
FFB9
FFD4
0070
0009
002A
FFDE
FFDA
FFDF
003B
FFEB
000C
FFC7
004E
FFFD
FFEA
0024
FFC2
0060
002A
0016
0020
FFD6
001F
001A
0015
001D
0005
0003
FFCC
0033
FFE9
FFE2
0004
FFFA
0024
0042
004B
FFC0
0034
0009
FFF7
FFC7
FFC5
004D
002C
0035
000B
0001
FFA7
FFC7
FFBD
FFBE
FFCA
FFB4
FFE5
FFD7
000B
FFF5
0020
FFDD
000C
FFCA
001D
0013
FFDC
FFAD
001C
0026
0026
FFD2
FFEC
FFDE
0003
000C
0025
FF95
005E
0049
FFC0
FFE3
0012
0014
FFFC
002F
0027
FFE8
0043
FFD8
0003
001F
0044
FFE5
FFE0
0014
FFCA
000C
0022
FFCE
FFF9
0028
FFF8
0002
0001
0034
0020
0038
001A
0031
0038
0056
FFF3
0016
FFC4
FFFA
0005
FFE4
FFF2
FFF6
000F
FFBD
001B
FFBB
FFEF
FFC9
001E
FFC2
000C
FFF1
FFE5
0003
000C
000E
FFF2
0009
001B
0014
0002
FFD9
FFF6
FFF0
0024
000E
FFEA
FFD6
001C
FFFC
FFFB
0016
0008
FFEF
0024
FFF1
0007
0005
0012
0003
FFE1
FFF9
FFF2
0029
0017
FFC8
0008
0014
0009
FFF6
FFE0
FFF6
0006
0006
0034
0002
0010
0014
000F
000D
FFF7
0000
0008
FFFE
FFFE
000A
FFFB
0004
000A
FFE9
FFFC
0014
0000
FFCF
FFEF
FFEB
FFF5
FFFF
005A
0005
0001
0062
FFEB
FFCF
0039
FFB4
001E
FFD1
FFC5
FFF8
0017
FFF2
FFED
0071
FFFF
002D
FF9C
FFA7
002D
0063
FFBC
0008
002D
FFE6
FFF6
0000
000F
FFBC
001D
002C
001C
0011
FFDB
FFE0
FFE9
0045
FFD8
0017
FFD1
0012
FFEB
FFE7
0010
0038
FFB2
FFBF
FFCE
000F
0047
FFBB
002A
001F
0020
0006
0017
0025
0000
0000
002D
FFE8
FFC6
FFE1
FFF2
0026
0001
000E
0002
0009
FFDC
0003
0018
FFED
0011
002E
000E
FFBF
0005
FFF8
FFCC
0052
0009
FFCD
FFE2
FFF5
0001
FFF0
0013
FFED
0007
FFE5
0003
0002
FFEA
0020
FFFE
0009
FFC2
0002
FFF2
000F
FFD6
004B
000B
0011
FFF3
0025
000C
0001
0006
FFFF
0026
FFC0
0023
0022
0008
FFFA
0003
FFF6
FFE5
FFF9
000E
0001
FFEB
FFE8
0023
0020
0010
003A
FFCB
FFF3
FFF9
0003
FFF6
FFE4
0009
FFF2
0008
000B
FFDE
FFF4
003C
0006
FFE2
0029
FFD9
FFDA
FFE4
0003
FFFF
FFE6
0022
FFEF
FFF4
FFFF
FFFA
FFFA
0023
FFF7
FFF7
0009
FFB6
0044
FFCC
0047
FFEC
0046
0009
0026
FFF4
000F
0009
0011
FFED
FFF0
FFFF
FFE8
0022
FFFA
001B
FFEA
FFFA
FFE7
FFFF
0002
0012
000B
000E
FFC0
0007
000D
0011
FFEB
0008
0002
FFE4
FFF4
0011
FFFE
FFFE
FFF2
FFFB
FFED
0010
0021
FFD9
0019
000F
0007
FFF3
FFF1
0012
002F
0001
FFF8
FFF4
FFF1
0011
000B
0013
FFD4
0002
0016
000B
FFFA
0016
FFFA
0012
0010
FFFC
FFE9
FFDE
FFFA
FFFB
FFED
0002
FFF6
FFED
FFCC
FFEE
000C
FFE3
FFF2
FFEF
0004
0008
0004
0015
FFEB
0009
000A
0011
0021
FFE5
FFEB
003C
FFD2
FF9E
002D
FFD9
FFEC
FFE6
FFF7
0014
FFF0
FFF0
FFFD
002D
FF9A
FFE0
0011
0007
0045
FFAB
FFAA
0042
003F
FFE2
FFE7
0055
FFD9
004E
002D
0048
FFA7
0003
FFC2
FFDD
FFCC
FFD7
FFF7
FF9E
0034
0005
0037
FFAE
FFAF
FFB0
004B
0029
003F
FFD4
FFE1
0003
001E
FFEE
0019
001D
003F
0034
FFCB
FFBE
FFED
0039
0009
0004
000C
FFC9
0010
FFB6
FFE1
FFFE
FFA6
0014
001F
FFEE
0002
0017
FFF4
001C
FFEC
FFCB
0028
FFEB
FFAD
0038
FFC8
0008
005B
0015
FFBB
0010
FFF6
FFED
0007
FFD8
0003
0010
FFF5
FFE5
0013
FFBA
0008
FFD8
0043
0007
FFF6
0031
0022
003E
FFCF
0019
FFF0
FFB3
FFCA
0050
003A
0001
FFE7
FFC8
002F
FFD7
0022
000E
0018
002E
FFDB
FFF6
0006
FFDD
0019
FFE8
0036
FFD5
0024
FFD0
FFE6
001D
FFE6
FFF6
FFDE
0020
FFE3
0001
0012
FFBF
FFF9
004C
FFC4
001B
FFE5
FFE8
002E
FFFB
FFA8
FFEF
FFFA
0018
000B
FFFF
0002
FFE8
001B
FFF6
FFB8
FFE3
FFED
FFE0
0037
FFCB
FFF3
0001
002E
0000
FFF9
FFFC
0005
0018
FFFE
FFF3
001E
FFF7
0011
0021
FFEE
0020
FFCB
FFAC
FFF7
FFF6
0017
0000
FFF8
FFD7
FFDC
0015
0026
FFEF
0009
FFFF
0029
FFE3
0004
FFFA
FFED
FFEA
0029
FFF9
FFF3
0004
0019
FFF7
0002
0010
000D
FFF1
0006
FFE8
0000
0008
FFE2
FFE7
001C
0003
0008
000E
FFD5
FFFC
0000
0011
FFFE
FFFE
000A
0008
0006
0004
0013
FFF5
000F
FFEB
FFEA
FFFB
FFF7
FFF4
FFED
FFF9
0007
0018
FFF6
FFE9
FFF8
0014
001A
002D
0002
0005
0017
FFF2
FFDB
FFE8
FFF8
FFDA
FFFF
0033
FFB2
FFC3
000D
FFC8
004A
FFDA
FFD4
0040
FFEF
FFEF
FFC0
FFF4
FFF8
FFFD
000C
0050
FFDC
001B
FFD3
0071
FFD9
FFFA
FFBE
006C
0015
FFCE
FFF0
FFA3
FFDD
FFD7
FFE0
FFF4
0027
0007
0016
001F
FFF8
FFEF
0023
FFF9
0083
003C
FFE8
FFDC
FFF6
FFF0
001E
FFAB
FFED
005D
FF9C
FFE5
FFED
FFB2
FFC9
0014
FFCD
FFFE
0015
0037
FFEB
FFE9
FFE9
FFD5
0014
001F
0028
FFCE
FFFD
FFB6
0031
0008
0000
003E
FFED
FFDC
0006
FFDB
001E
FFF0
0017
0023
FFDB
FFF6
FFEA
FFFD
002D
001B
0033
FFED
0033
FFE6
0000
FFD2
FFF1
FFF4
FFC0
FFDF
FFBF
006B
FFEA
0026
FFC2
002E
FFD8
FFF4
006B
001C
0037
001C
0015
FFE5
0015
0009
FFF8
002B
FFFC
0003
0052
0000
FFAA
FFFB
0005
0004
0027
FFBD
FFED
002A
FFE6
FFD8
FFE0
FFF1
FFFE
0007
000D
000B
0016
0007
001E
FFD5
FFC3
002B
FFFB
FFFD
0025
FFF8
FFC2
FFDC
FFF2
FFF8
001E
FFEA
0040
FFE2
FFD3
0006
000C
FFF5
0004
0023
0003
0020
FFF2
0022
0024
FFD0
0003
FFF6
FFE7
FFED
FFCB
0018
000A
0024
000B
000D
0011
FFE7
FFC4
0025
0020
0024
FFFA
001D
0024
FFF2
0007
FFCB
001D
FFF4
FFDB
0003
FFF4
FFFF
0018
0013
0007
000F
002C
FFEC
FFDB
002C
002B
FFEA
FFFE
0016
FFE4
0006
0021
FFF3
0002
FFDD
0009
0000
000A
0001
0003
FFE0
FFF4
000E
001C
0002
0023
0000
FFFF
002B
000B
FFFF
0003
0007
0012
0002
FFE9
000B
FFE1
001D
FFDF
FFF3
000E
FFEB
0021
FFF8
0001
0012
FFE9
001C
FFE0
0013
0023
FFEF
FFE9
000C
FFE3
FFDD
0015
0005
FFFF
002D
FFED
FFC4
FFED
0008
0007
FFFB
0026
FFF1
0019
002F
FFEA
FFF5
0003
FFEA
FFEF
FFE0
FFFF
FFF4
FFE8
000B
0021
0025
FFCE
002B
002A
FFD8
0000
FFD4
0000
FFE0
000D
FFF6
FFE8
0015
FFFB
FFEF
FFB8
FFD0
FFEB
FFE5
001B
0029
0008
0002
001C
001D
0013
0011
0005
FFE5
0021
FFF9
001F
FFFD
FFFE
FFE8
FFFB
0026
0001
FFFA
0016
003F
0013
0024
0020
FFFF
FFF5
0011
FFDA
001F
0018
FFAE
FFF9
0036
0010
FFED
002B
FFFB
0005
0025
0005
FFF2
002F
001A
FFD8
FFF2
FFCF
0053
003B
FFF3
FFE1
FFDC
000F
FFEF
FFF3
0014
0002
000E
0018
001E
FFDF
FFE8
002C
001E
0025
FFF7
FFCB
000E
001A
002E
FFF1
0017
0012
000D
FFD0
001A
FFCF
FFE3
FFF5
0027
FFC7
0014
FFDC
FFF4
FFFD
0022
FFEE
0034
0023
0008
FFFC
FFED
FFE6
000B
0020
FFCD
FFCF
003C
FFEE
0001
0009
FFFB
000F
FFFE
FFC5
FFE1
FFFB
0024
FFD8
FFFA
FFE1
0009
0030
FFE1
FFBD
FFD3
FFF3
000F
FFCC
FFE9
FFBE
000B
0005
0021
FFEB
FFE4
0028
0028
0028
FFED
002D
FFFE
0014
FFDB
FFF2
FFD9
0001
FFFE
FFCC
FFF8
0018
FFEE
FFE2
FFF3
FFE8
0025
FFEE
FFFE
0004
0011
000E
000A
0007
FFEE
000E
FFF4
000A
0000
FFFA
0010
FFFE
FFFC
FFFA
0004
FFFD
FFFE
0005
0000
FFF1
0003
FFFC
FFF9
000E
0001
FFF6
FFFE
0010
FFF9
0004
FFFB
FFF9
000B
FFFA
0010
FFFB
FFF8
FFF5
0016
000B
0000
0003
000F
FFF6
000F
0002
0006
0000
000B
0002
000D
0000
FFF5
FFFE
0003
0018
FFFB
FFF1
FFF4
FFFA
0004
FFFE
001D
FFFA
FFE1
0024
000B
FFD0
0016
FFEC
003B
002D
FFD2
FFF4
0018
FFF7
000A
0003
000D
FFFB
FFDD
FFFA
0013
FFEF
FFCF
001C
0017
0019
FFEA
0014
FFE5
FFEA
0011
FFF2
FFF9
FFFB
FFEA
FFDF
FFDF
FFD1
FFFE
FFFE
FFEA
000D
0012
FFF8
002A
0021
FFF1
0002
FFFF
0003
0037
FFFA
003D
FFFE
0002
000D
0006
002F
0003
FFFC
0001
FFE5
FFD1
0015
FFE0
0027
FFDA
0007
001B
FFE2
FFDE
0013
0022
FFF4
0003
0044
FFF8
FFCB
0029
FFDB
FFDB
0054
FFCF
FFE0
000B
FFE2
0019
FFD2
0009
0014
FFE5
FFFC
0003
001A
FFE2
FFF7
FFCB
000F
FFD8
FFF7
FFDD
FFEB
0012
0060
0016
FFF9
FFDE
FFEC
0013
0024
FFF5
002A
0003
FFE2
0018
0011
FFFA
0004
0016
0009
0012
0031
FFFE
FFCE
FFDD
FFD2
0007
0034
0008
FFF1
FFD9
0022
FFF1
FFF9
0020
FFD8
0001
0013
FFF0
FFD8
0012
0023
0007
FFFD
000D
FFF0
FFE3
FFF3
FFEF
0005
FFF8
FFF0
FFE6
FFFF
0000
FFFC
FFD4
FFFC
0026
FFFB
001F
FFF7
0007
0022
FFED
000B
FFC3
FFFE
0009
0019
000B
FFE4
0029
FFE3
FFF7
FFDB
FFEC
0004
002E
000A
0013
0000
FFE9
0012
0030
002F
0025
001F
FFF0
FFF1
FFED
FFDA
0003
FFF8
FFFF
FFF7
FFF0
FFF6
FFEC
FFF1
FFFF
0005
000C
FFF2
FFFD
0020
FFEC
000A
0014
FFEC
0009
FFFA
FFFE
0002
0013
FFFD
FFF7
0014
000D
FFE5
000A
FFF8
0002
0011
002D
FFEC
001B
FFF9
0004
000D
0004
FFEA
FFF0
FFE5
0005
FFFB
FFFA
FFE3
0000
0005
FFFC
FFFC
001E
FFFD
FFDE
FFF7
FFFE
0027
0005
0011
0003
001A
FFFC
0022
FFF2
FFE4
0024
0017
FFC7
FFC2
FFE5
FFEE
0002
004E
0016
FFED
004B
0008
FFF8
FFDC
FFD9
0002
0010
0000
FFEC
FFE4
002F
FFDC
0031
FFDD
0032
FFDB
FFF9
0056
000C
FFD4
FFE4
FFBA
FFE6
FFFC
0034
FFEB
FFF8
FFDB
0031
0004
FFC2
FFD4
FFF7
0024
001F
0007
FFE9
0034
FFE6
FFD4
FF9F
0007
FFCE
FFEC
0027
FFE4
FFEE
FFFC
FFEE
FFEA
0004
0022
FFE1
0027
FFF9
FFF1
003F
0012
FFDC
000D
0001
0006
FFF9
FFF1
0008
FFFB
0008
FFED
0001
FFE0
000E
0001
FFF2
FFD9
0013
000E
0026
FFE8
FFFA
FFFD
0010
0004
0007
FFF6
FFDA
0004
FFFE
0026
000A
0003
000F
000E
000A
FFF9
000F
0014
FFEE
002E
002B
FFF0
001F
FFB4
0016
0002
001E
0019
0016
0007
0001
FFEF
FFF5
FFF5
001F
0018
FFF8
FFDC
FFF7
FFE1
002F
0031
FFC4
001D
FFE1
FFDB
FFE8
FF9E
0012
FFE3
0003
FFEC
FFC8
FFF4
0027
FFE7
002B
FFFB
FFFA
FFD1
FFEC
FFE5
FFE3
0004
0009
003B
0000
FFD0
001F
000F
0009
FFE8
0021
0001
0008
003C
FFC9
002B
FFC4
0007
FFEB
0004
000F
001C
FFF0
FFF8
FFE7
FFE3
FFF4
FFF4
0063
FFF5
002C
FFEE
FFBD
0016
FFF2
0022
000C
000A
FFF0
FFE8
FFE4
FFDE
0013
002B
FFD8
FFF9
FFD8
FFD5
FFEF
FFD8
000B
FFF2
002E
FFFD
FFD7
FFF3
0013
FFF9
0014
FFFB
000B
FFD9
FFE3
FFE1
0003
FFE5
FFEF
0039
FFE1
FFF3
000A
FFFA
000D
FFFB
0037
FFFF
000B
0026
FFE4
0017
FFCF
0013
FFE9
0011
FFFF
FFF2
FFF6
FFE7
FFE9
FFFC
FFE9
FFE1
0053
FFEB
FFEF
FFD5
FFE3
002C
0011
0028
FFF4
001B
FFF2
FFF7
FFDD
FFFA
FFE3
0025
0014
FF9F
0027
0024
0054
005A
005D
000A
0026
FFFA
FFF0
FFEB
000A
001F
FFFE
FFD7
0033
0059
FFD5
FFD9
FFDC
0037
001A
FFDB
FFB9
0052
000A
FFEA
0020
000A
FFD0
0058
FFEE
FFFE
0046
FFD1
0054
FFDC
FFF6
001B
0026
0006
FFFD
0026
FFE9
0020
FFCD
FFAD
FFA4
FFDD
FF93
FFD5
000D
FFD4
FFF5
FFAB
FF9C
0015
004A
0002
0010
0043
FFFE
0014
0008
000A
FFE5
0015
0021
0029
FFE7
0025
001B
FFE9
FFFB
001F
000E
0045
0042
0012
FF8B
FFFB
0001
001A
0022
FFD3
0009
0000
FFCE
0057
FFF9
FFD8
FFE3
FFCD
FFA9
006F
FFE7
0028
0047
0019
0051
0002
FFFF
FFF5
001A
FFBC
0000
0036
FFD8
FFEE
FFBD
FFD9
FFBC
FFC5
FFE1
FFFC
0025
0001
008A
FFFC
FFFA
FFBE
0016
FFC6
FFD9
FFE9
FFFE
0013
0038
0009
FFEE
FFC9
0007
FFF9
FFEA
FFF3
FFF3
0004
0003
004F
FFE0
FFF2
003A
FFF4
0015
0010
FFD5
FFFC
0002
0003
FFC9
0030
FFFE
FFEC
FFFA
FFDD
0005
002E
0045
0010
0038
FFF1
0049
001C
FFD0
FFFC
FFDC
0000
0009
0004
FFD3
FFB3
0006
FFFD
0002
FFE3
0021
000D
FFB2
0010
0007
0023
0034
0006
001E
0024
FFEF
FFFC
FFEF
FFBC
0025
001D
FFEE
0000
0003
FFE6
FFFF
FFE5
000C
FFF7
002E
000A
FFE6
0016
0002
0018
001A
FFF2
0002
FFFB
FFFF
FFFB
FFFC
0003
000D
0020
FFE3
0006
FFF9
0000
000B
FFE7
0016
0017
000E
0007
0014
0004
0006
FFFF
FFF6
0018
001D
FFF0
FFEA
000C
FFDC
FFFB
FFDE
FFEE
000F
FFE4
FFD5
FFED
FFFC
FFFA
0014
000D
FFF1
FFE9
0011
FFE7
FFE4
FFDF
FFF1
0002
0009
000B
0049
001A
0010
0016
0014
0017
FFF9
000E
FFEC
0006
0031
000C
FFDD
FFE3
000B
002A
FFF4
FFEA
FFFE
001C
000C
FFF9
FFF1
FFE9
000C
0037
000B
FFF8
FFE6
0005
FFF4
FFE6
000D
FFB7
001C
FFED
0008
FFF5
0003
FFFC
0016
0036
000F
000A
0006
FFF9
FFF6
0012
FFFA
0019
FFF8
FFE4
FFFC
FFFB
FFE0
000F
0012
FFD6
0018
0016
000D
0015
0034
FFE3
FFFC
FFF4
0017
0000
0016
FFCB
0011
0020
FFB6
FFDB
0022
0022
FFE8
0022
0009
FFE3
002E
000D
FFF2
001E
0033
FFC8
0001
FFED
001A
FFFC
FFFE
FFEC
FFFF
FFF2
FFF2
FFD9
000E
000F
0010
000B
FFFA
0005
FFF3
0038
001F
0025
FFD4
FFCF
FFF3
0024
0014
FFD7
001D
FFE4
0006
FFCD
FFF7
FFE4
FFD6
0015
0035
FFE9
FFF0
FFF7
FFFC
000D
FFEA
0017
0011
FFFA
FFE8
FFE2
0002
0022
FFE7
000B
FFE4
FFEA
0024
FFFC
0003
FFFA
FFF1
0006
FFF6
FFEB
FFF0
FFFB
0015
0003
FFF7
FFDA
001D
0009
FFF6
FFCD
FFF9
FFD6
FFFB
FFFC
FFFD
FFD5
000F
000D
0013
FFEF
0004
FFE8
000D
001F
FFED
001B
FFFB
0025
001C
FFEE
FFF9
0007
FFF8
FFFE
0006
0025
FFF3
0007
FFFD
FFCB
FFF8
0008
000D
0001
FFEE
000E
FFF9
FFF3
FFF6
FFF8
FFFB
0013
000E
0010
000B
FFFD
FFEE
0000
000E
000B
FFF9
FFEF
000D
FFEE
FFF5
FFFE
0011
0011
FFF5
000F
FFFD
FFFE
FFF0
FFEA
0008
FFF2
001C
FFE6
0011
FFF2
000B
FFFC
FFEE
FFF1
000E
FFFC
FFF4
FFF7
FFF6
0006
0006
FFFC
0004
0005
FFEA
FFEC
0012
0013
0002
000C
000A
FFF8
FFFB
FFFD
FFF6
0000
0005
0002
FFFE
FFEF
FFFE
FFF7
000C
FFFE
0001
FFF4
000A
0004
0003
FFFD
FFFB
0005
0004
0001
FFF9
FFF8
FFFA
0007
0007
FFFF
0000
0003
FFF2
0009
FFF8
FFFE
FFFC
0007
0007
0008
FFFE
FFFC
0000
0001
0000
FFFD
FFF9
0003
0007
FFFF
FFF9
0000
FFFF
000E
FFF7
0000
FFFD
0001
FFF9
0001
0001
FFF6
0002
0004
0001
FFF8
0001
000A
FFF7
FFF9
0004
0002
FFFC
FFF0
FFF7
FFFF
000B
0004
FFFF
FFFA
000C
0004
0001
0002
FFFB
0006
FFFE
0003
0004
FFF9
0002
0007
0002
0000
0003
0004
FFF5
000A
FFFE
FFFF
0000
0003
0001
0009
FFFD
FFFC
0000
0002
FFFE
FFFC
FFF8
0002
0009
FFFF
FFFD
0003
FFFF
000D
FFFA
0000
FFFC
0002
FFFD
FFFA
0002
FFF9
FFFC
FFFF
FFFE
0000
0003
000D
FFFB
0004
0006
0004
0003
FFEF
FFEF
FFF5
0008
000A
FFFF
FFFB
0014
0001
000A
FFFF
FFF0
000E
FFF9
0002
FFFC
FFF8
0008
000B
FFFF
0004
0001
0005
FFF6
000D
FFF6
FFFA
FFFD
0002
0004
0009
0004
FFFD
0008
0005
FFFD
0001
FFF6
0006
000A
0001
0003
0000
FFFD
0007
FFFC
FFFC
FFFC
0004
FFF8
FFFF
0002
FFFB
FFFD
FFF9
FFF7
0002
0004
000F
FFED
0004
0003
000E
FFFB
FFF2
FFEE
FFFB
0003
FFFC
0000
0000
0018
0000
0001
0005
FFF3
0007
0002
0000
FFF4
FFF7
0008
FFFE
0007
0002
0005
0006
FFF6
000A
FFFF
FFFD
FFFE
FFFE
FFFF
000C
FFFD
0000
0005
0002
FFFE
0001
FFF7
FFFF
0008
0002
0001
FFFA
FFFD
000E
FFFC
FFF9
FFFE
0002
FFFC
FFFF
0002
FFF9
FFFD
FFFA
FFF8
0000
0000
0005
FFF5
0009
0006
0004
0014
0000
0002
FFFD
FFF3
FFF8
FFF2
FFF6
0006
FFFE
0008
0007
0000
0009
0006
0001
0000
0001
FFF7
0002
0008
0006
FFFA
0009
FFFD
0005
0004
FFFF
FFF3
0005
0003
000B
0006
0003
0012
000E
FFFF
FFF2
0006
0004
0008
0006
FFEF
FFFF
FFFF
0006
FFFA
FFF4
0005
0002
FFF6
FFFA
FFFE
FFFF
0008
FFFC
FFF9
FFF4
0001
0004
FFFB
FFF2
000C
000D
0006
0003
0002
FFFC
FFFF
FFF5
0003
0004
0005
0001
0007
0003
0000
0005
FFF5
000C
FFFD
FFF0
0003
0011
000A
0000
000B
0002
FFFD
FFFF
FFFC
0002
FFFE
0009
000C
0006
FFF6
0000
0006
0008
FFFC
FFFD
0002
FFFD
0002
FFFD
FFFB
FFFC
FFFB
FFFF
FFFE
0000
0009
0004
FFFC
0004
0007
FFF7
FFF7
0008
FFFF
FFF3
FFFF
FFFB
FFF8
0001
000C
0007
FFF8
FFF4
FFFC
FFF8
0007
FFF9
0006
FFFA
0007
FFFE
000B
FFFA
FFFA
0008
FFFE
0005
FFF8
FFF1
0002
0013
FFFA
FFFE
0002
0005
0002
0007
FFFD
FFF4
0002
0009
000A
0005
FFF6
FFFF
FFFF
000D
FFFA
FFFF
FFF4
FFF6
0001
FFFA
000D
0003
FFFF
0013
FFFE
FFFC
0001
0004
0000
0010
FFFF
0000
FFFA
0008
FFFB
FFFD
FFFB
0002
FFE8
0003
000A
FFFF
FFF3
FFFB
0000
FFF4
0005
0000
FFFC
FFF8
000D
FFF7
0008
0007
FFF3
FFFF
0003
FFFB
FFFC
FFFB
0000
000D
FFFA
0005
000E
000A
FFF6
0007
000A
FFF0
0003
0009
0005
0000
0009
0000
0000
0008
FFFC
FFFE
FFFC
0001
FFFF
FFF3
FFF9
FFFC
0003
0003
FFF3
FFF2
0001
FFFF
FFF0
000F
FFFE
FFFB
FFFA
0000
FFF5
0008
FFF5
0014
FFEA
FFF7
FFF3
FFE4
0010
0020
FFF2
FFFE
FFDE
FFDF
FFDB
000F
FFD5
FFFC
FFFE
FFFB
0006
FFFD
000E
FFFE
FFEB
0014
FFF3
FFFC
FFF2
0009
FFED
0010
0018
FFE7
000D
FFF9
FFE7
FFFF
FFE9
FFEF
FFFE
FFF8
FFF9
0002
FFFF
0007
FFFB
FFF9
FFF6
0004
0011
001A
FFFF
FFF2
0005
0019
002F
0006
0011
000C
FFFD
0015
FFFA
FFFE
0025
0021
FFFF
FFE7
FFE7
FFEE
FFFC
FFFF
000E
0014
FFF7
FFFD
000F
0008
0007
0014
0004
FFEC
000D
000B
FFE3
0015
0003
0006
0006
FFF1
FFFA
0011
000C
FFFD
FFF6
001D
FFF0
FFFA
0015
FFFD
FFE9
0007
000C
0003
001A
FFEF
0004
FFE1
0004
FFF3
FFFA
0008
FFFF
FFE7
0003
0011
FFF6
FFF5
FFED
0002
0000
FFF4
FFE5
FFFA
0008
0016
000F
000F
FFEF
FFFD
0007
0016
FFEE
FFFC
001D
000E
FFF6
FFEB
FFF6
FFF1
001A
0000
000D
FFF0
0004
0013
0005
FFF6
FFFF
0010
FFEF
000A
FFFF
FFF1
0006
0001
0008
000B
0012
FFFA
FFEF
0010
FFF7
0009
0003
0002
0015
0008
FFF6
FFF6
FFFF
0002
FFF3
FFFA
FFEE
FFF4
000F
0006
0000
0008
FFEE
002C
FFEF
FFE5
FFF6
FFFE
FFE2
0007
000A
FFE7
FFE7
0015
FFEC
FFFB
0004
001C
FFFE
0017
000A
000D
0004
FFF6
FFF9
FFFC
000E
FFFC
0006
FFFF
0013
FFFF
0005
0007
FFFD
0004
FFF7
000B
FFFA
FFF2
0001
0007
0003
FFFF
0008
0004
FFFB
000B
FFFE
0003
0005
0004
0006
000A
FFFD
0000
0002
0001
FFFA
0003
0003
FFFE
0006
0002
0003
FFFA
0005
000A
FFFA
FFF5
0000
0001
FFFD
FFFC
0002
FFF9
FFF9
FFFF
FFF4
0001
FFF8
0011
FFF8
000A
FFFF
FFF0
0005
002C
FFF7
FFED
FFEE
FFD2
FFF3
002E
FFD2
000A
0013
001D
0003
FFF5
002B
FFF2
FFD1
0006
FFE3
0012
FFE6
FFF4
FFEC
002A
000C
FFE6
0020
FFE3
0006
0005
0001
FFDF
FFFB
000C
0015
000C
FFEF
0010
FFED
FFEB
0000
FFC8
FFF5
FFF7
FFF9
FFEF
0004
0013
0035
0008
FFF3
002B
FFFF
0025
001C
001C
000C
0018
FFF9
FFD3
FFDE
FFE5
FFFD
0001
FFD6
FFD7
000D
0016
0019
000D
000E
FFF5
000F
FFF1
0003
FFD9
0001
FFF8
FFE7
FFE4
002C
0009
0005
FFE0
001C
0009
FFF9
FFE9
FFF7
0012
FFCC
0019
0009
FFF1
0012
FFEC
0003
FFF6
FFF6
FFE1
0000
FFF6
0009
0011
001F
000D
001B
FFFB
000B
002F
FFF9
FFF9
FFE3
0015
0001
FFFA
FFFD
FFE0
FFDD
0014
FFF1
0001
FFF3
0014
001E
003C
FFFF
0007
001C
FFE9
FFF2
FFE8
FFFC
0005
0008
FFE9
0001
0003
FFF7
001B
FFED
0013
000D
FFEF
0008
FFFB
FFE4
001F
000A
0005
FFF2
0017
000F
FFF3
000B
FFED
FFF0
0025
0003
0001
FFF9
000F
0014
002B
FFF2
FFF9
FFEF
000D
0002
0002
FFF2
0006
FFF2
FFF7
FFF0
FFF8
0009
FFF1
0003
FFF4
FFF1
0014
FFFD
FFF8
FFFF
0015
000A
0009
0000
FFEF
0005
0009
0003
FFFD
FFFB
FFFA
0006
FFFA
0006
FFF9
0009
0003
FFFA
0001
0003
FFF8
0000
0005
0000
FFFC
FFFF
FFFA
0003
FFFE
0001
0005
FFF7
0004
FFFF
FFFB
0001
FFFE
0004
0007
FFFC
0002
0003
0003
FFF9
0004
FFFB
FFFF
FFFF
0003
0001
0000
FFFE
000E
FFFC
FFF8
0004
0002
FFFC
FFFD
FFF9
FFFE
FFFD
0001
FFF9
0001
FFFC
0001
FFF8
0009
0016
FFE3
0012
FFED
FFEC
0014
003C
0001
001A
004C
FFE5
FFDC
FFEB
0004
000A
FFD9
002B
FFC6
0048
0033
0033
FFDB
0053
002B
FFCF
FFC3
FFEC
FFF6
0023
FFDC
001D
FFC1
003E
FFEA
003A
FFC8
0044
FFC3
0005
FFF4
0012
FFFE
001E
0030
002E
FFD5
0020
FFD8
FFF6
0000
FFEF
0012
FFC3
005F
002A
FFE6
FFF3
FFC1
FFD5
003C
002B
FFFC
0001
FFF3
0049
FFD8
FFEA
FFF0
FF8F
FFFC
0036
FFE6
0017
FFFB
FFED
FFF7
0008
FFE7
FFD0
FFDE
0024
0017
001D
FFC4
0039
0018
0020
0009
FFF1
FFB3
001E
0033
0035
FF87
0023
FFF2
003A
FFDF
0057
FFC0
0011
0025
FFDF
0003
FFB9
FFE4
FFED
0048
0000
FFC0
0008
FFCF
FFF7
000D
FFE7
0006
FFA7
0048
0054
FFE1
FFDA
FFB0
FFFE
005E
0022
0063
FFC9
FFF1
003A
FFF8
FFE4
FFC7
FFAF
FFD8
0002
FFFB
0038
FFEF
FFF3
FFE5
0002
0004
FFCE
FFF9
0020
FFF0
0017
FFDC
0022
0038
FFFB
0025
0021
FFF6
000E
003C
0013
FFA4
001F
003D
000A
0001
FFE5
0013
FFF6
0034
FFF9
FFF2
FFCA
001E
FFFB
0023
FFDA
FFDB
FFF6
FFE5
FFF4
FFF9
FFEF
0008
000B
0009
0004
FFFB
FFE9
FFBB
0012
0023
0022
003B
FFC5
0006
FFDC
0015
0016
FFCE
FFE6
FFFF
FFFA
000D
0012
FFEC
002D
FFF1
FFED
FFDA
0006
FFFB
0002
0008
000C
FFFA
0012
FFE6
003D
FFE3
FFED
FFEB
FFF7
0025
FFF9
FFF5
FFE7
0007
FFD7
0050
FFDE
000F
FFF8
001A
000B
0000
0007
0023
FFE7
004A
0008
FFE6
0014
FFF4
FFED
FFED
FFE6
0000
FFF7
FFE4
FFF3
FFEB
0020
FFD6
0013
FFF0
FFFA
FFEA
FFFD
000E
002F
0017
FFFF
0029
FFE0
001D
002F
FFD0
FFAD
FFEA
FFAB
0034
FFCF
FFEB
003A
000C
FFCE
0037
FFDF
FFD0
0079
FFFD
0051
0037
FFBE
FFBD
0044
FFC2
FFDB
0045
0021
FFBE
0065
FFF1
0064
FF93
0004
000C
FFD5
FFF0
0019
FFE9
005A
0027
000E
000E
FFEE
FFCB
FFF5
004C
0023
FFD8
FFF9
005C
002B
FFA3
FFEF
0034
FFCE
FFD3
0032
001E
0047
FFD6
FFF7
0016
FFBE
FFF8
0008
0065
0005
000F
FF7A
0000
FFEB
0004
FFC8
0001
0049
0016
FFDB
002B
FF90
FFF4
0026
001F
0054
FFE0
FFE8
FFAF
0036
FFBB
0005
005D
FFB4
FF67
FFE4
0036
0004
0008
FFEB
002A
0034
0007
0052
FFA3
001F
FFEC
FFFD
0038
FFF0
0007
FFE4
0036
FFA7
FFCB
0010
0041
003C
FFB4
0038
0021
FFC6
FFA4
0006
0008
0036
FFE8
000D
0052
FFA9
FFA8
0008
FFAB
FFCF
FFD4
000F
FFB1
001E
006B
FFC1
0033
FFF3
FFEC
0009
FFFD
0033
0016
0011
FFA7
FFCE
FFE5
0013
0052
FFE4
FFE4
FFFA
0006
0011
FFF6
0049
FFCA
0039
FFBC
FFD7
0000
FFFE
0017
FFAF
FFC6
FFFA
FFCA
FF69
0006
FFF4
0098
0002
FFF8
0028
FFE2
FF8D
FFDA
FFFD
002C
FFC3
0055
FFDC
FFEE
FFF5
0049
FFE0
001E
0003
0013
FFE7
FFFB
0005
FFDD
FFFB
FFE9
001A
000C
0018
FFFA
0002
FFF3
0010
0014
0010
FFFC
FFE8
FFF9
FFF4
FFFC
000C
FFE9
0013
0012
FFDC
0012
FFFC
FFF2
FFFB
FFEB
FFE6
0031
FFEB
000E
FFF2
0008
FFFD
FFFF
FFF8
0026
FFFA
FFEA
000E
0001
FFF2
0003
FFD8
FFE8
000B
FFFD
0006
FFF3
FFF7
0002
0015
000B
0001
FFF7
FFE8
FFD9
FFF6
FFFD
002F
000F
0051
0058
0049
0018
0010
FFB1
FFD2
FFE1
FFB0
0023
FFB3
FFEE
007A
0018
FFBF
0034
0006
FFF5
0012
001A
FFED
0045
FFDD
FFED
002A
FF7F
0040
0058
0024
FFDC
0023
FFEA
0021
FFD3
FFE7
0002
FFD6
FFE4
0016
FFDA
FFF1
0039
0009
0065
FFF0
FFDB
0008
0042
0045
FFDF
FFBD
005A
FFE1
FFC7
FFD4
0010
FFA7
001A
0033
FFEB
002C
FFDA
FFC3
FFF2
0020
0015
0049
005F
0056
0007
FFF9
0054
FFC5
FFD4
FFCE
FFD9
0078
FFEE
FFCB
FFF7
FFB7
0054
FFE5
0010
FFD4
0032
FFF6
FFDB
FFD5
FFE3
004A
0049
FFE6
FFB4
FF97
0032
FFA4
0040
FFF4
FFD2
0033
0020
0065
FFD6
FFE0
FFD9
0038
0046
000B
FFF4
FFEE
0003
FFFD
FFE6
0012
003F
0008
FFD9
005A
FFBD
FFB5
0000
0024
FFA3
002C
002B
FFFC
0029
FFEA
FFC6
FFD2
FF9A
FFE3
0001
001C
FFE0
001F
001F
FFEE
FFE2
FFC7
002B
FFFB
0009
0035
FFFF
FFFA
FFBE
FFC9
FFF6
FFF8
0017
FFF3
004B
FFF6
FFB8
0014
002F
002D
FFCA
0024
FFD4
FFF0
FFEF
FFFE
FFF9
FF92
002F
FFD4
0012
FFC3
0016
FFCC
002C
FFE6
0001
0015
FFBD
FFB8
FFAB
000E
0028
FFD8
FFF5
FFEB
0014
0019
0020
FFC9
0025
FFF8
FFF4
000C
FFF5
FFF7
FFDB
000B
0006
001D
0026
0017
FFFF
0017
0000
FFF9
000B
0024
FFF2
FFEC
FFF7
FFE9
FFE0
0011
FFDC
FFF6
0018
FFDF
003A
FFF2
FFDF
000C
FFDD
FFDB
0025
0003
FFFF
0017
FFE8
0012
FFFB
FFE2
0029
FFE7
FFF4
0043
FFFC
FFFD
FFE6
FFD0
0004
FFFB
FFD6
0002
FFBF
FFEC
0019
0021
0000
0006
0021
FFEA
FFD5
FFD8
000A
FFE9
FFE4
0020
0033
000F
FFF3
FFE6
FFD9
0002
0017
FFC3
000E
0008
0016
0016
FFEC
0016
0018
FFDE
FFF7
FFCC
0024
FFE8
000C
FFEF
002D
001D
FFC5
0032
FFF7
0002
0010
FFED
FFE8
FFD6
0015
000D
0005
FFE4
0014
0006
FFEB
FFDE
FFE3
FFF7
0025
0004
FFD8
0013
002E
0050
0005
0022
002D
FFE7
0029
0007
000C
0014
0019
FFFB
FFC3
0013
FFE3
FFEA
FFD8
FFC6
0017
000F
FFEA
FFF0
FFE4
FFE6
004A
FFEC
0025
0033
0001
FFED
FFD4
0022
0016
FFF1
0017
FFE4
FFD6
FFF8
FFC3
FFE5
0032
FFF8
0000
FFF5
000D
000A
FFE0
0029
FFB1
001E
FFCE
0002
FFCA
FFF7
001D
FFFD
FFCF
FFDF
FFA2
FFEC
000C
002B
0033
000D
0036
0024
0021
FFE9
0013
0015
0041
000C
0062
000F
000F
FFC4
FFFB
FFE2
000E
FFE6
0004
FFC2
FFC2
FFE6
FFF4
FFC3
0013
0003
FFDD
0010
001E
003A
FFFD
FFC7
FFF0
FFF7
000F
FFFF
0004
0000
0001
FFF0
FFFA
0021
0000
0015
0013
FFD9
FFF5
FFF7
000F
FFF9
FFF8
FFC7
0004
FFE3
002C
0018
000E
FFF2
0007
0008
FFFA
FFD5
FFED
0028
0047
0020
FFF0
FFE3
003E
0017
FFEF
0012
0005
FFCC
0018
0014
FFDA
FFDF
0034
0001
002D
FFF7
000B
0012
FFFB
0017
FFF3
FFEE
FFF8
000C
0017
0014
0003
FFFC
FFE9
000B
FFFD
FFFC
0009
0011
0003
0002
FFE6
0002
FFFB
FFFD
0017
FFF9
FFF7
0003
000B
FFFC
FFEF
FFFE
0009
FFF7
FFF4
FFF8
FFEF
0004
0006
0002
000D
FFF3
0001
0020
FFFE
0012
FFFA
FFFE
0006
000B
0006
0001
FFF9
FFF0
000F
FFFD
0012
FFF8
FFFB
FFF0
FFE8
0001
0018
0019
FFF3
FFF4
FFF4
FFFF
0006
0018
FFF5
0000
0006
FFF0
FFEE
FFF7
0010
0007
FFF8
0016
FFDE
0009
0012
FFFE
FFFB
0019
000F
FFF2
FFE8
0000
0002
0007
FFF6
0004
FFEB
0007
FFFE
0005
FFFB
001B
0007
FFFE
FFEF
FFF9
0002
0009
0003
0002
FFF2
FFFE
FFF6
FFF3
0000
FFF1
0005
0008
000F
0000
FFF6
FFFA
FFEF
FFF8
0000
0006
0005
0006
0003
FFF7
FFFD
0017
FFFB
0007
0004
0008
000B
0007
FFFD
FFF5
000D
FFFF
000C
FFFC
FFEA
0004
FFF9
000D
0010
FFF9
FFEB
0003
000E
FFF6
FFE5
FFFE
FFFF
FFFC
FFEF
FFF8
FFFA
000C
0003
0002
FFEE
0016
0012
FFF7
0015
000F
000D
FFFB
0021
000E
FFDE
0007
FFFF
0009
0004
FFF8
000D
0015
FFFA
000B
FFFD
FFFD
FFF9
0000
0014
0005
FFFD
0005
000C
FFF0
0009
000E
FFEC
000E
000F
0005
000D
FFFB
FFE8
0003
0010
FFF5
FFFE
000F
FFFD
0014
FFFB
000B
0016
FFED
FFEE
0007
0010
FFFA
FFF0
0002
0006
FFF9
0009
0001
000A
FFF8
001E
FFE8
FFFB
0022
0010
FFF9
0007
0014
000E
FFFC
0028
FFFE
FFF6
FFFA
0004
0003
FFFA
FFEE
0006
0004
0006
0002
FFEE
0002
FFF6
0001
0001
FFFC
FFF2
0025
FFF9
FFFC
0004
FFF6
0003
0005
0007
FFF3
0006
0000
0009
FFFD
0003
0005
0002
0006
FFFD
0010
000C
FFEB
0013
FFFA
FFF0
0008
FFEF
FFF8
0000
FFFA
000B
0005
FFF2
FFEA
FFFC
FFE4
000F
FFEE
0009
000B
0008
0012
0002
FFF7
FFF6
FFF4
FFFB
FFFD
FFFC
0003
0005
FFF8
FFEE
FFF6
0009
FFF3
FFF7
0004
0005
001F
FFEB
FFFF
0002
0000
FFF8
0005
0009
0020
FFF2
0011
003E
FFFA
FFF0
FFE5
FFDB
FFC0
FFCE
FFBE
0019
FFEB
FFEC
0015
0014
FFEE
0024
FFFA
FFBA
0004
0021
FFEB
002C
FFF8
FFE3
0070
FFA2
001E
FFFD
0007
0011
001E
FFB6
FFF6
FFEF
FFF1
0035
FFBB
FFFF
FFF7
FFEA
FFDF
0046
0008
0018
FFE2
FFB9
0011
0040
0054
FFF7
006A
0022
FFF5
FFFC
FFB2
FFFE
0030
0016
0019
0006
0033
FFC5
FFE0
FFE0
FFEE
001C
001B
002C
0036
FFFC
0005
0077
FFF0
FFA5
0024
FFDF
0026
FFF6
FFDC
FFD9
0014
000B
FFE7
FFCD
FFF6
0002
0009
FFFD
FFDA
0006
FFF6
001C
0032
FFB3
FFF7
FFFB
FFF4
0025
FFCF
FF80
0019
000D
0033
0028
FFEC
0011
0086
0016
0005
FFD8
FFFD
0024
FFF7
0017
0034
FFE1
FFEF
FFE6
FFF0
FFF6
FFE4
0039
0011
FFC0
FFFD
0027
0028
FFFC
FFE9
FFEF
FFE4
FFE9
0024
FFFA
001B
0001
FFFA
FFED
0004
0005
FFDB
0020
0003
FFF6
FFE6
FFF5
002E
001C
FFDE
0010
0025
FFF2
FFF7
0024
0000
FFF3
001B
FFE8
0008
0008
000C
FFE6
0002
FFE8
0021
FFE6
FFE4
FFF4
000B
FFF0
FFEF
0013
FFE9
0007
FFF2
000D
FFD8
FFDF
FFF3
FFF4
0013
FFFA
0000
0003
FFE4
FFDA
0027
0030
FFCA
0001
FFEB
FFF8
FFF8
FFF2
FFEF
0006
FFF9
0008
0006
FFFE
000F
FFF2
0004
FFED
FFF5
FFF1
0005
FFEF
0003
0003
FFED
FFEE
0016
FFF7
FFFE
FFF7
FFFF
001B
FFFA
FFFB
FFF7
FFFC
FFE0
0028
FFFC
0014
FFE8
0005
0010
0002
FFFB
0012
FFF3
0010
0003
FFEC
0017
FFFF
FFEF
FFF2
FFE9
0009
FFFA
0002
FFF6
FFE3
FFFC
FFF5
FFF6
FFFE
FFEC
FFFC
0001
000A
003F
FFE4
0028
0017
FFD8
FFF5
FFA8
FFFF
FFBA
FF5C
FFE6
0050
0011
FFDE
FFE6
FFE5
FFCF
006B
0021
FF95
0035
0033
0010
FFFF
FFFC
FFD1
008C
FFA8
0016
FFF7
FFE6
0042
005C
FF9A
001C
FFC8
FFD4
0074
FFA9
001B
FFF2
FFC4
FFD0
006C
FFB8
FFDD
000D
FFFE
0058
000D
0030
0036
0009
0047
0022
FFF6
FF7C
0018
002F
0016
FFF0
006D
0034
FFD6
0001
FFF1
FFED
0010
0000
0015
003D
0003
0013
003E
0000
FFB2
0013
FFE8
0004
0006
FFE8
FFEC
001A
FFF2
FFE4
FFFE
0017
0006
FFEB
0000
FFEC
0011
0001
FFFF
0021
FFE3
0011
000C
FFF2
001A
FFF0
FFC8
FFFB
FFF6
002F
0032
FFFF
000F
005D
FFF7
0009
FFCD
FFEC
FFF6
FFED
0009
001D
FFF1
FFFB
0017
001C
0004
FFDA
003C
FFF5
FFF9
0009
FFF8
0006
001A
FFDB
FFC5
FFF3
FFD2
0005
0010
0029
FFDD
003E
0028
FFFB
FFED
FFE1
000A
FFF6
0005
0017
FFEC
001D
FFE7
FFE5
FFFA
0035
000B
FFE7
0028
FFFD
FFF8
0000
FFFA
000B
FFDE
0016
FFE9
0003
FFE8
0013
FFF5
FFC9
FFFB
FFFC
0000
FFF6
0008
FFEC
003D
FFF3
FFE7
FFE6
FFF6
FFDF
FFCA
000E
0018
FFEF
001C
FFD8
FFFE
000A
002B
FFE9
0028
FFFD
FFFD
0000
0005
FFFE
FFF3
FFF7
FFF1
000F
0010
FFFE
0008
0009
0007
FFFE
FFEF
0002
FFFB
FFFC
000C
FFF3
FFDD
FFF2
FFFE
0003
000E
FFFC
000D
0009
FFF4
000D
FFF0
0000
FFFF
000B
FFF9
0004
FFED
0015
0002
0001
0003
FFFD
FFF5
000A
FFFB
0013
000B
0003
FFFC
0003
FFFE
FFF1
FFF1
FFF6
FFFE
FFFA
000E
FFF3
0012
FFF0
FFF9
FFE7
000E
FFF2
000A
0002
0006
FFFE
0003
FFC7
FFF2
FFE8
0002
FFE6
0027
FFFB
0023
0011
FFEB
002B
0017
FFE3
FFF1
FFDF
FFFC
0002
FFDF
FFED
000E
001C
FFD2
0027
FFFD
FFE3
0004
FFFD
FFFE
0001
000B
0024
001A
FFFE
000E
0005
FFDD
FFF1
FFEE
FFC4
FFF3
0010
0028
000D
FFED
000C
0014
FFDF
0020
0001
0020
FFFB
000B
000B
FFF8
FFEE
FFF9
000A
FFD7
0000
FFFD
FFEF
0020
0002
FFFA
FFDC
FFE0
FFCA
FFFD
FFF9
0017
000E
0024
0001
0001
0039
0021
FFD8
FFEE
FFD3
FFFD
FFF3
FFCA
FFE2
0030
FFF9
FFD6
001B
FFF7
FFEA
0010
FFFD
0010
0009
FFEE
000A
0016
FFF3
FFF6
FFE3
FFD4
FFE6
FFC6
FFBB
FFF8
0004
001C
FFFD
FFED
000B
0007
FFB2
000D
FFFB
002C
0030
0028
000D
FFF8
FFE0
0005
FFFD
FFE5
FFF7
0011
0005
FFED
0003
FFE8
FFEB
FFF4
FFF8
FFE5
0017
000C
FFE8
000D
0002
FFFA
000B
FFF8
000C
0005
0004
FFF4
FFF7
FFFA
000C
000D
FFF4
FFF3
0009
0004
FFF5
FFF4
FFFE
FFFB
0002
0008
0002
001D
FFFD
FFFF
0003
0004
FFFA
0003
FFED
FFF9
FFFD
000E
FFFB
FFF9
0007
0003
FFF5
FFEC
FFF2
0010
0001
000A
0001
FFFD
FFF7
FFFE
FFF6
FFF6
FFFD
0001
FFF6
0000
FFFE
FFF2
FFF0
FFEF
0009
0009
0002
0003
0003
FFF9
0004
0000
FFFC
0004
0000
0002
0009
FFDF
FFEF
FFFB
001A
0015
FFF4
FFFB
0003
FFFC
0003
FFEF
FFF8
0000
FFFA
0001
FFF8
FFF7
0004
000A
0000
0000
0000
FFEF
0005
0004
0007
0002
FFFD
FFFE
0014
FFFC
000D
0004
FFFC
0002
000A
000B
0009
0000
FFF8
FFF5
FFF7
0001
002F
FFFA
FFFB
FFF6
FFFA
FFFE
0046
FFDC
0022
000F
FFDE
FFE3
FFFD
FFE9
0006
0027
FFFE
FFE6
0005
FFEF
0016
0012
FFF4
002A
FFFE
FFD1
FFF4
0014
FFF9
FFEC
002B
0002
0026
000E
0003
FFE3
0002
FFEA
FFEE
FFFF
FFFE
001D
001B
0013
0033
0010
FFF4
FFE4
FFE1
FFF9
0010
FFF3
0020
000E
0008
FFEA
FFFC
FFE3
FFEE
000F
002B
0000
FFFC
000E
003A
0029
FFAE
FFE2
FFC2
0006
FFF3
FFD2
002E
003B
000C
000D
FFE2
FFC2
FFE2
001D
FFCE
0035
001F
FFC3
004F
001E
FFF3
003B
004B
0003
FFE6
0017
0064
FFC4
0016
FFE6
002C
FFF2
FFF3
FFE1
FFDB
0015
002D
0028
FFEC
FFF3
0024
0014
FFFA
003B
FFEE
FFC6
FFFE
FFFC
0027
000C
FFF8
0033
0050
FFDE
FFBB
FFBF
FF94
002E
0056
000F
FFC8
002A
000A
0031
FFF7
FFFF
FFEE
FFFC
FFEF
FFFF
0018
0023
0018
0009
FFEF
FFFE
FFF3
000E
0001
001C
000E
FFDB
000A
0013
0007
0011
000C
0017
FFEC
FFF4
0037
FFDE
FFF6
000F
FFF9
002E
FFE5
FFEF
0009
0022
000C
0022
0006
0001
FFF9
001C
0005
FFFA
000E
FFCB
0002
FFF1
FFFE
0018
FFF9
FFFD
0022
0009
000A
FFDD
FFE1
0014
000C
FFF4
FFE7
FFFD
FFEF
0011
0012
FFF2
0001
001D
0013
001D
0008
FFF6
0016
0007
FFFB
FFF9
0008
0009
FFF7
FFFD
0020
0015
FFEA
FFED
0013
000E
0004
FFED
FFFF
0012
FFFB
0003
0006
FFEE
FFEF
0020
FFF5
0002
0016
FFFF
000C
FFFA
000A
001A
FFF8
003E
0013
0005
FFF5
FFF2
FFE6
FFFE
FFD8
0002
FFF7
FFF2
0001
FFEA
FFFE
FFE0
FFF2
0007
0005
FFF0
001E
0004
0028
FFCD
FFFE
004D
FFFE
FFFA
0003
FFA2
FFB3
FFC7
FFB7
0040
FFF5
FFDB
003A
0010
FFDA
004D
FFC9
FFB8
0078
FFF3
FFD1
0007
000C
FFDD
0053
FFEE
FFEF
003B
0021
FFBC
FFEC
FFB0
0036
FF7D
FFC9
FFD8
FFFD
001B
FFF3
FFBE
000A
0016
0024
0057
FFE5
FFD3
0019
0092
0040
FFE6
003C
0011
0034
FFCA
FFCB
0052
0024
FFDD
0020
FFF2
FFF0
FFE9
FFEF
FFF7
FFCD
FFF9
000F
0028
FFD4
000F
FFF9
0027
FFF9
FFCD
FFFB
FFFF
FFE6
FFD5
FFC7
FFE9
000C
FFE0
0001
0002
0008
001B
0022
000A
001D
FFCB
002B
002F
FFD5
FFE2
FFE4
FFE6
FFD5
0023
FFCA
FFB7
0045
FFF8
003F
FFC6
0018
FFE6
000C
001E
002C
0025
003A
001E
FFF1
0045
0042
0013
FFEE
FFFE
FFDE
FFF7
FFD6
0001
0007
0026
0026
0025
FFD1
0031
0052
FFCD
0026
FFDA
FFE9
0023
000B
FFF3
000D
001C
FFCC
0027
FFF2
0004
000C
FFB7
006C
0037
FFC6
FFB9
0031
0016
FFCF
0024
000C
0001
0008
0003
FFD7
0016
0000
FFFD
0012
0002
0018
FFE0
FFFA
FFCC
FFE0
0028
FFFC
0032
FFF2
FFF3
0004
0051
FFF8
FFE1
FFFA
FFDB
FFC1
FFB5
FFAE
0024
FFDB
FFFC
FFDC
FFF7
0007
FFFE
0035
0000
FFFA
FFF3
FFFF
0000
FFF2
0003
0004
FFFC
0014
002D
FFFE
FFD9
0004
000D
FFF0
0015
0019
FFF3
FFED
000C
0008
000E
0016
FFFF
0013
FFF7
FFF8
0026
0015
FFD9
FFE8
FFF5
FFC9
0031
FFE5
0018
0005
FFF8
0019
FFF6
FFFE
0015
FFF6
FFF1
0001
0002
FFFA
FFEC
FFDA
FFE7
FFE0
FFF7
000A
000D
0005
FFFD
0034
FFD8
0001
FFE7
0004
FFEF
FFD9
FFED
0009
FFE6
003C
000F
FFF5
FFE9
FFD8
FFEF
FFA1
FFA7
FFE4
0043
FFFF
FFF3
FFF3
0004
FFD3
004A
FFCE
FF9E
006D
0017
FFFD
0000
000A
FFE6
008D
FFCF
FFB6
0045
0006
001D
001C
FFB2
003D
FFAC
FFD4
0014
FFDF
0007
001F
FFCC
0017
000F
FFFF
001C
FFDF
FFDB
0027
0088
002A
FFE8
0035
FFEF
000B
FFFA
FFFB
0057
002A
FFC1
0000
0026
0022
FFC6
0031
0003
0003
0014
FFFB
005A
0006
001B
FFB7
FFE0
FFCD
FFE4
FFEE
FFFB
0003
FFEC
FFD7
FFFE
FFFE
FFFC
0000
0032
0065
002C
FFD6
FFE7
0060
FF78
FFF5
0050
FFBB
000D
004D
0001
FFE0
0023
0008
0040
FFFF
FFEE
0073
FFBD
0028
001B
FFD8
FFF4
0022
0002
004B
FFF3
FFD0
0043
004B
0086
FFDE
FFCD
FFC6
0024
FFE5
FFD7
FFE9
0035
006D
FFD8
0021
0022
001E
FFF6
FFBF
FFBC
FFF0
000D
0023
FFE9
0021
FFE8
0013
0035
FF91
004D
FFFC
FFF4
002A
FFE5
FFDC
0016
FFFB
0019
FFEA
003A
FFF4
0015
001E
FF9E
FFFE
0057
004E
FFF7
002C
FFF2
0020
000C
FFEC
FFC4
FFB9
0036
0007
FFF8
FFA4
FFE9
FFDC
000C
FFE5
FFC1
FFDD
FFC2
FFA7
FFDB
0002
0041
000D
FFE3
FFCA
001B
0037
0050
FFCF
FFE0
FFF2
FFE9
000D
FFFC
FFF1
FFF7
FFFF
FFFA
0025
003B
FFFC
FFEC
000A
0017
FFEC
0001
0015
FFEE
FFF6
0015
0002
FFFB
0002
0006
FFFE
000F
FFFE
FFFF
0010
FFE1
FFF7
0003
FFE9
0018
0000
FFFF
0025
FFF8
000C
FFFC
FFF9
FFFB
FFF1
FFE1
0015
FFE2
0013
FFE8
FFEB
FFFF
FFF5
FFF5
0011
0004
0005
0011
002B
FFE7
FFFB
0000
FFED
FFF6
FFE5
FFED
FFFD
FFF5
0011
FFC8
FFF8
FFE4
FFF1
0010
001E
FFCC
0005
000B
FFF6
FFDE
0013
FFF8
FFDF
0031
0003
FFCB
002C
0001
FFF2
000F
001E
FFF9
0020
000B
FFE4
0032
0009
FFF0
FFF8
FFEB
FFFC
FFF7
FFC4
FFDE
0014
FFF8
0007
FFDD
FFFD
0029
0014
0034
FFF6
0003
000A
0033
0014
FFF5
0050
FFDA
FFF1
FFFC
FFE9
0011
0002
FFDD
0005
0025
001D
001C
0018
FFDF
0015
004F
FFFE
000B
FFD9
FFD3
FFB2
0000
FFB3
0011
001F
003C
001D
FFF5
0001
0041
FFC2
FFC9
FFCD
0030
0003
FFEB
FFD3
0008
0046
FF9A
002B
0019
FFED
0019
0034
FFE1
FFFD
FFF6
000C
002D
FFB3
FFF8
000B
FFC4
FFDA
FFF6
FFEA
FFFE
000B
FFE4
001C
001E
0036
000F
0013
0043
FFF4
0028
0012
0051
0016
0000
FFDE
FFF9
0031
FFB6
001F
FFFD
FFF4
0017
FFE9
0000
FFDA
FFE4
FFE5
001F
0022
000D
002D
0000
FFC5
0007
0014
002F
0002
FFCF
0015
0002
FFF3
0002
0020
002A
FFF6
FFE7
001F
FFF3
FFFA
FFF6
0015
0012
0019
FFBE
FFFA
FFF3
000B
FFFB
0002
FFF8
0009
FFFA
FFE9
0005
0012
0001
001D
FFE7
FFFD
0027
FFD5
0018
0022
0013
0010
000F
FFF9
FFE5
FFE4
0003
FFE2
FFE9
FFF4
0017
0004
000B
0007
0005
FFF7
FFFA
FFF4
0010
0013
FFEB
000E
FFE7
0000
0010
FFE0
000F
000F
FFF2
000F
0007
0003
FFFD
0010
000D
FFFB
FFE9
0004
0005
FFFF
000A
0004
0005
FFFE
0001
FFF9
FFF7
FFFD
FFFB
000C
0007
FFFF
FFFD
000B
FFFB
000D
FFF3
0006
0002
0014
0002
FFFE
000A
0009
FFFF
FFFF
0006
FFF6
FFF4
FFFD
FFF4
0003
0003
FFF1
000F
002C
FFF4
0012
000D
FFC8
000B
FFED
FFF2
002A
000F
0018
0012
FFEC
FFE0
FFFF
0017
0044
FFFB
FFEE
FFD2
0017
FFFC
FFE2
0019
FFF0
FFEB
FFE0
0015
FFED
000B
003E
0014
001A
000C
FFF0
0018
FFE1
001D
0043
FFFE
000E
0029
FFF4
FFBD
0033
0026
003C
FFD0
0004
0046
0000
FFFA
FFFB
0010
FFEC
001F
001F
FFF7
FFC5
0014
001F
0003
003C
0017
0020
0025
0021
FFE7
FFF8
FFD9
FFFD
FFE3
0007
002D
FFE2
001B
FFF7
000F
002B
FFF7
0014
0000
0013
001F
0011
0039
0012
0039
FFEB
FFB3
001A
0018
0014
FFFC
0035
0016
0009
FFEA
001E
002A
FFF2
0003
0024
FFF0
003C
0001
FFBF
001A
0012
FFFB
0025
FFE3
0031
0018
0000
0040
FFF3
FFFF
FFF1
0014
FFFB
FFFB
0019
FFF7
0007
FFD3
001C
0012
FFF7
0009
FFE7
0004
0006
FFE9
0010
FFF4
0014
FFFC
0008
FFEC
FFFC
0022
FFF7
0022
FFEB
FFE0
000F
0020
0003
FFF5
001B
0014
FFF1
FFFA
0032
FFEC
0003
FFFF
FFFD
0004
FFF9
FFF4
FFF4
0007
0017
0008
FFEC
0005
FFE5
FFEC
FFFE
0037
FFE2
FFB9
FFDB
0004
0007
FFF8
FFF9
FFF5
0012
FFF5
0001
FFF3
FFD6
0012
0012
0004
FFD9
FFF9
0008
000B
000E
0005
0000
0009
001C
001D
000A
FFE9
FFFE
0001
FFFE
FFDA
0013
0028
FFF3
0005
FFE2
FFF7
FFFB
0001
FFF4
0008
0019
FFD3
FFFE
001D
FFE2
FFFC
000A
FFE4
FFF6
FFFA
FFF8
FFF2
0008
FFF4
0007
FFFE
0000
001C
0018
001A
0019
0022
FFC6
FFFE
FFE3
0007
FFE0
FFE0
0013
FFF3
000F
FFD9
FFF6
0006
FFFB
FFF1
0021
FFFC
0009
0003
FFED
FFD3
FFF2
001C
002E
FFEE
000B
FFB5
0016
0061
000C
FFB6
000E
0063
0015
FFDD
0026
FFBD
FFFA
002D
FFA2
0000
FFC0
FFCF
FFE9
0053
FF95
FFC3
0009
0013
002E
0018
0032
0028
0012
0038
001E
0005
FFEB
000C
0041
0009
FFDF
FF85
FFED
FFCA
003A
000B
FFF1
FFFA
0045
0021
FFDE
FFF3
FFDB
006B
0083
002D
0015
0067
FFB8
FFE1
FFC0
FFEE
FF7F
001B
FFE3
FFFA
0045
0008
FFBD
0000
0002
0012
FFF1
0034
FFC9
FFEA
0056
FF62
FFFA
FFF5
0017
0039
FFD7
FF7E
0020
FFCD
FFF4
001F
FFF3
FFB5
FFF2
0056
FFE3
FFE0
FFF6
FFE7
FFCF
003E
FFD8
FFE4
0016
006C
005C
FFC9
FFE2
FFFA
FFEE
0001
0077
0052
0067
0025
0041
005C
004B
FFE6
FFC8
0021
FFD3
0049
0018
000D
FFA5
FFBA
004F
0058
FFB9
0004
FFEE
FFE2
000A
0052
001A
0029
FFF9
0014
FFF9
FFFC
001A
FFDB
001A
FFCA
FFED
000F
FFF6
002C
FFFA
FFE1
0014
0000
000D
FFAE
0017
0026
FFD5
FFFE
FFF1
FFDF
FFC8
FFFA
FFD8
000E
0001
FFE1
0019
0035
002F
FFF9
FFF4
0019
0043
FFF6
0022
0007
0013
000E
FFC2
0028
0006
000E
0026
FFB9
0008
FFDB
FFF5
000A
FFDE
FFF5
0037
0027
FFE1
FFF7
0024
0000
FFEC
FFF9
FFF3
001F
0000
000C
0010
FFF6
000A
FFF9
FFE3
0004
FFFD
0002
0024
0006
FFF0
FFE7
FFF3
FFFE
FFFE
FFF8
0004
001E
FFFB
FFE5
FFEB
0004
000E
FFC1
0018
FFEA
0028
FFDB
FFFD
0003
FFE4
FFFD
FFFD
000E
0009
FFF7
FFE9
0002
FFF7
0014
FFFE
FFFD
FFEC
FFDA
0014
0010
0004
FFFA
0002
0021
0017
0003
000C
FFFB
004E
FFD9
FFDE
FFD3
001E
0036
00AA
000D
0050
000B
0020
FF9F
0030
FFB4
FFE2
FFF1
FFF2
FFDB
0045
0017
0046
FFE9
0021
004A
0011
FFB5
FFB3
003D
FF9B
0012
0080
FFCB
004D
0037
001A
FFCB
FFE8
FFB7
FFE6
FFE6
004D
005F
0058
0074
0075
FFD9
002B
FFEC
0015
FFBF
FFAB
004D
0001
003A
003C
FF9F
FFB4
FFE6
FFF6
000A
FFEB
0035
0016
0045
0002
0006
FFC9
0047
0007
0005
FFC6
FF9F
FFEE
0040
FFD0
FFD4
0012
FFE5
FFF6
001A
FFD0
0006
FFE1
FFF7
001B
002C
FFF7
001B
001D
0058
FFED
FFF7
0035
0009
0005
FFEB
FFDA
FFF6
FFCE
001E
FFA5
FFD6
0058
000A
FFF9
FFFB
002C
FFAE
FFFB
006A
0008
FFDE
0023
003F
0037
0005
0049
0046
0012
0017
FFE5
001B
FFDB
FFD5
0036
FFCB
FFB4
0018
FFF7
FFCF
0039
000B
000F
003C
001D
001B
0000
002F
FFE2
FFE6
0017
0010
FFF6
FFF0
002E
FFEA
FFE0
0024
000E
0013
0027
003B
0007
FFCB
0022
002F
FFB7
FFF0
FFF7
FFCF
FFC5
0034
FFFC
FFED
0032
FFEE
001D
FFFD
002D
0014
0026
0016
0049
FFE4
0009
FFCE
0014
001B
FFC5
0024
003C
0032
0003
FFCF
0028
FFD4
0023
FFDB
FFF0
FFF1
000E
FFDD
FFE9
FFEB
0013
0010
FFE8
0007
FFE8
0009
FFF4
0004
FFFC
FFEE
0004
FFF0
FFEE
FFF6
0010
0005
0001
FFFA
001C
0009
0013
0009
FFEC
FFF4
0010
0000
0017
FFF8
FFE6
0015
FFF5
FFE0
0014
FFED
0008
FFF5
0006
FFF9
FFFF
FFEB
FFFE
0006
0002
FFF1
FFFF
FFF7
0005
0016
000D
0001
0001
001D
0012
000D
0004
FFF8
0008
0009
0007
FFFB
0008
FFF9
000B
0021
0037
FFD8
FFD2
0025
FFFF
0018
FFD8
FF8B
0040
0007
FFCE
FFC4
FFF9
001C
FFEA
0030
0018
FFDD
0067
FFF8
007D
FFFD
FFE0
FF95
0021
0001
FFEF
0004
FFDB
FFE8
0010
0039
0023
FFD0
FFF6
0036
0003
0005
0009
000E
000D
007C
000C
FFDC
0006
FFE1
0004
FFFF
FFC2
FFDE
FFFB
0008
002F
FF9D
FFE2
FFD8
FFF5
FFC1
FFFF
0025
0032
FFE5
FFE1
0015
0046
FFDB
0025
003E
FFDC
0029
FFC3
FFA7
0040
0051
FFCA
FFC8
0030
0009
FFD7
003A
0006
0016
000A
FFBB
0022
FFE1
000E
FFB9
0015
FFEA
0009
003E
FFB6
FFC0
FFD2
000C
0013
FFC2
0002
0001
0028
001D
0029
FFD1
0001
006C
FFF1
0022
0003
0055
001A
FFF3
FFA4
FFF2
FFAD
FFF9
0024
FFBA
FFE8
FFF5
FFEF
FFB7
0006
0008
0035
FFEB
0000
0014
000D
FFF4
0024
FFFD
FFE8
FFEE
FFFE
FFE8
0018
0022
FFD7
0003
0022
FFF2
001E
0011
0002
001C
FFF8
FFCD
FFF5
FFFB
000D
0024
FFF1
FFF5
FFE8
0013
0005
FFDE
FFDC
000C
001C
FFF9
0016
FFFA
0009
0006
0013
FFE5
FFFB
FFFF
FFEB
0006
FFF2
0011
FFFE
FFED
0009
0007
FFE3
FFF2
FFFE
FFF7
0004
0009
0002
FFDC
FFEF
FFE3
0007
0000
FFFE
FFEB
0004
0007
FFF0
0004
0007
FFF4
0000
0011
FFEE
FFE2
0006
0016
0000
FFFF
0019
FFEA
FFF0
0009
0000
001D
FFF3
000A
FFEC
FFF9
FFF5
FFFE
000A
FFF8
0007
0019
FFFB
0012
0003
0008
000C
0014
0006
FFFB
0014
0005
0012
FFE6
FFFB
FFF0
0008
FFF1
FFFC
FFFF
0003
000D
0003
000F
0004
001B
0025
FFEE
0002
001D
FFFC
FFEC
FFEC
FFF2
0008
FFB0
FFF5
001A
FFC4
FFF3
002B
FFE6
FFFB
002D
FFD5
FFC7
002B
0013
FFF6
FFEE
FFFE
FFF4
FFED
FFE7
0007
002C
FFD8
FFE9
FFE2
FFC9
0023
FFFB
0022
FFCF
0025
FFFE
000F
FFCF
0028
0009
FFD7
0001
FFF8
000F
0008
FFE4
FFC6
FFFA
0037
FFEA
0017
FFDD
FFFF
003B
FFF9
000B
0007
002B
0022
FFFE
0003
FFEA
0017
0063
0002
002C
FFF0
FFEC
FFF6
FFDB
000F
000D
FFCA
FFC0
FFED
0015
FFF8
FFF1
FFE4
000C
0017
0050
FFD7
FFD8
005D
FFE0
FFCD
FFDF
FFF7
000F
FFFA
FFD7
FFE1
FFF8
003C
001E
FFFC
FFD1
FFE0
002C
FFF6
FFD7
002F
0012
0032
0026
FFC7
FFF8
FFBD
FFE4
FFE7
000B
FFCE
FFC4
FFEA
FFFE
FFEB
0023
0017
FFF1
000C
FFF8
FFD7
002F
0028
001E
005E
000F
FFE8
0039
FFFA
FFC7
0021
FFFD
FFFD
FFD5
FFC5
FFB7
FFE1
000C
002A
FFA9
FFE6
0010
FFFA
0044
FFFD
FFDC
005E
FFCF
FFD5
FFF4
0003
0007
FFF0
001B
FFFC
001A
0031
0032
FFD7
FFB4
FFF9
005F
FFEB
FFFC
0000
0022
001E
006F
FFC0
FFE0
FFB0
000A
000C
001D
FFAA
FFA7
FFE0
001F
FFEB
FFFE
001B
FFF8
002B
FFE3
FFB7
002A
FFF5
0003
0069
0008
FFF8
0038
0000
FFE9
FFF6
0012
FFE8
FFED
FFC4
FFE6
FFE7
FFEA
001B
0004
001A
FFD7
FFF7
FFE7
FFF4
FFF4
0017
0014
FFEA
FFDD
0018
000B
0022
FFDE
FFF9
FFFD
FFFB
002D
0010
FFC1
FFF9
0020
FFE0
0032
FFE3
0029
FFDA
002B
000B
0003
FFE8
001E
FFEB
0007
FFF9
FFDD
0009
FFEC
FFF1
FFE6
FFFC
FFFC
FFFC
FFF7
FFF3
000C
0024
FFDB
000F
FFFB
FFF3
0006
FFD6
0014
FFFD
0012
0002
FFF5
0005
000B
0048
002B
FFDD
0041
FFCC
FFE8
FFF5
002F
FFDB
0043
FFF1
FFCA
FFEE
003D
FFF4
0030
0046
0034
FFBF
FFD7
0014
0013
FFD9
0005
FFFC
001D
FFFF
0024
FFF6
FFEC
002E
FFE4
001F
FFC4
0005
0048
004F
FFD2
FFFE
000A
FFD2
FFF1
FFC2
0002
FFCA
FFB1
FFF8
002C
0015
FFCF
0037
FFEC
FFC9
FFC8
003B
0019
002B
FFF1
000C
0024
FFDE
0003
0043
000A
002C
FFDE
FFF7
FFFC
000C
000B
FFDA
FFE4
004F
0008
FFE4
FFEE
0040
001D
FFEA
FFA9
FFD9
FFF8
FFE9
FFFF
FFD4
FFD6
FFF1
003E
003B
FFB1
0031
FFD4
002B
FFE7
FFDD
FFBE
FFE3
000E
0022
0017
FFF1
0024
002F
0025
FFE0
0016
FFE9
0015
0013
FFE6
FFCF
FFE4
FFEC
FFDF
FFD1
0028
FFE1
0009
FFEE
FFD9
0008
001D
0057
0048
FFBF
FFFB
FFEE
FF99
FFE5
FF84
0033
FFC6
0004
000C
FFB1
0033
0015
000A
0038
FFD5
0020
FFED
0004
FFF8
FFAD
001F
0020
0070
FFD0
FFCE
001A
FFF3
003B
FFF7
003F
FFE6
0009
0025
FFD7
0039
FFC4
FFF4
FFC2
0014
0025
FFF1
FF91
0008
FFBD
002A
FFDF
FFEE
0068
FFDB
FFFE
FFEC
FFAF
0030
FFE1
002F
FFEE
0000
0013
000E
FFBE
FFE3
0009
001E
FFE1
FFF0
FFD9
FFD5
FFF1
FFDB
003B
0005
000E
FFDB
FFD7
000C
0020
FFDE
002A
FFD8
FFEE
FFFC
FFF2
FFE1
000E
FFFA
0007
0029
FFE1
0011
0002
FFDF
000C
FFF5
FFD6
0037
FFD2
005A
FFF3
002D
FFEC
000D
FFFE
002B
FFFA
000F
000B
FFCE
FFF7
FFDE
FFDC
FFE3
001B
FFFD
005D
FFDC
FFC6
001D
001B
FFF2
000D
0014
FFDC
FFDF
FFDF
FFFF
0014
003C
005D
FFF3
003C
003E
0023
002B
0000
FF9D
FFEF
001E
FFAF
FFB6
0054
0033
FFAE
0030
0007
FFE7
0029
0025
0034
002C
0001
FFA5
003E
FFBB
002F
004D
FFDE
FFDA
FFE8
0035
FFE1
0000
FFE1
FFFC
000C
FFCF
0029
FFF9
FFEA
006F
0020
0057
FFDB
FFE7
FFE8
0003
FFD1
FFC9
000B
0022
FFD4
FFA0
FFC8
FFDC
FF9D
FFC5
0032
0010
006D
FFEB
FFDD
0003
FFFB
FFFC
0008
003B
0014
0004
FFCE
0027
000F
FFE1
FFEA
FFBB
005A
0023
FFE4
0024
FFCA
FFEE
0017
FFD3
0031
FFD7
FFFE
FFA5
0002
001C
0001
001A
FFF1
FF7F
FFB9
001F
FFF3
001F
FFEE
0001
0045
0003
003F
FFF8
FFEA
0020
0068
0048
0000
FFCC
FFDC
0029
FFD3
FFDE
001D
FFE6
0025
FFCB
000A
FFE8
FFDD
FFFD
000D
FFC0
001E
FFFB
FFEB
0006
FFCD
FF96
0023
FFF3
FFE3
0045
FFDE
FFA6
0033
0036
0034
FFC2
FFE7
0015
FFC8
0007
0038
0012
FFFA
FFAF
FFCE
FFE6
002A
FFD8
0015
003F
FFAB
002C
000F
FFEF
FFE5
FFC6
0009
FFCB
FFE2
FFDA
0022
FFF2
FFC3
FFF4
FFE2
0030
FFF8
0041
FFF8
0075
0015
000A
FFC9
0015
FFE9
FFA5
001B
FFE4
FF86
0030
0002
FFF5
FFFA
0038
002D
0046
FFF2
FFF7
0001
0022
0013
000B
FFF0
0003
FFE0
0016
0000
0007
000F
FFFB
FFFF
0010
0014
FFFC
FFEC
001E
FFE6
FFED
FFF7
FFFD
FFFF
0013
FFF8
0018
FFF0
FFFA
FFF5
FFEB
FFDF
0012
FFED
FFFB
001D
FFFE
0023
FFFD
FFFD
001B
FFF8
0004
000C
0013
FFFB
FFEC
FFF4
0005
000A
FFFF
0002
0006
0011
0006
0001
0002
001B
0004
0002
FFC0
FFF9
FFF0
FFEE
0020
0001
FFF8
0003
FFFD
FFFC
000E
0006
000F
0007
0017
FFFC
0013
000A
FFF9
0002
0014
0013
FFFE
FFDD
FFF9
0016
FFFB
0003
0000
FFF6
FFEF
0024
0000
FFEA
FFF8
FFFD
FFFA
FFF5
FFFF
002A
0019
FFEA
FFFE
FFED
FFFD
FFF5
FFFB
FFDD
FFE5
0011
0015
0007
FFFC
FFF7
0004
FFD1
0017
FFFA
0002
FFEB
FFF9
FFDF
FFFC
0004
0013
001E
FFFB
FFC3
0023
0008
0019
0039
0007
FFE4
FFF8
FFF0
0031
FFFA
0033
FFE2
000A
0049
FFF0
002E
001D
FFB9
0012
FFEA
FFD1
FFFA
FFCC
FFF9
0024
FFDE
FFE2
004C
0026
FFCC
FFBD
FFAD
0015
FFF3
FFF9
0011
FFD9
0032
0009
0000
FFB0
FFC6
FFB6
FFEE
003E
0023
0021
FFF3
0026
000F
FFF0
FFCB
FFFD
FFEF
001B
0027
0015
FFDB
FFD5
FFEC
FFBF
FFFD
FFF7
FFEF
001F
FFFB
FFFE
0016
0026
FFF2
0004
FFC7
FFEA
000E
0012
FFFB
FFEB
0025
FFF8
FFE6
0010
FFFA
000B
FFF1
FFEB
FFF8
FFEF
FFF8
FFE8
0001
FFD3
FFF2
002D
FFEE
FFE2
0016
FFEE
FFEB
FFFB
FFE5
0016
FFF0
0012
0034
FFE2
FFFB
0010
FFF4
FFFB
0013
0037
001A
0003
FFF8
0012
FFDF
0018
0004
FFE5
FFE3
001B
FFEB
FFDB
FFEE
0020
0033
0005
0001
FFF4
0013
FFF8
FFFF
0000
0007
0012
FFFA
000E
001C
FFEA
0024
FFFE
FFCD
0012
FFFF
0000
001A
FFF9
FFF8
0007
0002
000A
000A
0008
FFFB
0018
FFEF
FFFA
000A
0000
0011
FFFB
001A
FFEF
000B
FFEF
0005
FFE6
FFFF
0015
0003
000A
FFF9
FFFC
000A
FFF9
000B
FFF9
FFD2
0013
FFF5
0002
0014
0005
FFFB
FFFE
0009
0002
0002
0019
FFFF
FFF5
FFFF
0004
FFEA
001B
0022
FFFA
FFDE
0009
FFED
FFDF
FFF6
0006
0041
FFF5
FFFD
0017
FFDE
002C
FFBF
FFD0
FFE7
0012
FFD0
FFD6
0016
001B
FFF8
0011
FFED
0025
FFE1
0013
FFD5
0015
FFD2
001B
FFBE
0004
0012
0012
000A
0001
FFF3
FFDA
001A
0040
FFFC
0012
0018
FFF2
FFF2
000C
003C
FFC9
FFE4
0017
000C
0046
003B
FFE1
FFD6
FFDD
000F
FFF7
FFFA
0030
0019
0007
0032
FFE4
FFCE
FFFB
FFE6
FFFA
0008
0045
FFF1
0044
FFF3
0012
0016
FFDD
000B
0033
FFF4
0011
001E
0014
FFF4
005F
FFF4
FFDF
FFEE
0025
FFD7
003C
FFFF
0009
0000
FFE6
0038
FFFB
001C
FFDB
FFF4
001A
004C
FF9A
FF9A
001C
FFF4
0039
000B
FFEF
0020
FFE3
FFC6
FFFE
FFEA
0027
001C
0037
FFEF
FFAE
000B
FFF3
000E
FFE8
0009
001F
FFDF
FFFC
0009
FFF1
FFED
FFE3
0009
FFF1
0006
FFF1
FFD6
0003
0007
001D
FFFE
FFF3
0022
000D
FFDD
FFEA
FFFC
000C
FFFC
0023
FFF4
FFF2
0000
000C
000A
0003
0016
FFE9
0004
000F
FFE7
FFF1
FFF6
FFE9
FFF9
0008
0008
FFEB
FFEC
001C
FFE8
0014
FFE9
FFF8
001E
FFE5
000B
FFDC
FFE8
0019
FFF1
0010
FFE2
000A
0008
FFFE
FFF6
0001
FFF3
000F
000F
0011
0019
0004
FFFC
FFFF
FFEB
0014
0014
0019
FFE8
000D
0024
0003
0009
FFFF
0011
0004
FFEE
FFD9
001F
FFF7
FFF2
0015
FFEB
FFDB
FFFC
001F
FFE5
FFDC
0017
FFFC
0020
FFE4
0020
FFDD
0006
FFFF
0018
FFFB
000E
FFEF
0014
0005
FFFE
000B
FFF8
0002
000C
FFF1
FFE2
FFEF
0003
0007
0013
001C
FFEA
0005
FFF4
FFE0
0005
FFED
0005
0002
0010
FFFC
0011
0002
FFFA
0008
001A
002D
0015
FFE9
0015
002D
FFE5
FFFF
0029
FFB4
001B
0032
FFC1
0006
0009
0007
FFFA
0037
FFD5
0017
0019
FFE3
FFF7
0002
FFDE
0031
FFF9
001E
0036
FFEB
002B
FFC4
FFF5
0018
0015
FFEA
FFFE
000B
0016
000E
FFFB
FFC6
FFE0
000A
FFEC
FFF1
FFE4
0025
000B
FFED
0010
000E
FFFF
FFDE
FFDF
FFF9
FFD7
002C
0034
0010
001D
FFC7
FFD9
000F
0038
0053
001A
0028
FFD1
002E
FFBC
FFFF
0035
FFF6
0020
001A
FFDB
0004
0033
0018
FFF5
0081
FFE8
0005
002F
FFDE
FFCB
0018
FFDC
0027
FFFC
FFE8
0053
FFC4
004F
FFF1
FFCD
0004
0023
FFA6
FFBF
000C
FFF2
0004
FFDF
FFDE
000E
FFD6
FFBF
FFFD
FFE6
004F
0043
0004
FFCA
FFAC
0011
FFE2
FFC7
0013
FFF6
000C
FFFD
002D
0034
0030
0013
FFF2
0007
001A
FFFB
FFE7
000A
0005
000F
0020
FFF5
0005
0004
0019
FFE5
0008
0002
0011
FFEA
0026
FFE5
FFDB
0006
002C
0004
0004
0002
0022
FFF4
0002
FFFE
FFD2
000A
FFF7
0036
000A
0014
FFE8
0003
002A
FFF4
FFF9
FFE5
FFE4
0001
0009
FFFB
001D
0005
0006
001C
000E
FFEA
FFED
0003
FFDE
0012
FFF8
FFFD
0010
0016
0014
0015
000A
000D
FFFB
FFEA
0028
0010
0007
FFFE
0017
000E
001E
FFFA
FFFA
0012
0001
FFF2
FFF1
0016
0005
FFEA
0010
FFE1
FFD7
FFF4
0022
0004
FFEF
0020
0006
0022
FFE3
001B
FFDA
0007
FFFF
0025
000C
001B
FFDD
001A
000E
0009
FFE8
FFEB
0011
0008
FFEF
FFD8
FFF8
0011
0002
001A
0015
FFE2
0006
0004
FFE1
FFFF
FFE7
FFCC
FFEC
0048
FFE4
0001
0002
FFE6
0030
FFE9
FFFD
0020
FFEF
0009
0011
FFED
001A
001B
0008
FFEF
001C
FFE2
0000
0010
FFF0
FFF7
000B
FFF8
002F
FFF7
FFF2
FFD7
000D
FFBF
0034
FFE4
0015
004D
0009
0046
FFFB
0010
0001
FFF6
0011
0000
000C
FFF6
FFDC
FFE7
FFF8
FFD5
FFE4
0011
FFC2
0009
001E
0042
FFCA
0026
FFEE
000D
FFCA
FFFD
FFE0
000F
0021
0040
FFF4
FFF0
FFEA
000B
0000
0005
FFDE
0026
0020
FFDB
FFEA
000C
0025
001B
0010
FFE9
FFF2
001A
FFEA
001D
FFE7
0017
FFEB
FFF1
0023
FFED
FFDF
FFF6
FFDD
FFD8
0024
000F
FFEF
001F
001A
000C
0009
FFE7
000A
0000
0034
0012
0015
FFCC
FFEF
FFDD
FFFE
FFEB
FFD5
FFE8
FFF3
0012
FFC7
0020
FFDF
0017
FFEA
000D
FFDA
FFE2
FFEB
0002
0016
FFCA
FFE6
0011
FFFD
FFF7
FFE7
0018
FFE3
FFF6
001B
FFE7
FFF9
0026
0005
0000
0008
FFD5
000C
FFFC
FFE4
FFDD
FFF4
0030
0008
FFF1
000E
FFE4
0011
000D
FFEB
FFEF
0004
FFD6
001A
FFED
000C
000B
0017
FFFE
0005
FFFA
FFFB
FFFB
0024
FFEE
001F
FFEF
FFFE
FFFA
FFFA
001D
FFF2
FFF4
FFE5
FFE3
0015
000E
FFEC
FFFC
FFE8
0006
0024
0023
001A
FFED
0012
000E
FFFC
FFFD
FFEB
FFF5
FFEF
0011
001B
FFE8
FFFD
0000
0017
0005
0014
FFF3
FFEC
001B
000A
0009
FFF9
0013
0009
FFF7
FFE9
0004
0009
0004
FFEC
0010
0005
0004
FFF6
FFFE
0017
0006
0008
0005
FFFE
0011
0002
FFEA
001E
FFED
FFF3
FFFC
FFFC
000C
FFED
0001
000A
000F
FFE6
FFEE
001F
FFFD
FFE5
0006
FFF3
FFF5
FFF7
000C
000E
FFE5
0012
FFF2
0001
FFFB
FFED
000C
FFF3
FFFE
FFFB
FFF2
FFEF
0014
0013
FFF6
0017
FFF1
FFF2
FFF6
0001
FFEB
0009
0011
0000
FFF2
FFF1
002E
0000
FFFD
FFE9
FFE9
0005
FFE9
000C
FFE7
FFFF
FFFB
FFF8
FFF1
FFFD
FFF0
000C
000A
0026
FFF7
FFEC
FFFC
FFF6
0019
FFF4
0003
0012
FFF9
FFF7
FFEE
FFED
FFF7
000F
0015
FFEF
0000
000A
000D
0016
001C
FFF7
FFF5
FFF4
0002
FFF3
000F
FFE0
0015
000A
FFD1
FFE9
0024
0009
0011
0005
FFE9
FFF7
0017
FFFC
000D
FFF6
000D
FFED
FFF2
FFEB
002D
FFF0
FFF1
FFF2
FFE3
0015
FFFC
0000
FFFF
000B
FFF6
000A
FFFC
FFF5
FFF1
0019
0007
0016
FFEB
FFF3
FFEB
FFFB
0006
FFE5
FFF7
000B
FFF2
FFF2
0014
FFEE
FFFF
FFF7
FFFD
FFF9
FFF3
FFF6
001D
0024
FFE5
FFF4
FFFA
FFF3
0000
FFED
0017
FFEC
0008
0021
FFD1
FFF6
0024
000A
FFF8
000B
FFF3
FFF0
000F
FFFB
0011
FFFE
002B
0001
FFF3
0000
0002
0002
0004
FFE7
0005
FFFB
FFF2
0004
FFF8
000B
0006
0011
FFF3
FFFC
0009
0012
FFFA
001A
FFE3
0006
FFEF
FFFE
000D
FFE8
FFFF
FFFE
FFFA
FFDF
FFDE
0007
FFF7
FFF1
0019
FFE7
FFF7
000C
002C
0022
FFE9
0009
FFEF
FFEE
FFF8
FFE6
0003
FFF5
0012
001B
FFDD
0009
0004
0016
0001
000F
000B
FFE7
000C
0005
000E
0005
001F
000A
FFFD
FFFA
0001
FFFB
000B
FFE6
001D
FFEF
000B
FFF7
0000
000F
0006
0006
FFF0
FFFA
001A
000B
FFEB
0016
FFD2
FFFE
FFF7
FFFC
0015
FFE1
FFF7
FFFB
0007
FFF0
FFEB
0011
FFF9
FFEB
0016
FFFE
FFEC
FFF4
FFDC
FFF0
FFF7
0006
FFFD
0009
FFF2
002F
000A
001C
0012
FFEB
0049
FFF9
FFFC
FFDE
FFDD
000E
FFFB
FFF1
FFDF
FFFB
000C
FFC9
FFE1
0024
FFE2
001C
FFE0
000C
FFEF
001F
0009
000C
FFF2
0024
FFDC
FFE3
FFE6
0001
002F
0019
FFE3
FFE6
0033
FFF3
0047
0025
001A
FFDC
FFD6
0027
001D
FFD3
FFD7
002C
0020
003C
002C
FFF3
FFAE
001E
0016
0024
FFD2
0019
0033
0000
0027
FFFA
FFF9
000F
FFDD
FFF5
FFFC
FFF9
FFFD
0056
FFF9
0009
0016
FFB2
0015
002A
FFC2
FFEF
000F
FFFA
FFBB
003F
FFEB
FFD9
FFC7
0032
FFDD
0033
001E
0036
0006
000F
0020
FFF8
FFE7
FFDA
0030
004B
0032
FFBD
FFC1
FFCF
0008
0034
FFF0
FFE0
0019
FFDB
FFFC
FFD9
FFA5
0024
003F
003B
001C
FFC3
FFCB
FFF9
0032
FFD0
0047
0018
0006
0047
FFE4
FFCA
FFF4
FFAA
FFCD
FFED
FFEF
FFAD
FFE2
0030
FFE3
005B
002A
FFC5
000D
FFDF
FFFC
0033
0006
001D
FFD1
004B
001D
FFCF
002E
FFED
FFFC
0004
003D
FFE6
0041
0013
FFE4
0023
FFC5
FF8D
FFBE
001D
0029
FFE0
FFBD
001B
FFB7
FFE1
FFC4
001E
002F
FFA2
0001
0009
FFB3
0044
0007
001E
FFF1
FFE4
0036
0026
FFD1
FF9A
000D
0011
0020
002B
FFFC
FFE0
FFF9
FFD8
FFD8
002D
0021
FFE1
FFEC
0024
FFFA
0010
001B
FFD7
0026
FFE0
FFEE
FFFB
0034
FFF1
FFC5
0048
FFFB
FFB9
0012
0019
FFE8
FFF6
0058
FFF2
003F
000C
0003
0003
FFE4
FFE3
0024
0010
000B
FFE0
0004
FFE1
0011
FFE5
0007
0016
0032
FFEB
FFFC
FFE5
FFC2
003A
001E
0035
FFF7
0003
FFE6
FFF7
FFE8
FFD5
FFF5
FFDE
0042
000A
0010
FFE0
003F
0028
001E
0047
FFE8
FFB3
0031
0035
FFCF
FFF0
0032
FFAB
001F
0042
FFD0
0001
002B
001E
FFBA
0015
FFDC
002B
FFF0
FFF0
000D
0033
000A
0043
000F
0007
003C
FFAE
000B
FFB8
0006
003E
000F
FFF9
0026
FFDB
002C
FFDB
FFF0
FFE2
FFF4
001B
FFDE
0004
FFE2
0026
003D
FFF3
000A
0017
FFF4
FFFD
FFD9
FFF5
FFED
001F
FFFE
0000
002F
FFE0
FFF1
000F
000D
003C
0019
0016
FFFC
FFE4
FFF9
FFF3
0009
FFF5
0021
0013
000D
FFC0
0012
000C
FFFD
0046
FFE3
000E
0006
0027
0007
FFF2
FFF9
FFFA
002E
FFD1
FFFD
FF92
0039
FFE2
0002
001B
000B
FFF0
0018
0028
0011
0003
0007
0021
0006
FFFB
FFF5
FFD9
FFE4
001D
FFFE
0029
FFFD
FFED
FFF1
FFD6
0010
001F
FFFD
000F
FFCC
0014
0015
0029
001C
FFE1
001C
000A
0002
FFEF
0009
FFAF
001D
0009
FFD0
0033
FFF0
FFF3
FFF8
0004
FFCF
FFF9
001B
000B
FFC0
0002
0000
0015
003A
FFFE
FFEF
0021
FFC7
0027
FFB8
FFFA
FFFC
0031
0027
0016
000F
FFE6
0026
0021
FFFA
FFF1
FFF3
FFC8
000F
0015
FFEC
0012
001B
FFDA
FFFE
0002
FFFC
FFF1
0006
FFD0
FFF1
0043
0029
0037
FFD3
0015
0010
FFF1
0000
FFBB
FFF0
000C
0026
FFF7
FFE7
0006
0028
0035
FFFD
0006
0003
FFCC
0004
0029
001B
FFF7
0003
002B
FFCF
FFCE
0010
0019
0027
FFEB
0033
0015
0002
0018
FFE6
0018
FFE7
0006
0016
001D
001E
FFE7
FFEF
001D
FFE2
FFEF
FFE9
0003
003C
FFE0
FFFE
0006
FFF9
0015
0007
0022
FFF7
FFDA
000B
FFE6
FFD7
FFE4
FFEF
0015
003D
FFD0
FFF0
002A
FFFF
0039
0015
000C
0022
FFD1
FFFE
FFE6
FFDB
003E
0003
FFDE
002E
000C
FFDE
0026
0022
0044
0029
FFE1
0014
000D
000E
FFD7
FFDB
0019
FFBE
0037
FFAF
0034
004C
001B
004A
FFD6
FFFC
0034
0033
002E
0002
0007
FFFE
FFD4
FFF4
FFCA
FFC1
0004
002D
FFF1
000F
FFE5
FFEA
FF8E
FFEE
0005
004C
FFE7
0012
FFE3
FFDF
0038
002C
FFC9
0011
0034
002E
003C
FFFE
FFF9
0046
0030
FFAE
FFC7
0066
003D
0015
003B
FFC2
0025
001E
FFBF
0033
FFC1
0014
FFAF
FFAF
005C
0006
0002
FFBE
FF88
FF70
006D
FFE8
FFFD
003E
FFF0
0070
001A
0008
FFE8
FFFE
000B
0036
0039
FFD6
000A
FFBE
FFEF
FF93
FFAE
FF9F
FFD4
0052
FFC1
0047
FFBD
FFE3
FFAB
002B
FFB4
FFEA
0006
FFEF
000C
000F
FFD8
001E
FFFB
0005
0029
FFDB
FFB8
000D
003A
000F
0026
0016
FFFA
000C
FFFD
FFFF
000A
FFBA
FFFD
0001
FFEA
0002
FFCC
0027
FFDE
FFB9
0012
0003
0005
0018
FFE4
0003
0009
0040
003C
FFC9
0000
FFF8
FFF4
FFF4
001F
FFF6
FFD2
FFE4
0030
0008
0006
0000
000A
FFEC
FFE2
FFFD
FFE5
FFF1
002C
0030
0011
FFEB
0007
0046
FFE1
001B
0023
FFDB
0000
0008
FFEF
FFE8
FFEE
FFE3
FFDD
000C
0031
FFE2
FFFF
002D
001B
0009
0013
FFCE
FFE7
0010
000D
0018
FFE9
0026
0006
000F
FFDE
0006
0011
FFEB
FFD0
000F
FFEA
FFEF
000D
FFFD
002A
FFF5
0008
FFEC
FFE0
000C
FFF2
FFDE
0025
FFD9
FFFC
FFF3
0012
0018
FFDD
0001
0019
0002
FFEB
FFF0
002C
0007
FFDF
000D
FFF3
FFFC
FFEA
002F
0015
FFF7
FFB7
FFFF
0025
0027
0015
0036
FFCD
0039
FFE2
FFF6
FFB8
FFE6
0033
FFC8
FFEB
0053
FFFA
0016
000B
FFF2
0055
004A
FFB5
FFED
0023
FFF4
0000
0026
FFE8
0000
FFFC
FFD9
0004
FFFF
000D
0013
FFE6
FFFC
0050
0036
0062
0028
0008
FFF7
0007
000D
FFCE
FFBF
0012
000D
FFF5
000B
FF9A
FF8F
FFBC
FFD1
000D
003B
0023
0026
002F
FFF6
001D
0039
FFF4
0019
FFFA
002D
FFEC
0020
FFD9
FFEC
FFE6
FFC0
FFF7
0057
002B
0003
FFD5
FFD2
001A
FFED
FFF0
FFAD
001D
0006
FFD2
FFED
0003
002B
000A
000B
FFE1
FFA1
0027
FFE8
0028
FFF2
FFE7
FFF5
FFCB
FFE7
0013
FFEC
001C
0023
0033
FFC5
FFD9
FFC3
0021
000D
FFAB
FFFF
FFD9
FFC0
FFD3
0011
FFC1
FFF0
0014
003B
FFCA
0010
FFF7
002A
0019
FFE6
002C
FFE2
FFD0
0006
FFD0
0001
FFEE
FFE6
0025
FFE4
FFF8
0035
0002
0013
0012
FFDE
FFDD
0009
FFFF
FFE7
FFF5
0007
FFF6
FFFA
FFEF
002C
FFE5
000A
FFDE
0019
FFC1
001C
FFEB
FFFB
0015
FFE1
0005
FFCB
FFC6
FFEF
FFF9
FFED
0011
FFDE
FFEF
FFF6
001F
0035
FFD6
FFD0
001D
FFFD
FFF4
FFE4
001D
0003
0018
0014
0002
FFF4
FFFA
0021
0006
FFDF
001E
FFAB
FFD5
FFFD
FFEF
0000
000C
001D
0008
001F
001A
FFC5
0021
0012
0011
000F
FFB6
FFF4
0014
0018
FFF6
0009
0016
0000
000B
000C
FFC1
000E
FFFE
0038
FFD8
0031
FFEF
0016
0018
FFF9
FFF5
FFD8
FFF3
0001
FFF3
FFEB
FFF9
FFE5
FFD1
FFFC
000E
000F
FFEB
FFED
000E
001E
0029
FFF3
0015
000F
0029
0003
0017
FFCA
FFF6
FFF4
000D
0042
001E
FFFE
FFCF
000C
FFFB
0017
0020
FFEB
FFE4
0007
0015
FFC2
0038
0018
FFCE
0020
0006
FFE3
001E
0009
0037
FFE0
002E
0009
0004
0005
FFDC
FFED
0039
0015
0001
0010
FFF8
0023
FFCC
FFF3
FFC2
FFDE
0031
000D
FFE4
FFF7
000A
FFE7
FFE9
FFDB
000E
0005
FFD2
0019
FFF7
FFD8
0030
0019
000B
FFF9
FFF6
0022
FFFB
000A
FFDD
FFFE
0018
007B
003B
0017
FFFA
0006
001A
FFEC
FFDC
002F
0028
0015
FFE1
FFE0
0028
0029
0034
0006
FFF2
FFDF
FFF0
0040
FFED
FFAC
001E
FFF9
FFFD
FFF5
FFE6
FFDA
0037
0007
002E
003B
FFC1
004C
0009
FFD0
FFF3
FFFC
0023
FFD8
002D
0008
FFD2
FFE9
FFDB
FFE0
FFD8
0004
FFD6
FFB0
000A
FFFE
0027
004D
001E
001C
FFDF
FFD1
FFED
001D
FFDC
0044
001F
FFF1
0017
0007
0002
0023
FFC5
FFEA
FFE9
FFF6
FFF5
FFEA
000E
002C
0028
001F
FFE6
FFE3
FFF5
0001
0019
0002
001C
FFF7
0014
FFE6
FFF8
FFF1
001C
001A
FFEF
000B
001C
0008
0016
FFF2
001B
FFCC
FFDC
FFFF
002B
0033
000E
FFF0
0017
FFD4
000A
FFDE
FFF7
0018
FFDC
000F
000D
FFE3
FFF7
0018
0014
000C
FFDD
001D
FFF6
FFF3
FFD9
0013
0023
000D
FFE5
FFF3
FFE7
FFF5
FFDA
0005
FFEC
0026
FFF5
FFCF
FFFB
0019
FFFA
0003
FFFF
001E
FFD2
000A
FFFA
0020
0009
FFF4
0008
FFF0
FFEA
001A
000D
0011
FFFC
0010
0005
000C
0012
FFEF
0024
FFDB
0008
000B
FFFF
0002
0032
FFFC
FFE2
0016
FFEC
0015
0009
001E
FFFA
000C
FFF4
FFE6
000B
0005
FFF8
0008
0009
FFF7
FFF5
FFED
FFFC
000A
0023
0023
003B
0006
FFF1
0041
FFF8
001F
0015
FFF4
0006
FFDC
000F
004A
0023
002D
000C
FFD8
0007
FFE6
FFF3
0020
FFF6
FFD9
FFF6
FFCB
FFF6
0010
FFDF
000C
FFFA
0007
0037
0008
FFEB
002F
FFF0
FFD4
000A
FFFB
0012
FFF1
FFF1
0016
FFF2
FFDB
FFE2
FFCA
FFE8
000C
FFDF
FFB5
0030
0008
FFFA
0056
000D
FFFA
0004
0003
FFB7
0004
FFF1
001B
FFFD
001B
0002
0007
0009
007E
0009
0052
0036
FFF0
FFDF
0001
FFD3
004E
0013
0004
FFE9
FFF7
0004
FFF9
FFEE
000E
0008
000B
FFB6
FFD3
0038
FFE2
FFE0
004D
FFD6
FFF9
0033
0019
FFEE
0029
FFBD
FFF3
0009
0005
0041
FFFF
003C
007A
FFEF
FFFA
FFAE
FFC4
FFF9
FFF6
FFF7
FFD8
0001
0017
FFA9
0021
FFC9
FFF5
002F
0016
FFB6
FFF6
0008
FFFB
001A
FF6B
FFB2
001C
FFC6
FFD3
FFC7
004D
FFB9
FFE9
000D
FFF7
FFD5
005F
FFC3
FFFD
FFD4
FFFC
0009
FFDC
FFAC
FF78
0014
0075
0016
FFF7
0018
FFBD
0028
0060
FFE2
FFBF
FFBA
FF98
006F
FF9B
000F
FFCA
0016
FFDB
0000
FFFE
0030
0005
0025
FFE5
0065
0007
0012
003C
0020
007D
FFA4
FF85
FFF5
FF89
0026
0046
0024
FFEA
FFE7
0014
0056
0028
0036
FFD2
001E
FFDE
FFEF
FFE7
FFCB
0003
FFD7
FFF0
FFF0
FFC6
FFFF
002D
0027
0018
0022
FFAF
FFC8
FFFB
004B
001F
FFF2
0008
0005
0014
FFF1
001B
FFC6
0007
0010
FFF0
003A
FFBC
004E
FFF8
007A
FFD1
0006
FFDC
0027
FFF6
0003
FFE7
FFF9
FFC2
FFB2
FFD3
0003
0033
FFC5
0032
0018
FFE4
FFFA
0019
FFEB
0018
FFEA
0014
FFD4
FFE1
FFD5
0014
0044
FFE0
FFB2
FFF0
0017
0081
0048
0069
0015
0022
FFEE
000D
0011
FFFF
0031
FFE1
FFDA
000D
002A
FFEE
001C
FFD6
002C
001B
FFD7
FFA5
005F
FFE4
FFF2
002F
0010
0000
004C
FFF2
000D
0040
FFF4
0002
FFDC
FFF7
0045
004E
FFDD
FFF4
FFE0
FFE5
003F
FFC7
FF82
FFA5
FFE7
FFAE
0002
0001
FFBC
000B
FFDF
FF98
0002
002A
0035
002C
0040
000D
0035
0014
FFD8
0031
0030
001C
0011
FFC9
FFCD
FFF3
0014
FFC0
0024
0052
004D
0014
0005
FF8A
0008
0029
002D
0037
0008
0011
FFD0
0005
FFEB
FFF2
002E
FFDC
FFD1
FF98
0072
FFD5
0014
003F
0031
0052
FFE6
003A
FFEA
0034
FFFB
FFCD
005C
FFD0
FFFC
FFC4
0001
FFC8
FFA6
000B
0019
0006
FFB9
0039
FFE8
FFD1
FF81
0036
FFDB
0027
FFE2
0009
003C
FFFB
000B
FFE4
FFDC
FFD0
FFC6
FFD5
FFDB
0000
0030
FFCC
0029
0010
0013
0005
0016
000D
FFE9
FFCD
000B
FFEB
000E
0000
0023
000E
FFCB
0008
FFEA
0011
0018
0038
FFC3
FFF5
0016
0004
004D
FFC2
0017
FFDE
FFF3
0007
FFF0
FFB7
FFF5
FFC8
0014
0004
0013
0069
FFD8
FFD7
000C
0008
0016
FFE9
0019
0002
001A
001E
0003
FFEC
FFDF
0009
001A
FFF4
FFB7
FFCB
FFD9
FFFC
000B
0026
0002
004C
FFFF
FFF2
0003
FFD1
002E
0031
FFF9
000A
FFDF
FFF2
FFFE
0017
0001
0039
0011
FFD5
0049
FFF1
FFC0
0018
FFF6
FFE9
0029
FFF9
001D
002E
001D
0021
FFEA
FFC7
0034
0010
0011
FFF0
FFF0
FFCE
FFEA
FFD1
FFDC
FFE1
FFD9
FFE5
FFCC
0022
001B
000E
FFDB
001C
0006
001F
FFE3
FFD8
FFEB
FFEF
0017
0045
FFC4
0042
0019
0040
002A
0049
FFFB
0005
0011
FFDD
FFE3
001C
FFFF
FFD5
FFFF
0038
0039
000C
FFF7
FFCE
0049
0021
FFE6
FFDE
FFF9
000E
001F
000D
0018
FFEB
0019
FFEE
FFE0
001E
FFC4
0034
FFF0
001C
0000
FFFD
0014
000F
0028
0012
000B
FFF7
FFEA
FFE0
FFFF
FFC5
0005
0001
FFED
FFE6
FFCE
FFAF
000A
002A
0010
0029
0035
0004
FFF1
FFFF
001E
000F
0008
001D
FFCE
FFE8
FFD7
FF9F
0001
FFEE
0017
0054
0007
FFD3
0014
FFBB
0004
0004
003B
FFA1
0028
000A
FFD8
0016
FFD1
0015
0044
002D
FFF4
001F
FFDC
FFD4
0019
FFE6
0038
FFC3
0025
001E
FFE4
FFE3
0002
0000
003A
FFEC
FFE7
0006
004E
0040
FFEC
002F
0023
FFFA
FFEA
0002
0012
FFEB
0028
0025
FFF4
000E
FFF4
FFF2
FFB9
FFF1
0027
0006
003B
001E
0006
FFCF
0022
FFDC
FFFD
0039
FFE1
FFFA
FFE0
FFE7
0021
000C
0021
FFEF
FFFA
FFE6
FFF3
FFED
FFD1
000D
0003
FFF1
0008
000D
FFE1
002F
FFC3
0029
FFD2
0019
FFFE
FFDB
0017
0019
FFE0
FFE9
0012
0017
FFD7
0030
000A
0043
001A
FFF4
003A
FFD5
001F
003B
FFF0
FFF5
0017
0023
0038
FFE0
0011
0019
000F
FFD2
FFBF
FFFA
FFEA
FFFC
0007
FFEC
0031
FFE6
001A
0006
000B
004E
FFED
FFDA
FFCD
0018
0013
FFF0
FFFB
000B
FFDF
001A
FFD6
FFF7
FFF4
0023
001A
FFEC
0004
FFE0
FFDE
FFD5
FFE0
001E
FFD1
000F
FFCD
0017
FFF3
FFEE
FFDB
FFDA
000F
0031
FFF1
0044
000E
0021
0012
FFDA
0032
0000
FFFD
0012
0009
0001
0010
0033
000A
FFC9
0007
0003
0002
FFE2
000C
0032
000D
0008
FFFC
FFE2
FFF4
FFF3
001D
0004
FFCD
0015
001D
FFE7
000B
0001
FFEE
0015
FFFF
FFD0
0000
001C
FFFF
FFDC
002E
0001
FFE2
0002
FFF6
FFE6
0021
0022
0010
FFFF
0023
FFF3
0004
FFF2
FFF1
001F
0011
FFF5
000D
FFF5
FFE7
001B
FFF6
0009
FFFC
0009
000A
0016
0008
FFE6
0029
000B
000B
0010
000A
FFEA
0006
0007
FFE3
FFF9
0006
FFFD
001E
0010
0015
FFF6
FFFD
0009
0020
0010
0005
FFFC
FFCF
FFF5
000F
FFEA
0014
0013
000A
0005
FFE4
0012
0018
FFF2
0011
FFE5
FFEE
0020
000B
FFF3
FFF8
FFEC
0018
FFE6
FFF4
0005
FFD2
000D
FFF9
000A
000A
0017
0025
000A
0018
0010
FFEB
FFFC
FFD8
FFF7
0008
0004
0029
0009
0005
0009
FFF0
FFDF
FFEA
0007
FFE0
0008
FFF6
003B
0042
FFD5
000F
FFEF
FFF5
0003
FFDB
0013
000E
0017
FFFA
FFF6
FFDB
FFF6
0027
FFEC
0022
FFFA
FFC2
0020
003E
000B
000E
0038
0012
FFEB
FFE8
0028
0005
0012
FFFD
0012
000E
FFE5
0001
FFCB
001B
0016
0019
FFF4
001B
001B
FFF0
FFF0
0048
FFE9
FFE2
FFF8
FFE6
0014
FFFE
0012
000D
0013
FFDE
FFE1
0007
FFD4
FFF9
0032
FFFD
FFE6
0002
0028
FFF7
0015
000E
FFF8
FFEE
0025
FFE9
0000
FFEF
FFF5
FFF3
FFFC
0002
FFFA
001D
0007
FFFC
FFF2
FFE9
0008
001F
FFE5
0010
FFF5
FFE7
0001
0006
000D
FFED
0014
0007
FFFF
FFE9
0027
FFE9
0010
000C
FFE1
FFED
FFEC
FFFC
000D
FFEE
0004
FFFB
FFE2
FFD9
FFEC
0013
0003
FFEC
FFF5
0006
0006
FFFE
0018
FFFF
0004
0007
001D
0003
FFDF
FFEA
002F
0009
FFEF
0038
0007
FFB3
003E
FFF6
0037
000F
FFEA
0009
0015
0035
FFE7
0028
0027
0013
FFB6
FFEA
000D
0040
FFE3
FFF2
0013
002B
FFCD
0008
0007
FFD1
0013
003F
000B
0032
FFF9
FFE0
000A
FFF9
FFDB
0018
FFE4
FFF3
FFE6
FFB5
FFF7
0003
FFD5
0005
FFD6
FFD7
000F
FFEC
FFDC
0015
000D
0024
004F
0049
000B
FFFE
FFFF
FFE6
FFCC
0001
FFC9
FFE1
FFFE
002B
0012
0025
FFCF
FFFA
FFD4
0033
FFF6
000C
000E
0015
0029
FFA7
002F
000E
FFE5
0027
FFFA
FFDB
0023
FFCB
FFDF
0011
FFFD
FFDD
000F
001F
FFBA
FFD8
FFD7
000E
FFF5
0002
001B
FFFD
001D
0020
002D
FFD3
FFF5
FFED
FFFE
FFD2
005B
0018
0022
000A
0016
003C
FFFF
0028
0006
001E
002D
000E
0034
FFE7
FFBB
FFD9
0017
FFE9
FFE9
0014
FFB6
FFCD
FFFB
0010
FFEC
000E
0017
FFEB
0019
FFFE
FFEB
FFC9
0030
FFE1
FFED
0018
FFED
FFFC
0004
FFD1
FFF4
FFD4
002B
FFBC
0015
0043
FFC9
0002
FFFB
FFBC
FFCD
FFE7
FFD6
0037
FFC2
0001
0026
002F
0003
FFEF
FFEC
0017
0033
0003
FFEA
0016
FFF8
000D
FFDC
FFF2
0035
FFB7
FFE8
FFE3
FFEE
FFFA
0005
FFFD
FFF2
0009
001E
0043
000A
0002
0025
0022
FFE7
0003
000E
FFFC
FFDC
FFE2
FFF3
FFF0
FFFF
000F
FFF3
001C
0000
0010
FFF3
FFEB
FFD7
0021
FFF6
FFF5
FFE5
FFE4
0018
0001
001F
FFC9
0011
001A
0010
FFEB
0018
0007
000B
001F
FFD8
FFEA
FFDD
000F
FFE1
0010
0007
FFF1
FFCB
FFD5
FFEE
0009
0007
FFD9
FFEC
FFFC
0003
000B
0012
FFEF
0011
0029
0017
FFFE
FFFB
FFD5
0033
0032
FFE4
FFA9
FFCD
FFED
0031
0040
0035
FFE4
0070
FFF8
0008
FFD7
FFC9
0011
0001
FFE2
004F
FFF6
001D
FFDE
0070
FFDA
000A
FFD5
FFCB
004F
FFBD
FFE1
0000
FFD9
0029
002E
0026
FFF7
FFF2
FFF1
0006
FFFD
FFF5
0052
0026
002B
0028
FFCA
0003
0033
FFE1
FFA3
FFA3
000D
FFCE
FFBE
0018
FFE2
FFEB
0008
FFE7
FFD2
FFDF
0044
0002
002D
0001
0006
0017
FFB2
FFF8
FFFC
FFAF
0009
FFC1
FFDB
0029
0025
FFED
FFF4
FFDB
0039
FFE5
0013
0016
FFD0
000C
FFFB
0027
FFEF
0024
FFE2
003C
0020
FFEC
FFF8
FFD0
FFFB
FFDE
FFF4
FFF8
FFF8
0019
001F
0054
FFF1
FFEA
FFFB
000B
0036
FFF8
004A
FFDE
FFF9
FFF9
0031
FFD3
FFE6
002F
FFB1
0023
FFEF
FFBA
FFF3
0014
FFD2
0022
001B
FFE6
FFDC
FFD7
0029
FFCD
FFFB
003E
FFFD
FFEA
FFD3
001B
FFFF
FFFE
0048
FFC9
FFDE
0069
FFB6
0012
0010
FFD8
0045
0006
FF99
FFD5
FFE6
002E
001A
FFD4
0000
FFFE
0040
FFFD
FFBB
FFAA
0004
FFCF
001B
FFD0
FFEE
0020
003C
0007
FFCB
FFEB
FFF2
0006
001E
000A
0056
0019
0006
001A
0010
0011
FFEC
FFE6
FFF1
FFE8
002E
000C
FFDB
FFE1
FFB8
0014
0057
FFF8
FFE2
002E
001D
0000
002D
000D
0010
FFE6
FFFB
FFE2
FFF3
002E
0027
FFF4
000D
0007
0004
FFF5
0017
FFD8
0020
FFFD
000A
FFEA
FFE6
0020
FFEA
FFE7
FFEB
0004
002A
0015
0012
FFF6
FFF9
0032
0029
FFD9
0001
0010
001C
FFF2
0023
0000
FFD6
0005
FFD9
0002
0005
FFEC
001F
FFEA
0032
0015
FFE5
0001
FFDD
0034
001E
0001
FFEA
0026
FFD3
000D
0026
0045
FFAD
0014
0004
005A
004E
0064
FFDF
0039
FFF0
FFEF
FFC8
FFFD
0020
FFC0
FFF3
002A
0002
0017
0015
0015
0040
0020
FFCD
FFE7
0028
FFF9
0000
0019
002A
000B
003C
FFF2
FFF6
000E
FFBD
0013
FFE5
FFFE
0034
0004
004F
0042
0014
FFF3
FFF4
FFEA
FFBF
FFB9
FFF1
FFEA
FFE1
FFF3
FFCB
FFF1
FFCC
FFAC
FFFF
002E
0030
003B
0032
0011
0021
002D
FFCB
0000
0018
0046
001E
001F
FFCC
0020
FFFF
FFDB
FFED
001C
0017
FFC9
000A
001B
0000
003B
000F
FFFA
0030
000D
FFC2
FFF0
000C
0001
0029
0026
0000
001B
000A
0009
FFFF
0010
FFFB
000B
000A
0016
0013
000E
0041
001C
000B
FFE5
FFDC
0000
0001
FFF9
FFEE
000B
FFF8
0015
FFB0
FFF0
FFD1
FFD1
0015
0033
0007
001F
0009
FFF8
0005
003B
0015
000C
000F
001B
0009
FFE4
FFDF
FFF7
001A
FFE3
FFFB
001C
000D
000A
0009
FFF9
0020
FFE2
FFEA
FFF7
FFFC
FFF1
FFDE
0000
FFEB
0008
0005
0000
FFE7
FFF1
0002
0002
FFF0
0015
FFFE
FFE0
FFF7
0007
0005
FFF3
0031
0005
0001
FFE4
FFFD
FFF7
FFFD
0006
FFD8
FFD3
0015
0001
FFF0
000E
FFFC
0000
0015
0011
FFD3
002D
FFD2
FFF4
FFF1
FFF5
FFF3
FFFC
0005
FFEB
000A
0001
0016
FFFA
FFF6
000B
0000
FFF3
FFF7
FFFC
FFF3
0013
000F
0001
FFED
FFF6
FFFA
0003
0009
FFFF
FFFC
FFFF
000A
FFF8
FFF5
FFF9
FFF3
0004
FFFB
FFF5
FFF9
0008
0007
0007
FFEB
FFF5
FFEA
FFF3
FFFA
0022
000C
0001
0016
FFEC
000D
FFF7
000C
0004
FFF8
FFFB
000A
FFFA
0014
FFF2
0009
0003
000B
FFF5
FFFC
0002
FFCD
FFF8
0015
FFF0
0003
000D
000E
0008
FFF6
FFF7
FFEE
FFF3
FFEE
0008
FFFB
0038
0007
0008
FFE5
0018
0007
0003
FFE8
FFF6
FFF7
0023
FFF5
0000
FFD7
0013
0002
0009
FFFC
0010
0014
0010
0008
FFF9
FFEC
0007
0024
0002
FFEC
0013
FFF7
0004
0005
FFEC
0018
FFDD
0010
001B
FFEE
FFE9
FFDB
FFED
001E
000F
000E
FFFA
0014
0000
FFFC
0019
FFEC
FFF9
FFF4
000E
0004
000D
0007
0010
001E
0008
FFF9
FFE2
FFEF
001A
000D
0015
0000
000F
FFF6
FFFA
FFFC
0002
0001
FFEB
0013
0013
FFE6
0000
FFF9
000F
0004
0018
FFE7
0020
000C
0000
0013
FFF7
FFEF
FFF4
0000
0008
FFE9
001A
FFF2
0006
000B
000C
000C
FFDF
0003
001E
0009
000D
FFF2
0003
0013
0003
0001
FFF4
0009
FFE4
0000
FFF3
FFE3
0001
0016
0000
001B
FFF9
0002
0010
0022
001D
FFEA
FFE6
FFEA
FFFC
001C
0019
0004
0010
FFEC
FFEC
000A
000F
FFFB
FFFA
0019
000A
FFFB
FFF7
FFF7
FFEC
FFF6
0004
FFDB
0005
0002
000A
0012
0006
FFED
FFDF
0016
FFFC
FFFA
0022
000D
0016
0012
FFEF
0020
FFEC
000A
002D
0000
FFF3
FFFC
FFF7
0009
FFF2
0015
0004
0016
FFD9
0015
0015
FFF1
0005
0021
0005
0018
FFF5
FFFB
0014
0009
0001
FFF9
000C
0009
FFF5
0018
0014
0007
0005
FFE2
0000
0001
FFFC
FFF7
FFFF
000C
FFE9
0020
FFF1
FFE4
FFEF
000F
FFF1
0003
FFFC
0006
000E
000C
0013
0004
0000
002D
0009
0008
FFFF
0005
0000
000E
FFF0
000A
0009
FFEA
0009
FFE6
FFFF
0000
0007
FFF8
0008
FFF4
0017
0010
FFE4
0003
FFE4
FFCC
FFFE
0058
0036
0007
FFF2
003D
FFE3
FFE3
FFD5
FFED
0037
FFEB
0008
FFE2
002E
0057
FFF8
FFAD
0022
002C
FFCD
FFB3
FFE1
0016
0006
000C
0020
FFAA
000D
FFFD
000E
FFE9
003C
FFCF
0029
FFE3
000B
FFEA
003B
000D
0029
FFF2
001A
0024
FFF1
FFF0
FFC0
FFF6
FF98
0030
002D
FFC4
FFFA
FFBE
FFAF
0016
003B
FFFD
003A
0029
002E
FFE4
FFFA
FFF8
FFCC
001D
002C
FFFF
FFF4
FFEC
FFE3
FFC9
0007
FFEE
0008
0018
FFEB
FFFA
FFED
FFDD
0036
001B
000E
000A
0003
FFB6
0015
0022
FFFD
FFE3
001D
FFC7
0005
000C
0016
FFE8
FFE3
0016
FFFA
FFF5
FFF8
FFF4
0000
002D
0027
FFFE
FFEF
FFCA
0001
000F
FFCF
FFE0
000F
0021
0026
FFC2
FFDA
FFCC
FFE3
0010
0031
0029
FFEE
FFF4
001A
FFBF
001D
FFFC
FFD6
FFE5
0007
FFFF
0021
0002
FFDF
FFD9
003D
000A
FFCA
0001
FFF9
FFF0
0024
FFD7
FFF6
0027
FFF0
0012
0021
FFF9
0022
0028
FFF7
FFBC
0020
0025
0012
FFF6
FFED
000D
FFF3
000C
FFE1
FFEA
FFE2
001E
FFF7
002A
0033
FFE7
0005
FFD0
0019
000A
FFFC
001C
003A
FFFB
FFEF
FFFF
FFCF
FFD2
0022
0043
000B
0016
FFE8
FFFC
0014
FFFC
FFF5
FFF3
FFF9
FFF2
0002
000F
0018
FFF8
0009
FFF3
0026
FFE8
FFE1
FFFE
FFF6
0002
000E
FFEB
0002
0002
0014
FFF1
FFFC
FFFD
0000
0022
FFF6
FFF6
0000
002B
FFFB
001A
FFEB
000A
FFF2
0003
FFFA
FFF9
FFF4
0020
FFF8
0004
0006
FFE3
000F
0007
0007
FFDE
FFF3
000C
FFFB
FFF6
FFF0
000A
FFF9
0003
0000
FFEF
FFEA
001C
FFFF
0021
FFA5
FFFE
0039
FFF6
0037
001E
0019
0034
FFD9
000C
FFA5
FFFF
0003
0033
002D
0021
FFD1
FFE8
FFAD
005A
FFCD
0007
FFEF
0029
FFC5
FFDE
001A
0022
FFC5
003B
FFF5
0021
FFA1
0038
FFCD
000D
001C
0003
0020
FFCE
000D
002A
0022
0003
0011
0043
0001
0008
FFF8
001B
FFD4
FFD7
001D
FFFE
FFEA
FFC0
001C
FFFF
0005
FFDF
0027
FFD1
0040
0015
FFC9
0020
0002
FFD6
0009
FFFC
FFE5
003A
FFEF
FFF6
FFED
0005
FFFA
0053
FFF4
0034
0003
FFE8
FFD9
0038
FFA3
0017
FFDD
FFF2
FFDC
002A
FFED
000D
002D
FFE4
FFE6
002F
FFBB
0040
FFCD
0039
0017
0037
001C
FFE2
FFE1
FFFF
FFE7
FFB7
FFA8
001F
FFF1
0034
FFDC
FFCA
FFE9
FFC6
FFB3
FFDE
FFE6
0027
0031
FFE5
FFE4
FFF9
0022
0003
FFFB
0003
001B
0026
FFEF
0003
FFFC
FFD3
FFE0
FFD3
0008
FFE8
0022
0010
FFEA
0009
0008
000F
0021
FFF4
0035
FFF7
FFF6
FFF4
000F
0000
FFFC
002A
FFEA
FFD5
000D
FFF9
FFF9
FFFF
0023
0001
001B
FFF9
FFEA
000C
FFE7
0004
FFF7
0008
FFF7
FFFE
FFC9
0001
FFF3
0019
FFE5
FFE1
0035
FFD7
FFD6
FFE2
FFDF
002F
FFFB
0021
FFFA
FFE4
FFFD
001A
FFDE
FFE5
0013
FFFE
FFEF
FFFC
FFF1
FFEE
FFF5
FFD4
0018
FFF3
FFF9
FFF8
FFE8
FFFD
002E
FFE7
001A
FFE8
FFF6
FFFA
FFF9
FFFB
000C
FFFC
0003
000D
FFF7
FFED
FFFE
000A
0018
FFF3
FFF1
0021
FFE2
002E
FFF2
0025
FFED
0016
001F
0016
FFFA
001D
0018
FFEB
0003
FFE8
FFF7
FFFA
002E
0001
0042
FFE9
FFDF
0012
FFFE
0007
0024
0013
FFE9
FFDA
FFF5
FFF3
FFE4
FFD0
000E
0051
0022
FFE7
FFDF
FFC4
FFF3
0028
FFBD
0015
000C
002D
0015
FFE8
001B
0011
FFB6
FFF6
FFF3
0015
FFD3
FFFE
0007
0043
000F
FFDC
0027
000F
0009
0007
FFEA
FFD1
FFF2
0009
FFF8
FFFF
0002
0017
0002
FFD4
FFE1
FFA8
FFFE
003A
FFFF
FFD9
0006
0059
0065
FFFD
002F
000E
FFF0
002C
002D
0035
0019
001D
FFF6
FFA6
FFE7
FFE1
0009
FFCB
FFC6
004A
000F
0010
FFEE
FFC9
FFBB
002A
FFE5
0013
0031
FFF0
000E
FFF1
0015
0012
FFD9
FFF9
FFFF
FFF9
0009
FFD3
FFFA
0002
0011
FFF6
FFEB
0003
FFFD
FFD7
0015
FFD2
0008
FFE7
FFED
0002
FFF8
0016
0015
FFDD
0005
FFC9
FFFE
000E
0017
0029
001B
0028
0003
0026
FFF8
001C
0026
0004
FFF2
0040
0026
FFF4
FFD1
FFE8
FFEE
FFF1
0006
FFF5
FFC5
FFBB
FFF4
FFE6
FFE3
0017
0006
FFD0
002B
0013
0030
FFE3
FFD1
0006
FFE8
000C
001F
FFEA
0029
0006
FFFA
FFFE
0015
FFF3
0019
001F
FFD7
0009
0009
0012
0001
FFEB
FFFD
FFEA
FFE9
001B
0013
FFF6
FFE6
0008
000F
0019
FFF6
FFFD
0016
0032
0019
FFF9
FFCD
0028
0012
FFDB
0014
FFF2
FFC5
000C
0007
FFE7
FFF0
0040
FFFE
0028
FFFC
FFF3
0009
0016
0016
FFF0
FFF5
FFF3
FFF4
0012
FFFE
0006
0005
FFF9
000A
000B
000E
0002
FFF6
0002
0002
FFF8
000C
FFF7
FFF0
0009
FFFE
FFFA
000C
0002
0003
FFF5
FFF7
FFFC
FFF8
FFF1
000D
0006
FFFF
FFFA
FFF4
0005
FFFC
0008
0012
0012
0007
FFF4
FFF6
0008
001A
FFFE
FFF5
FFFC
FFFC
001D
0000
000F
0002
0010
FFFB
FFD8
FFF2
FFFD
0051
0022
FFD3
0016
FFE8
FFD0
FFFA
FFCC
000E
FFB3
FFEB
002E
000D
0002
FFF2
0048
FFF6
0040
FFBA
FFAF
0015
0053
FFC9
0008
0039
0002
0001
000D
FFFE
FFCC
0012
001A
000E
FFFC
FFD9
FFF5
FFFE
006C
FFE5
001D
FFC2
FFF7
FFFF
FFD9
FFD1
0034
FFAB
FFE1
FFEA
000A
0037
FFD6
001C
FFF7
000E
FFF2
FFE6
0018
FFF8
FFE9
0031
FFFD
FFE6
FFFC
FFE7
0012
0051
0031
0014
0013
FFF7
0014
FFD8
FFFD
0005
000B
0028
FFEE
FFF1
FFF2
0006
0027
000A
FFF0
FFD4
FFFF
001B
FFF3
FFD6
001B
FFF4
FFD2
0009
FFF9
FFDD
001C
001F
001B
FFF7
FFEE
0007
0014
FFE9
002C
0034
FFFA
FFDB
000C
0012
FFE2
003D
FFE9
002F
FFFE
000D
0038
FFF0
0010
000A
0010
001E
000E
0005
0011
FFD2
FFF3
000C
0008
FFF6
0012
0012
FFE4
0017
0019
0015
0011
000A
FFD5
FFF3
0012
FFD1
0016
0042
FFF0
0013
FFD8
0006
0034
FFD2
FFDD
000E
001B
FFFC
FFEB
FFF7
FFED
FFF0
0021
000D
FFF6
FFF8
001D
FFE6
0010
0034
000D
FFDB
FFF6
0018
0015
000E
0038
FFE8
FFEE
FFFA
0011
FFED
FFF0
FFFE
0002
0001
FFFC
FFDE
FFD3
FFF5
FFF2
FFF4
0001
FFF8
FFE5
003D
FFE6
0008
FFFE
0015
0002
FFEA
FFF6
0008
0001
FFFE
0005
0009
FFEE
0019
001C
FFDF
0025
0005
FFF7
FFF8
FFF6
FFFB
001A
FFF9
FFFE
FFF7
0005
000E
001F
FFF1
FFEF
FFF0
000B
0001
FFEF
000F
0003
0006
000A
FFF9
FFF1
FFD9
000C
000A
FFED
FFE7
000A
FFD4
FFE8
FFD2
0002
FFEE
FFE4
FFF6
FFEE
0004
0003
0008
FFF1
000B
0007
0014
000F
FFFB
FFD9
0051
FFEF
FFC3
FFE7
FFA8
FFB4
FFD4
FFFF
0017
FFBA
0036
FFF4
0031
FFD6
FFBF
0017
FFFC
0047
0019
FF5B
0026
0042
001C
FFDE
0033
FFF9
0046
0003
000A
FFA6
000B
0024
003F
FF9D
000F
FFF0
FFD2
0065
FFC6
000A
FFBE
FFD8
FFB6
0040
FFFC
FFE1
FFDD
FFC7
0008
000C
0012
0015
0024
FFF9
0016
001F
FFB7
0009
0035
0021
FFE8
004F
FFD3
FFF2
FFDE
FFC6
0030
FFDF
0028
0040
005C
0046
0028
0029
FFC0
FFC7
0040
0031
000F
FFCF
0006
FFC0
FFF8
0043
FFC8
FFF0
FFF8
001F
FFDF
FFD3
FFCC
0039
FFE0
0005
0043
001F
FFEC
0060
FFF5
0012
001A
FFBA
0003
FFCE
0033
0028
FFFF
001C
0046
FFF1
0063
FFE7
000F
FFDA
FFBF
004C
FFE2
0012
FFF9
FFC5
FFDD
FFBD
0007
0050
FFF0
000A
000B
003F
FFF8
FFF0
002E
0020
FFE1
FFFD
FFDD
FFF0
FFF4
0028
FFEF
FFD0
FFE3
0017
0004
FFDD
002B
FFF3
FFC7
000A
0004
002D
0040
0023
FFF8
FFF0
003C
FFDA
003A
FFEE
FFAC
FFED
FFC8
000C
FFBE
003D
0019
0034
0008
0004
0033
001A
FFFC
0015
000B
FFD2
000B
FFAC
0009
0020
0009
0002
0070
0026
FFD5
0008
002F
FFD3
0023
FFE3
FFFE
FFD6
0015
FFB7
FFF3
FFEB
FFF4
0012
FFE6
FFF6
0009
0004
0001
0005
FFE0
FFFB
0014
0000
FFF0
FFF1
0004
0001
0003
0010
FFE1
FFF2
FFDB
FFF9
FFF7
FFFD
000F
000F
FFEE
FFE3
0011
0006
000E
FFEE
0016
FFFF
FFFC
0001
FFFA
0016
FFEC
0007
FFF3
FFF6
0002
FFEC
FFFD
0003
0009
0005
0018
0005
FFE7
FFF2
000E
FFFA
FFF5
0008
000C
001E
0004
FFF3
000D
0014
FFEE
FFF7
001D
FFDD
FFC3
FFF4
FFC6
0033
FFE1
FFC8
0017
0002
000A
0001
FFCF
FFD3
FFF8
002B
0055
FFB1
000F
FFFD
0064
FFD9
FFC4
FFDC
004A
FFE5
FFE1
FFDC
FFB7
0032
0064
FFBA
000E
0002
FFF9
0033
FFBF
001C
000C
0008
FFD4
0034
FFDC
FF95
0016
0018
001B
0005
FFF0
001F
0021
FFD0
FFED
001A
FFF0
0014
0031
0000
FFB8
0054
002D
FFDD
0006
FFE2
0001
FFEE
FFCC
0037
0010
0052
FFDC
000C
0031
FFEB
0061
FFE0
FFBC
FFF9
FFC2
000E
0070
FFE4
FFDC
FFDC
0052
FFE4
FFD9
FFE7
001A
0009
FFB9
FFE9
0017
0013
0061
FFE3
0020
FFD7
0005
FFD9
FFE6
FFF0
0022
0042
0013
0047
003A
FFCC
0046
FFE5
001E
FFCF
FFC1
0038
FFD0
FFE8
001B
FFEA
FFA3
0002
FFFD
0044
FFD4
0017
0035
0014
FFDE
FFD1
0009
FFEE
0007
0012
0009
0015
0030
0016
FFEC
FFE0
000F
FFF5
FFF1
FFD1
FFF4
FFEE
FFF8
0026
0015
FFFE
FFDF
0024
0020
0001
FFFC
0016
0003
000D
FFED
0005
FFDD
000C
FFC5
002E
FFEE
FFF8
002E
001B
0031
FFEF
FFFD
0001
0039
0000
002B
000A
0024
0016
FFEB
0038
006B
000F
0003
0001
001B
FFF3
001A
0004
FFEE
0000
FFFB
0038
FFD8
FFBD
001F
0012
FFE6
0024
FFEF
0013
FFDE
002C
FFD5
FFD3
0027
0010
FFEA
FFF4
0017
FFF2
FFEC
0009
FFE5
0023
0010
0003
FFD8
FFF1
001B
0005
0002
FFEC
FFFB
0012
FFCF
000A
FFF4
000C
0020
001B
0013
FFF3
000F
000E
0007
FFF8
000D
FFEA
0029
FFD4
0014
000B
0001
0021
002A
000A
0019
000C
0018
FFD6
002B
001F
FFFA
FFD9
FFFC
FFEA
FFCE
0011
FFEE
FFF6
000C
FFF3
FFDC
FFFA
0005
0002
FFF7
001D
FFE2
0002
0020
FFEF
0018
000F
0009
0017
FFE9
FFD1
FFFE
FFE4
000C
000D
FFE7
FFE8
001E
0009
FFEF
FFF0
FFE8
000A
FFDC
0009
0007
FFFC
001B
000A
FFDE
FFDC
FFE0
FFE0
FFE3
000F
0000
001F
FFF2
000D
FFF7
000D
FFD6
FFF1
FFF6
0012
FFFE
0015
FFF8
FFF6
FFF4
FFFE
000C
0016
FFEF
0004
000C
000F
FFFB
FFFA
FFDF
FFE8
000C
0015
FFFE
0004
FFEF
000C
0007
0007
0012
0002
FFF0
FFE5
FFF2
0008
FFDC
0003
0015
0030
FFFF
FFD7
004A
FFFB
FFF1
FFF8
FFF0
000D
FFF4
0006
FFFA
FFF5
0005
000E
FFF8
FFE4
FFE9
FFF2
FFF3
0012
0011
FFE1
0006
FFFB
0013
0014
FFF9
0017
FFFA
000E
0016
FFFC
FFEA
0013
FFFC
FFEA
FFE6
FFF6
0004
0002
0003
FFFA
0027
0017
0002
FFF8
0001
FFEC
FFFE
0005
FFED
FFFD
001B
FFEE
FFFB
0001
0010
0014
0000
FFF8
FFE8
000B
000C
FFF4
FFF9
FFE9
001C
0014
FFFD
FFF7
FFF1
FFFA
FFFD
FFED
0004
FFEF
0007
0007
001B
FFE3
FFF1
000C
0004
000C
FFFD
000D
0009
FFF8
0007
000B
FFF0
0012
0005
FFE7
FFF3
FFEE
FFEF
0006
0006
FFF9
0011
0002
FFEA
FFFA
0000
000F
000E
0011
FFF4
FFF8
FFEC
001D
0004
FFF4
0002
FFF4
001B
FFF7
0007
0002
FFEF
0010
0005
FFF0
0014
FFEE
FFE5
0005
FFFD
FFFA
FFFF
0011
FFF7
FFD8
FFE2
FFFA
0003
FFF4
0000
FFF1
001C
FFFE
0010
FFF3
FFFE
FFED
0021
000C
0011
0001
FFFC
000B
FFF3
0008
FFFE
0009
0006
0008
0016
000B
FFFB
FFF9
FFF0
FFDE
0001
0001
001A
FFE8
FFF8
000D
FFE7
FFE9
0004
0010
FFF2
FFE3
000C
0016
0017
0001
FFF9
002E
001A
0020
FFC1
FFE9
0005
0022
0009
FFD0
0007
FFEC
0009
002E
FFFE
FFD9
FFF3
FFF4
FFDD
000E
001C
FFDA
0017
002A
001F
0011
FFD2
FFDE
FFD1
FFE4
FFFE
001E
FFDA
FFDF
FFE3
0006
FFF2
FFD9
FFD7
FFEC
0025
FFFF
000F
0012
001B
0002
0017
FFF4
FFE1
FFE6
FFD6
FFB3
0018
0022
0018
0046
0041
0012
FFDF
0035
FFC5
FFAD
002F
0017
002E
FFC5
0001
FFCF
FFF8
002E
FFD4
FFC3
FFFD
FFD2
FFBD
FFEB
FFFC
FFED
FFBA
0030
0039
FFEA
0035
0003
001B
0018
FFE6
FFC4
FFEB
FFFD
0046
0013
FFE7
FFF9
0050
FFDC
0041
FFF9
001D
0034
0009
0030
000D
FFE4
FFFB
FFED
0006
001B
002D
003B
FFC9
FFEC
0010
0011
004E
FFF7
0013
000B
FFE2
FFE0
FFF7
FFD7
FFEC
FFF9
000D
FFA5
001A
003E
FFD5
004B
002B
FFA1
0027
FFF8
FFCD
0014
FFF1
0008
FFDB
0032
000F
FFFB
0003
FFF5
001F
001E
0031
FFF9
0031
0008
001B
0009
FFCF
FF8D
FFC3
002B
0025
0006
FFD7
0007
FFC6
FFF3
FFC1
FFF7
FFF7
FFC3
FFF6
FFDB
FFCA
0028
FFDA
FFFF
FFF0
0018
0028
0025
FFDC
FFA8
000D
000B
FFFB
FFF3
FFFD
FFF8
FFFF
0019
FFF4
000C
0028
0007
0013
FFEE
FFF1
000A
0000
FFF4
0014
FFFE
000E
FFF3
0018
FFF4
000B
000B
FFDE
0014
0006
FFFE
FFE3
FFFB
0003
0011
001E
FFE9
FFFB
FFF1
0011
0004
FFF5
FFFA
0006
FFF8
FFFC
000E
0008
0022
FFF1
FFE3
FFE2
FFFD
FFCD
000A
001C
FFFB
FFE7
FFF3
FFE5
0003
FFF4
000F
FFEF
0007
FFFA
FFD3
006F
FFF3
FF8C
FFA7
FF84
FFF6
FFA4
FFD2
0038
0003
000E
002E
FF97
0060
0050
002F
FFFD
FF98
FFD7
0042
002B
FFC0
0001
000E
0072
0022
FFF7
FF82
FFC3
0057
FFED
FFDF
FFFB
0030
0052
00B4
FFEE
FFE4
FF9A
0030
FFBF
0037
FFDE
FFCC
FFCE
FF8D
FFE0
003B
0026
FFCD
0049
FF98
001E
004B
001C
FFC8
0099
0007
000B
0007
FFC8
FF72
FFFA
0001
0031
0014
FFED
FFE3
FFE5
FFFA
FFB9
003E
0024
FFE5
FFF3
0036
000C
0064
0052
0012
FFE4
FFEC
FFD5
001C
0013
FFD0
FFE7
0019
FFEF
0006
0018
FFC4
FFDF
FFC9
FFDF
002C
000C
0002
0062
0016
001D
FFDF
FFD8
0005
FFE6
FFED
000A
0011
FFD1
FFBE
FFB1
0005
FFF8
FFA6
FFB9
FFC9
0007
0027
0055
FFF0
0006
0000
0022
FFB9
FFBF
FFA1
0024
002A
FFF7
0004
0011
FFF8
000E
0017
FFF5
FFD1
000A
0004
FFFF
002B
0016
0027
000A
FFF1
FFE2
0005
FFE1
0013
FFEB
FFD9
FFE3
FFFF
0002
FFED
FFFF
FFE9
0000
000E
0013
001D
0008
0007
0023
002D
FFDC
FFE0
FFFF
FFFA
000D
FFFC
FFCF
FFE3
FFFA
0028
FFE2
FFD7
FFD5
FFD0
FFB0
0014
FFE0
FFF3
0024
0002
FFEB
FFE7
FFFC
000E
0016
FFDC
0008
FFFC
FFFB
0000
FFF5
FFED
000E
001C
FFF8
FFFF
000F
000C
0014
FFF3
FFEA
0029
FFEE
0003
0022
FFFE
FFF1
0008
FFFC
FFF7
0007
FFF1
0011
001E
FFFA
FFE8
000E
FFF1
0033
FFE1
0028
FFE8
0001
FFE9
0015
FFF9
FFEC
FFFF
0009
FFF4
0011
0008
FFEA
000A
FFFC
0005
FFD7
FFDA
FFC1
FFED
000F
FFE0
FFE0
0022
FFD5
FFFA
0011
001A
000B
001A
000D
FFA7
0050
0026
FF9A
FFA4
FF8A
FFC5
FFD0
FFD4
000C
002F
FFF4
0022
FFA4
0016
0065
0029
FFF9
FFB4
001B
0046
FFDB
0002
001B
0035
0059
FFE9
0045
FF79
FF9A
0060
FFD5
FFB2
FFF0
FFDA
005C
0084
FFF4
001F
FF96
FFEC
FFD0
0003
FFBD
FFBA
FFCD
FF9E
0010
0038
0050
FFF8
0036
FFE8
0014
003D
0028
FFC6
0090
0035
000B
FFEE
FFAC
FF72
FFE9
FFCF
FFE1
FFF4
FFFA
FFCA
0000
FFBE
003F
0014
0001
FFEE
FFFE
FFCA
0002
FFCC
0002
FFD4
0056
0014
0020
FF96
FFBD
000F
0026
0015
FFDE
0006
FFEA
001A
0040
0000
000A
FFB6
0022
FFEC
FFB5
FFC5
0004
0011
0002
001C
000E
FFF4
0032
0011
001A
0014
0018
003B
003B
002E
0022
FFBC
FFE7
0015
FFCD
0006
0028
0044
FFE6
0000
FFD3
0036
0013
0015
FFD6
FFEC
0003
FFC1
0005
FFED
0028
FFBC
FFF3
0030
FFEC
0000
0015
002A
FFBF
FFDC
002B
FFFC
FFDB
FFF2
FFB1
FFF8
0010
FFED
0015
FFEA
FFFF
0000
0026
002B
0050
FF92
001A
FFEF
FFE6
FFF1
FFC3
0006
FFB6
FFE3
FFE9
FFE3
FFEA
0008
FFC9
0047
FFF0
0028
0023
FFD8
0004
FFD0
FFE2
0007
FFC0
003A
FFCB
0038
0024
002C
0013
001E
FFF8
FFEB
000C
0022
FFF5
FFEC
FFFA
001B
FFD5
FFF6
FFD3
000D
0014
0021
FFFD
001B
FFFF
000D
FFF8
0008
FFC2
0013
FFDE
FFEF
FFD6
FFF5
0025
FFE4
001F
FFE2
FFF6
001C
0001
FFD8
002D
FFE4
0020
0011
FFE9
FFD6
FFC1
FFDC
FFDC
FFED
FFE5
FFFD
FFEC
0015
FFF8
0013
FFFA
FFDC
FFC5
FFF4
000B
002B
0008
0000
0000
003B
001F
001B
FFFD
FFE0
000F
FFF5
0015
FFFE
FFCE
FFD5
FFBE
FFE8
0001
0003
001D
0026
0004
0031
FFC7
FFED
0032
0016
0008
FFD5
002E
002E
FFDA
000F
002A
002D
0017
FFD5
003F
FFD6
FFE7
0012
001B
FFE3
0019
FFF4
0009
0024
000F
0020
FFF1
FFDA
FFF6
FFD8
FFCA
FFE8
0019
FFF4
0014
FFF6
0040
0026
FFF6
0012
003B
0042
0004
0001
001E
0001
FFF3
0016
FFDD
FFCC
000F
FFEB
FFC0
FFD6
002F
0016
FFD7
FFBC
0003
0021
0009
FFFA
FFED
FFE8
FFF7
FFCD
0004
FFF6
001A
0022
0046
FFDC
FFEC
0027
0029
0015
FFE2
FFE9
0010
0043
0000
FFCD
FFE8
FFC7
0005
FFE9
FFD7
FFC0
0033
0024
001E
FFD0
002C
0006
FFF9
0016
0028
0018
0042
000B
000A
004B
002E
0033
0026
0003
FFF3
FFFF
FFFE
FFD5
FFE4
000A
FFEC
0007
FFC8
0001
FFC1
FFC1
0023
0022
FFD6
FFFB
FFF8
FFE6
0027
002A
FFE8
FFBE
000D
FFAB
FFD3
001A
000D
0020
0043
FFB7
0005
FFDC
0011
FFE1
0010
FFED
FFF0
0052
FFF1
FFC7
FFD0
FFC3
FFED
FFF3
FFB0
FFDF
0032
0046
0029
FFBF
FFEC
000D
0012
FFFE
0039
0061
0043
0014
FFF9
0043
0006
FFF6
001D
FFE9
FFD0
0016
FFFC
FFD8
FFCC
0018
0017
003E
FFF4
FFF7
000D
001A
0023
002D
FFF3
FFF6
FFCF
FFF8
FFEF
0000
FFF9
FFFF
0046
FFFF
000C
FFF7
FFE0
0025
FFF0
FFF2
000D
FFF6
FFDC
FFE7
0014
FFCD
0009
0016
0002
FFEA
FFE9
0007
FFF3
FFEC
FFF7
0013
000D
FFF6
001A
FFF1
FFF6
0018
001A
0016
000E
0011
FFFA
000C
FFF4
000C
FFF0
0038
000D
FFFC
FFEF
FFF4
0001
0003
FFF7
FFDD
0022
FFED
003E
000B
0006
FFD9
000E
001B
003A
FFDC
FFF7
FFCE
FFDD
0028
FFBE
FFF7
003E
FFE0
0033
FFE5
0032
0033
0023
FFCF
0012
0065
0003
FFA5
0006
FFD7
FFFD
0001
0026
FFAA
003B
FFEB
003A
FFB1
004F
0016
FFCC
FFF8
FFFC
FFE8
0048
005C
0001
FFD2
FFEB
0010
FFF9
000B
0010
0012
FFE3
0052
0022
FFAB
FFC3
FFC6
FFE2
0013
0028
0016
001E
FFF7
0037
FFF3
FFE1
FFE7
FFD6
001D
0012
FFD4
000A
FFF7
0001
002D
FFE0
FFCE
FFF2
FFC8
FFEF
0038
001A
FFFE
005E
FFF5
0001
0046
0044
FFC0
0009
FFF1
0042
FFDB
0002
FFB5
002F
FFCD
0021
FF9A
FFFA
0015
000F
0033
0018
FFAB
0014
002D
0009
0009
002B
FFE2
0033
0022
0009
0042
FFFE
006A
006D
FFC0
FFB2
FFC8
FFCE
0038
0021
003C
FFE7
000C
FFE3
0012
FFEC
FFCC
FFDF
FFFF
FFEE
0019
0012
FFF3
002F
0051
FFFC
FFD6
000D
FFD2
FFEE
0049
0012
FFE5
0006
FFCD
FFF4
FFE1
002E
FFF0
FFEF
001F
0015
FFD4
FFF0
FFF8
FFF8
FFEC
FFEA
FFE1
000B
002A
0008
0062
0009
FFEA
FFCC
0013
000B
FFEB
0024
0000
0015
0000
0006
0026
FFDF
FFF6
004B
0007
FFF6
FFDF
FFFA
002F
FFD8
0001
FFFD
0029
FFE9
0014
FFE6
0003
FFF6
0010
001F
0007
000F
000C
FFF6
FFFA
0000
FFDD
000C
000C
FFF8
0012
FFDE
000C
FFF7
FFED
FFF1
FFF7
0009
FFF2
FFF8
0030
0002
FFED
FFFA
FFEB
FFCD
000B
FFE6
0002
FFE2
FFF4
0012
FFFF
FFDB
000F
FFE7
000D
0012
0018
FFDE
0005
FFCA
0008
FFE5
FFE8
FFEA
0002
0013
FFEF
0010
FFEF
0004
0001
0016
FFEF
0005
0013
FFE4
0064
0002
FFDB
0045
000A
002E
0025
0007
FFF6
0003
005C
FFB1
FFF2
0052
001D
FFE7
000F
0027
0027
000B
FFBE
0023
0031
FFED
FFFB
FFC5
FFF4
FFED
0037
0010
FFE1
0017
0030
000D
FFC3
002B
FFC6
000E
FFF9
0008
FFFB
003C
FFF7
FFEB
0031
FFF4
0045
FFE3
FFD0
FFFE
FFC4
FF8B
0010
0015
FFC9
FFE5
0011
FF8C
FFC6
002E
000D
0042
0041
0006
002F
0001
001C
FFFE
001D
000F
0005
FFF2
0013
FFEB
FFE4
FFED
FFF1
001B
0047
FFC9
001F
FFD4
FFCE
000B
0034
0011
000F
FFF6
FFEC
0005
FFE7
0033
0005
FFE6
FFFC
FFF3
000F
FFCD
0017
FFC5
000C
0007
FFF0
0006
0001
0008
FFEA
000F
002F
FFD3
FFE8
FFEA
FFEE
FFD7
FFC3
FFFC
0023
000B
FFDB
FFFF
FFFB
FFAC
FFCA
0038
0007
001E
0004
0002
0020
000D
FFFF
FFF4
FFF7
FFD2
0009
FFEC
0006
FFE9
0016
FFF1
0024
FFF2
003C
FFE0
0025
0007
FFEE
001B
002F
001D
0020
FFEC
0009
000F
FFCA
0047
FFF1
FFF5
0025
0019
000A
0004
FFD1
0001
0012
0027
FFFB
0000
FFDC
FFF3
FFBE
FFAC
0023
000D
FFEC
FFF9
0004
0008
FFC7
FFB0
0028
0032
0002
FFE8
FFE8
FFB1
FFFD
003B
0023
FFF5
FFED
FFF1
FFF9
FFF8
FFEB
0011
0010
FFF7
FFF2
002B
0005
FFE6
FFF2
0002
0013
001A
FFE9
FFFC
FFDE
FFFD
0021
FFE5
0008
FFF0
0021
000D
0003
FFF7
FFE9
FFFD
0019
FFF6
0000
FFD8
000F
FFCD
0028
FFED
0005
0008
0004
0018
0000
000B
FFEA
000A
FFF4
0018
0006
FFF8
FFFE
000B
0006
0029
FFFA
FFD1
FFE6
0009
0002
FFF2
FFFF
FFFE
FFF3
001E
000A
FFFA
FFDA
0035
FFE5
FFFA
FFE2
002B
0015
000C
FFDB
0016
003D
0016
FFF7
FFF1
0010
FFF2
0025
0017
FFD6
0028
FFEE
FFFB
0000
0005
0001
FFFB
0010
FFD8
0013
001C
0014
0019
FFFA
0032
FFAE
0020
FFE5
0017
000E
0004
FFFA
FFFE
FFF3
0020
0017
FFE8
FFF8
FFFD
0024
000F
FFED
FFEE
FFCB
0034
FFE4
000B
0024
000A
000D
FFFE
0006
000F
0010
0017
0004
0032
FFB7
FFEA
0023
0013
0072
000F
FFA4
0020
FFDE
FFF8
FFE8
FFC6
0010
FFAE
FFF0
0074
FFE8
FFE3
0025
0032
0046
0002
FFA7
0046
FFE4
FFD3
0001
0010
0040
005E
FFE8
FFC7
0019
000E
0037
FFCD
FFE4
000B
0044
FFFF
007B
000E
FFB7
FFFA
000D
0021
FFC9
FFB3
0008
0040
FFE8
FFDA
FFD0
FFA4
FFD7
FFFA
0024
0018
0068
0078
0005
0019
000A
FFD3
0008
FFCD
000E
0003
0010
0038
0040
001B
FFC5
0019
FFE1
FFD5
002E
FFE8
0017
FFE9
FFBD
0015
002F
000E
0023
0030
000C
FFE5
002D
0014
FFD0
0018
0016
FFE3
003A
FFC8
0025
FFFA
0009
0025
FFF0
0016
003C
002B
FFF6
0021
0013
0009
FFC0
FFEA
FFC7
0001
0003
003D
000B
0024
0001
0010
FFB7
FFEC
0007
0029
FFE4
FFC9
0005
FFF4
FFFE
FFF9
000E
FFFE
FFE9
FFFB
FFDB
001A
0030
FFFD
FFEC
FFFE
FFF0
001F
FFF6
0010
0008
FFF3
FFE9
000C
FFD2
FFFE
FFF1
FFF5
001D
FFF2
FFFF
000D
FFF6
000C
FFD5
0001
FFF3
0012
FFF0
FFEB
FFE1
FFF5
000F
FFFA
FFF8
FFF8
FFEB
002C
FFF0
001C
FFF2
FFF0
000F
0032
FFE6
FFFD
FFE4
0001
002A
0013
0008
FFFA
0014
FFED
FFE0
FFD4
0002
FFF2
0002
FFFD
FFD6
FFE0
FFD6
FFF0
0003
0019
FFEF
001F
0012
FFFC
0009
0000
0005
0036
000C
FFD3
FFDE
FFFD
FFD7
FFF5
FFDE
000D
000E
FFDF
0034
FFF4
FFEF
FFF1
FFDD
FFDA
0014
001B
0006
0015
FFF0
0017
FFFC
FFDD
FFF8
FFF5
FFE1
0005
FFFF
FFE7
0021
FFCD
FFF3
FFEC
FFE7
FFED
FFC2
0004
0019
0032
FFFC
001B
FFE5
FFEE
FFF3
FFDE
FFF6
0027
FFF6
0036
000F
FFF4
FFD2
FFF4
FFEA
FFE2
FFED
000D
0044
0016
004A
FFDC
0010
0050
0013
FFE7
FFE1
FFDC
0012
0019
FFE6
FFD1
0023
FFFE
FFE9
FFEA
FFD7
FFE7
001F
002E
000F
0039
FFC8
004D
0035
FFD9
FFEC
FFE3
0013
0000
FFE9
FFD6
FFD9
FFE9
0011
FFEA
FFE0
0006
FFF5
FFB6
FFF2
FFFC
003E
003C
002A
002D
FFE6
FFDD
FFF9
FFF5
FFA6
0006
0022
0009
FFE5
000D
FFF7
FFD2
FFF9
FFF3
FFE7
0041
0020
FFF5
FFFE
0006
0011
0012
001D
001F
FFDD
0013
FFF3
0024
FFFC
001A
0009
FFF9
FFE3
FFF2
0003
FFF1
FFEB
000C
0031
FFFA
FFF8
0011
001F
0015
000D
0029
0035
0016
0022
FFF1
FFF7
FFF9
0014
0006
FFDF
FFFB
0009
FFFF
FFDB
0017
FFFB
FFFF
FFFB
000D
FFC5
FFEA
FFE3
FFF6
FFE7
FFEE
0009
FFFE
0022
0029
0010
FFF9
FFF1
FFF0
000C
0001
FFF2
0000
FFE9
0013
0006
FFF7
0003
000A
FFFE
000C
FFF4
0002
0004
0002
000C
FFF7
FFDE
000E
0014
0003
FFF8
0002
000C
0004
FFE8
FFFF
FFEF
0001
FFFE
001E
0003
0005
FFF7
000B
000B
0019
FFFF
0007
0001
000D
000F
FFF4
0018
000D
0008
FFFD
0016
FFF4
FFFC
FFF8
FFDE
0000
0002
0000
001D
FFF6
0016
0004
FFD9
FFBA
FFF3
FFE1
FFED
001E
002A
0004
FFF5
FFFB
001D
FFEF
0053
FFE8
FFAB
FFF2
000A
FFD4
FFA9
000E
001D
0006
FFE2
0023
FFF5
FFC8
0011
FFEF
FFE9
FFE6
000A
FFE8
002F
FFF9
003B
FFDE
FFC0
FFBF
FFDE
FFE2
0000
FFF3
001D
FFF1
FFF2
0011
FFED
FFD9
FFE6
0002
0037
0019
0040
0023
FFF2
FFD5
FFF2
FFE6
0001
FFE0
0014
0024
001A
0035
000D
FFFB
FFEF
FFEC
FFEB
0014
000B
000D
FFFE
0001
FFE5
FFE7
0010
0021
001B
FFC0
FFF7
000B
FFF2
FFD4
001F
FFE9
FFB9
FFDC
0027
000A
0026
003D
001E
FFF6
001B
0007
0019
FFBF
002A
0046
004D
0009
000A
FFF8
FFD0
0023
0008
002F
FFCB
003A
0029
FFEE
FFF8
FFDC
0012
002C
002F
0014
FFFD
FFD6
FFDC
0036
FFE6
0025
0036
FFE8
FFFC
0003
FFEF
FFE3
FFD2
000E
FFC7
000A
0011
FFBD
FFF3
003D
000E
000A
FFFE
0007
FFF1
FFDE
0011
0000
001D
0021
FFFD
FFFC
FFBF
0005
0001
0017
FFFA
001E
FFFE
FFD2
001A
FFF6
004A
FFCC
0012
0015
0007
000F
001C
FFD2
001B
FFF2
0000
FFFD
FFF9
003F
FFFB
0022
0009
FFD9
FFEE
FFCF
FFF8
FFF1
0018
0003
FFE0
0007
FFF4
0023
0009
0003
FFFE
FFEA
FFFD
0024
FFF2
0006
FFF0
0000
0005
FFE4
FFF9
0013
0016
0009
0007
FFF1
FFEC
FFFC
FFFC
FFF3
0000
000A
FFE5
FFFC
0007
000F
FFDC
0015
FFF1
0011
FFE5
001B
FFED
001D
0017
FFED
FFFC
FFDC
0016
FFF7
FFFB
0007
FFFE
FFD8
FFE8
FFDF
000B
0002
FFD8
FFDF
FFF1
000D
FFF9
000E
FFEB
FFED
0011
0015
0002
FFF2
FFE7
0028
FFBF
001B
0038
001C
FFF4
0042
0010
0010
0012
FFDF
FFE5
005B
0006
000A
000A
001F
0004
FFC2
FFF8
FFF1
0017
0008
FFE0
FFED
0000
FFD2
003F
FFEC
FFCF
001F
000D
FFDB
004C
FFFA
FFE5
FFE5
FFC4
FFEB
FFFC
0014
0033
FFAF
0010
0072
FFFA
0010
FFC1
0009
FFE9
FFF7
001B
001C
0007
FFE8
FFFB
003C
0023
0059
002A
FFC7
FFC4
FFCE
0001
FF94
0008
FFC3
FFD5
006A
0034
FFFF
0006
0060
0090
0015
FFA4
FFFF
FFEA
0008
FFAE
0005
FFBB
002E
0073
FFD7
FFB2
0005
0014
0010
004A
FFAB
0004
FFF2
0048
FFF9
FFEC
FFA7
003D
FFAC
005C
FFDA
FF99
006D
001E
0073
000C
0031
FFB3
001D
0011
0051
0025
0019
0017
FFE7
0037
002F
FFF1
FFD5
0017
001D
FFDE
FFE5
FFE8
FFE1
FFCC
000F
0071
FFA6
FFE8
FFF7
FFE6
000D
0041
0018
001A
000B
0002
FFDD
FFF4
FFF5
FFB0
002E
FFBE
FFB4
0038
FFBC
001A
001C
FFEA
FFFD
FFFA
FFF8
FFB3
0002
002D
FFEE
0023
0003
FFE5
FFC2
0016
FFC1
0013
FFE8
FFE4
002B
0051
003E
FFEE
FFF2
0009
002B
0008
0025
000A
0023
000F
FFE9
0024
003B
001D
0029
FFBE
0008
FFEE
000B
FFFE
FFD6
FFF1
001E
005B
FFFB
FFF4
003A
FFCD
FFD1
0000
0019
0032
FFDF
FFCF
0004
0004
0011
0035
FFA9
002E
001C
FFE4
0022
0000
FFC1
0023
FFDF
0023
FFEE
FFDA
0028
0017
FFD1
FFBA
0000
003C
0021
FFD8
0025
FFEE
004E
004E
FFE1
FFDC
FFC3
0016
000A
001D
FFCE
FFC4
FFC7
FFE8
FFE5
000E
FFD2
FFD1
FFDA
FFEE
000C
FFFF
0001
FFD0
0009
002C
0033
0044
0001
FFB6
FFF9
0002
002C
FFCE
FFCA
FFF8
FFCE
002D
FFF1
000B
0071
FFFB
001F
FFC2
FFD4
001B
001A
0020
004C
FFC9
0005
FFDC
0080
FFAD
0000
FFDF
001E
0030
FFEC
FFC0
FFAD
FFE2
FFF2
FFF8
001C
FFF0
0029
0013
002F
FFFE
FFF1
001B
FFE9
0059
003A
FFD8
0014
FFDA
FFEE
FFF6
FFB5
0004
0006
FFB8
002D
001A
FFFB
FFDB
0044
FFDE
FFE5
0017
FFF1
FFD7
FFD7
000B
FFCC
FFFF
0007
002F
FFCD
0021
FFD0
0040
0029
0012
0015
FFB7
FFF6
FFDD
0018
002B
FFEF
FFF1
004D
FFC3
0062
FFBF
0027
000D
FFF8
0041
FFE8
0015
FFC3
FF7D
FFB1
0000
0009
FFD7
FFE9
FFB9
0093
002E
0006
FFC6
001D
FFB9
001C
0041
0016
002B
000D
0023
FFBB
001A
0010
FFE9
0044
FFEE
FFE9
001C
FFF3
FFA5
FFE8
FFEE
FFE7
0030
FFD6
FFE7
0000
0013
0005
000A
0020
0016
FFF2
FFF1
FFC3
001A
0027
FFFE
0035
FFFE
FFF5
001A
FFBB
0024
FFE3
FFE8
FFF1
FFFF
0006
FFD5
0028
0022
FFE1
FFEA
FFF3
FFF0
FFE7
FFFC
FFFA
FFEB
0016
FFF6
FFFA
0013
FFF8
0000
FFE5
0014
0028
0018
0003
0009
0013
0025
FFF0
000B
FFE5
002F
002F
FFCE
FFFB
0002
0025
0019
0003
FFE3
0019
FFFD
0019
FFB1
0041
001B
FFD2
0018
0018
001D
FFD1
FFE4
FFC3
000C
004B
002F
FF99
000E
0018
0012
FFF9
FFEE
0003
0068
0004
002C
FFEB
FFE2
003F
FFD8
FFF6
FFCE
0003
004F
002E
0006
001D
FFBA
0053
0050
FFD8
FFE3
FFE7
0001
0000
0012
FFE2
FFC4
000B
FFA8
002B
0007
FFFF
001A
FFEE
004F
0042
FFDD
0003
FFEA
0025
0025
001C
002B
FFFD
FFC1
FFE7
001D
FFFC
FFD4
FFFA
FFEF
FFEC
0001
0022
FFE7
002B
0002
FFE2
FFF0
0023
0001
FFE6
000D
FFFD
FFF3
000B
0001
FFF5
FFFC
001C
FFF2
FFFE
0000
002F
0005
FFE1
FFF7
FFD7
0019
FFDC
0012
FFF6
000F
0015
0001
FFF2
FFED
FFE1
002B
0006
000E
0017
FFF3
FFF7
FFF4
FFF3
FFFB
0004
000C
FFEB
FFF8
FFED
FFE1
FFFE
0009
0008
0009
000C
0015
0001
0039
003F
FF9C
0012
0006
FFFE
FFEE
0044
FFA8
004D
0034
FF74
FFBA
002F
FFEF
FFFC
000F
0040
0011
005F
FFDD
0012
0032
004D
FFCA
FFF6
FFC2
003E
002C
FFE7
FFCD
FFBF
001B
FFF1
FFF6
0004
0013
0021
0029
0027
FFE0
FFFE
0073
0003
0011
0002
FFFD
000A
0013
0003
FFFC
FFF8
001D
FFF7
FFA3
FFAD
FFBE
FFC1
FFFC
0029
FFFB
000E
FFFD
FFFB
0014
0019
FFC3
0028
0031
FFF5
0006
0021
FFC4
0017
002C
FFAF
FFF3
0047
FFFA
000A
0004
0020
0024
0000
FFDA
FFE3
0016
0029
FFD4
FFF5
FFDD
001C
0036
FFE7
FFD1
FFE0
000E
FFF3
FFFC
0004
FFFB
000D
0012
0028
FFE4
FFFC
0033
FFFE
000D
FFED
002A
0002
000D
FFDB
0001
FFDC
0003
FFFE
FFD3
FFFE
FFED
FFF5
FFE2
FFFE
FFFD
0020
FFFA
0000
FFE7
0001
FFFD
0010
000C
FFFD
000C
FFF5
0007
0001
0002
0008
000B
001A
FFE2
001C
FFFD
FFF6
0005
0011
FFF7
0016
FFF6
FFF0
FFF6
FFFB
FFF1
FFF5
0023
FFF4
FFE9
FFED
0000
0010
FFEC
0012
FFF2
000C
FFF4
0015
FFF1
000E
FFFD
000D
FFF2
0013
0009
0013
0003
FFF6
001A
FFFE
0004
0001
0007
0012
0003
0016
FFEC
FFE6
FFF7
0005
FFEF
FFFA
0005
000C
FFF0
FFFF
0012
FFFB
0002
FFFD
000C
0006
FFF9
0004
FFF2
FFF1
0004
FFF2
0002
0014
0002
000E
FFFF
000A
0016
0009
FFFC
FFF9
000B
FFFF
0003
0005
FFF1
0000
0007
000B
0004
FFF7
FFF9
000F
FFF3
0005
0004
0014
000A
000B
FFFA
000F
0005
0008
0005
FFEE
0007
0003
000F
000A
FFEB
FFEF
FFEC
FFF0
FFFE
000C
0007
000A
000E
FFFF
FFFD
000B
0000
0002
0004
0001
FFFF
0002
001B
0003
FFF3
000A
FFEF
FFF2
000E
FFF6
0001
0013
FFF9
0008
0004
000A
000E
0002
0005
FFFC
FFFC
0013
0004
0004
FFFD
0002
0008
FFFE
FFFC
FFFC
FFEB
0010
FFFB
000A
FFFC
0006
0005
0003
000D
0007
FFEB
0005
FFFE
FFFB
0007
FFEA
0010
0010
FFF8
FFFF
FFFB
FFED
0000
0010
FFFB
FFFD
0004
0002
0016
FFF6
0009
FFFD
0013
FFEA
FFF9
FFF8
000F
0011
FFF6
FFFF
FFFC
000B
0011
FFF1
000D
FFFA
FFF5
FFF2
FFF7
0000
FFF6
0002
0000
FFF3
FFF1
0006
0001
FFF8
FFE5
0001
000A
FFF4
0004
0002
0004
000D
0002
0006
0003
0002
000B
0004
0003
FFFA
FFF4
FFFA
FFF8
0005
FFF9
0006
FFEE
0000
0007
FFFC
FFFB
FFED
FFEC
0009
FFF4
FFFF
0003
0013
FFF7
FFEB
FFF9
0000
000A
0016
0002
0007
FFEF
FFFD
FFFE
001D
FFDB
FFF2
0005
FFF3
0004
FFFA
FFF4
FFFB
000B
FFF4
0010
0010
FFE5
FFFA
0004
0001
FFF4
001B
FFF3
FFFA
FFEF
0000
FFF1
FFF6
FFFD
FFFB
0004
0002
0006
0000
0007
0016
FFF7
0010
FFFD
0004
0006
FFEC
000B
0006
0017
0003
FFE5
FFE0
FFFE
FFFA
FFFC
FFFA
000F
000B
000C
FFF2
FFFE
0006
000F
FFF5
FFF5
FFDE
FFE7
FFFD
FFFE
000A
FFF7
0001
FFFD
FFFF
FFF7
0009
000F
FFFE
FFF7
FFF2
FFFD
FFE8
FFFA
000C
001A
FFFA
FFE7
FFF9
FFFE
FFF3
001E
000C
FFEA
FFEF
0011
FFF7
0030
FFF0
0027
0014
FFF1
0002
FFF2
FFEE
FFDA
0008
0007
0011
0004
0022
000F
0019
FFFA
0002
001A
0011
0014
000C
0016
FFEE
FFF6
FFFA
0005
FFD9
0008
FFEA
001E
002B
0000
FFEC
FFDF
0005
0013
FFF2
FFF8
FFF4
FFE9
0031
FFDC
FFF3
0010
0018
0019
FFD4
FFB1
FFDF
FFE4
FFE9
0009
FFE5
FFCE
FFF7
002E
0014
FFEB
000F
FFEB
FFE7
0020
FFD1
FFDC
FFF1
0034
0031
0009
FFE1
FFFF
0024
FFFE
0022
0015
0013
0007
003A
000F
0028
FFD8
FFEC
0020
FFFF
0013
0011
002E
FFD6
FFBD
0027
001B
FFFB
FFDF
FFE5
FFD7
FFDB
0019
003A
0039
FFF6
FFE5
FFFE
0011
002F
0021
FFDB
FFE5
001C
FFF3
FFF8
0017
000D
0028
000D
FFFD
000D
FFC8
0004
0022
FFCF
FFE9
FFFC
001F
0008
FFF7
0011
FFE9
0033
0021
FFE7
FFFF
FFF5
FFDE
0013
FFE9
FFEA
FFC8
001B
0031
0002
FFEC
FFBF
000B
FFE7
0020
0023
FFF6
0012
FFEE
0000
0005
FFE8
0052
001E
FFFE
0003
FFFD
000A
FFC4
FFEF
000A
FFF4
0022
000D
FFD7
0008
0010
0010
FFF7
FFE6
FFF6
FFED
0001
0010
0005
000F
FFF3
FFFA
0003
FFFD
FFE2
0007
0019
0017
FFFA
FFFC
0019
FFE7
FFF7
000C
FFF0
001A
000C
000B
FFF1
FFE4
FFCC
FFFB
001B
FFE4
FFEB
0020
0022
000D
FFF4
FFE0
000C
FFD8
FFF1
000D
FFFC
FFD9
FFD3
FFF4
0019
0007
0039
0013
0015
0023
FFFD
FFE8
0020
0001
FFE6
0020
FFEE
0011
000B
FFDF
FFE6
0020
0036
FFD9
0002
0014
FFEB
FFF5
FFF6
000D
0023
FFD1
0027
000A
003B
FFE7
FFF7
000F
FFF5
0039
001E
002E
FFEF
001A
0004
FFF7
FFFD
FFE1
FFFE
FFEA
FFFE
000B
FFB6
FFE3
0002
FFFB
000B
0006
FFFF
0028
000B
FFD9
0020
0006
0015
000C
001C
FFF5
0018
000E
0007
FFE5
0013
001E
FFE8
FFEB
0077
001F
0010
002A
FFBF
FFEE
006B
FFCA
FFE3
0027
0036
0001
0010
0029
FFE8
FFE7
000A
FFD3
0022
FFFB
FFE7
FFC9
0061
FFB8
FFEE
0027
FFFE
003F
FFEC
0034
0010
0046
FFD4
000B
FFC3
FFF7
FFE2
FFF3
FFFF
0009
FFA5
0006
0001
0023
FFDC
FFFA
FFF4
001F
0006
FF9F
0055
0011
0030
004D
0033
FFEE
0030
FFFF
FFCB
FFC1
FFEB
FFF8
FFFD
000E
002B
0001
0017
0001
FFF6
FFFF
0022
FFE4
FFE5
FFF9
0006
FFFC
0011
0017
0010
FFD8
FFF4
002F
003E
002C
001F
FFF5
FFF8
000E
FFEA
001A
FFFA
FFDF
FFED
FFDC
0030
FFE0
0008
0014
0022
002C
000B
0021
FFFD
000B
FFF4
001D
0014
FFFC
FFAA
0003
0011
FFFB
FFF9
0047
003E
0018
FFF9
0032
FFDB
0006
FFDD
000A
FFE3
FFF4
FFEE
FFEC
000D
001F
FFF3
0012
FFFD
FFF1
0007
FFFF
FFF8
FFF4
FFFA
FFD6
FFFA
0029
0016
0004
FFF5
0002
0012
FFEC
FFF0
0012
FFF9
FFF7
FFF3
0002
FFF4
000B
0003
FFED
0004
FFED
0008
FFFF
001A
0014
0012
FFF4
FFF2
FFFE
000D
FFFD
FFFE
0002
FFFE
FFE6
000B
FFD7
000B
000B
FFDC
0005
FFF0
FFF1
0001
0009
FFED
FFF6
0013
0017
FFD4
001C
FFF1
000E
FFEC
FFFD
0053
000F
0002
000D
FFCA
FFE1
001C
FFCA
000B
000B
000B
0010
0008
0026
000F
FFC6
FFFE
FFFD
0009
FFF4
FFF3
FFDE
001A
FFFD
FFD5
0025
FFF1
0013
FFF6
000B
FFF0
000D
FFF5
FFFB
0002
FFEA
0001
FFF3
FFD6
FFED
FFCF
FFF9
0016
FFF4
FFDC
FFF5
001E
002B
FFFB
FFDB
003E
0010
000B
0019
0019
0008
000A
FFEB
FFD8
FFF1
FFEA
FFF6
000D
001C
FFBF
FFDA
0007
FFFA
002F
000B
FFBC
003A
0001
000A
FFD9
FFD9
0004
FFD4
0010
003C
FFDF
0005
0005
0027
0007
0009
FFE0
0025
0012
FFD7
0005
FFF4
0014
002D
0007
000A
0005
FFF1
001B
FFE9
FFFD
FFFE
002E
000F
0061
0022
FFE4
0010
0002
000D
FFE7
FFC5
0008
0014
FFED
0001
FFEA
FFE4
FFEA
0010
FFEF
FFEB
003C
0022
000A
FFEA
001E
0001
FFDA
001E
0007
FFD2
0003
0001
FFD6
0018
0010
FFDA
FFE0
0026
FFF4
FFF0
000E
0023
0017
FFFE
FFD0
0007
0002
001C
0001
FFFA
FFFA
FFFC
000F
FFF3
FFE1
FFD3
FFFB
FFE4
001A
FFFF
0009
0016
0010
000F
FFF2
FFF4
002B
FFEF
0012
0000
000B
0006
FFF5
0011
0001
001E
FFD9
FFF2
FFDF
FFE9
FFF0
FFFF
FFE8
FFFD
FFDA
0020
0016
0006
0008
0000
FFF7
FFF8
0000
000C
FFFB
0001
FFDF
0012
0006
FFFE
FFF6
FFFB
000B
0006
000A
FFFB
FFF1
000C
FFFF
FFFB
FFFD
0011
FFF1
FFFB
0015
FFEF
0005
0007
FFEF
FFF8
0010
0001
0007
FFF6
0015
FFFC
0001
0002
0001
FFF9
001A
FFFD
0005
FFF0
000C
FFF5
FFFF
FFEC
FFFB
0004
FFF5
0007
FFF2
FFF8
FFF3
0004
FFF8
FFFF
000D
0001
FFFC
FFEF
0005
001A
FFFB
FFF8
FFFE
0012
0005
0003
001B
FFFB
FFDF
FFF2
FFF9
FFE5
000B
FFFE
FFF0
001B
FFEF
000D
0011
0013
001C
FFFD
FFFF
0002
0009
001D
FFF5
FFFD
0001
0013
0007
000A
FFFC
FFFC
FFE6
0008
FFEA
0000
0002
000D
0010
0002
0003
0009
FFEC
FFF5
0004
FFE6
FFF7
FFF1
0015
FFFD
0000
000A
FFE2
FFEC
0003
0012
0019
0005
FFF3
FFF7
FFFD
0015
0003
0003
FFFB
0001
0007
0004
0006
0001
0007
FFFA
FFFA
FFE7
0005
0003
0000
0022
0004
FFFD
0000
0004
001B
FFF9
FFFC
0008
0011
FFFB
FFFD
FFF6
FFFD
0005
FFF2
0005
FFF0
0013
FFF0
FFF4
FFF0
0002
0016
FFFE
001D
0005
FFFC
FFF5
FFFC
FFF2
0009
0001
FFFB
FFFB
000C
FFFA
FFFF
FFF9
FFF4
FFFC
FFF8
0006
000B
000D
FFFE
000A
0011
FFFC
0018
0028
0025
000C
FFF8
FFF3
0015
FFF7
FFFB
000B
FFE2
FFFB
001F
FFF0
0013
000F
0002
0001
000F
FFF0
0021
0000
000C
FFEF
FFF6
0009
002B
0004
FFE6
FFF5
000B
FFF2
FFF5
FFEF
FFEF
000D
FFF9
0020
0005
0013
000F
000F
0029
FFFD
FFFE
0003
FFFE
FFFB
0008
FFF7
001E
000C
FFF0
FFF4
000A
FFE9
FFF2
0016
FFF4
0010
000E
FFFD
0013
001B
0011
0012
0010
0003
FFF8
FFEA
FFFC
0004
FFFB
FFF7
FFE6
001A
0013
FFF1
0010
000F
FFF0
0004
0005
0013
0010
FFF4
FFFD
FFF8
FFD1
0010
002B
0003
FFEA
0007
0013
FFFB
FFF9
FFFF
FFF4
0006
0002
0033
FFFF
000B
0026
0014
0011
000C
FFF1
0007
0001
0009
000C
0008
000C
FFFE
FFEE
FFFE
0004
FFF6
FFF5
0009
FFE4
0018
0002
0004
001A
FFEA
FFD3
FFF4
0033
0007
0026
FFEF
FFF7
0013
FFF4
FFE9
FFFB
0010
0017
FFFF
FFFC
FFF4
001A
FFF2
FFEA
0010
000A
0002
FFC6
FFEE
0029
FFE8
0008
FFE0
FFD6
FFDA
001F
FFEA
0012
0028
0017
0020
FFF2
0006
FFF8
0027
FFFF
FFF5
0000
FFF0
0028
FFEC
FFCD
FFAE
FFE0
FFE4
0002
0017
FFDA
001B
FFD8
FFCE
FFD7
0026
0009
0022
0010
0017
0001
0004
FFFD
FFDC
0005
0014
FFF6
FFF7
0000
0005
0001
FFFB
002D
FFF7
0020
0015
000B
FFE4
FFFC
0008
000A
0000
FFE7
FFFF
FFF0
FFE5
0022
0005
FFD8
FFF2
FFE5
FFEE
0026
0016
FFEB
001E
002C
0008
FFFC
FFEE
FFFC
0006
FFE2
FFED
FFEC
FFEC
FFEC
FFE8
FFF9
FFE7
FFDA
FFC9
FFF3
0025
FFF6
0041
FFE3
FFFD
FFEE
0016
FFFC
FFE4
FFE1
0024
FFFB
FFEA
FFC8
0008
FFE5
0016
000F
0021
FFD2
0007
0016
0027
FFF7
FFE2
FFFC
FFF0
FFE0
002D
FFF3
FFEF
000C
FFCA
0018
0038
FFFB
FFFE
0026
FFCF
0002
001B
002A
0009
FFF0
FFEE
0007
FFF0
0003
FFF3
FFF0
FFE2
000D
0012
FFFE
FFFE
FFF6
0001
003E
001D
FFE4
FFE7
0018
0019
FFE4
FFDA
FFF0
FFC2
0014
0000
0006
FFFF
0032
0019
002A
0012
0016
FFEF
0004
0004
000E
FFF4
0006
FFF3
FFE7
000C
0012
0000
FFD5
0002
FFFC
FFF0
0019
FFF7
FFD7
0006
000C
001A
FFF7
0006
FFEF
000A
0006
0002
0006
FFF2
0009
FFF9
0005
FFE6
0009
FFE6
001A
FFF1
0004
0008
FFFF
FFFD
000E
0003
FFF7
000A
0011
0012
FFEC
FFF6
000A
000B
000D
FFF9
FFF1
FFE5
0009
000A
FFE7
FFEE
000D
0021
0019
FFBB
FFF8
0010
FFE4
001F
0009
000C
0036
FFFE
0021
FFD2
FFE5
0020
0015
000C
001B
FFD9
FFDD
FFE3
0043
FFB9
FFE7
FFBF
001C
FFEA
FFEB
FFF8
004B
FFEE
000C
FFF9
0016
