000E
FFFF
FFED
0001
FFDC
FFC7
FFF3
FFE8
FFF8
002A
0047
0008
FFF8
000F
FFE3
FFF1
0013
FFF1
001B
FFD9
FFF8
FFD5
FFEA
FFE4
FFFC
002D
FFEA
FFF7
0019
FFFF
FFF7
FFE4
0031
FFB1
0054
FFCF
FFFB
FFE3
0006
000A
FFD9
FFDC
FFE3
FFDE
FFF7
FFEF
FFF2
0013
FFFF
0026
0021
000C
FFD7
FFEB
0001
0039
000B
001F
0006
0021
FFED
0012
FFC7
FFF8
