FF89
005A
007A
FF8F
0094
00AF
00A4
00A3
0035
FFC5
FF66
0019
FFAB
0098
0069
FFD8
FFD2
FFA2
FF92
FF88
FF90
007E
FFAD
FF94
FFAF
FFB7
0000
FF8F
FF97
000E
FFFD
006F
FF82
0094
0084
FFB1
FFA5
FFB4
00B4
0080
008F
FFA5
FFBD
FFFF
007D
0064
FFB7
FFD9
FF80
003C
0060
0060
FFB8
FF86
00A0
FF74
FF58
0064
0026
FFBB
00A4
FF74
FF94
FF7E
0044
FF54
FFAF
007C
0065
0046
FFA6
0012
00C7
0053
FFFA
FFB2
005E
FF72
008C
0069
FFC4
FFBB
FF88
008D
008F
0098
FF95
FFCB
FF92
007B
FF37
0016
FFEA
008D
0079
FFB9
0087
FF7B
FF9B
0066
FF98
FF7E
008C
004D
FF7B
008F
0068
FF9A
FF92
FFBE
0089
FFAF
0043
FFD8
FFC5
FFF0
0079
0008
003F
00A8
0087
FF89
FFAD
0077
FFB6
FFD5
003B
0069
00A0
FFB4
009F
FF8F
FFDE
FFA4
FFDE
FF9B
FFA0
FF9B
0021
FFA6
00A8
0072
FFB5
00A1
FF8A
FF5B
0082
0090
0056
007C
005C
FFB6
0095
0013
001E
FF7A
FF6B
0075
FFCE
FFC9
0009
FF64
FF5B
FF50
0059
0047
0062
005E
0010
FF91
0009
0089
001A
0048
FF9B
FF7E
002D
0010
0091
FFD6
0093
FFA3
FF89
FF86
008D
FFCC
0098
FFB3
0088
FF9B
FF92
0020
FF8E
FF58
0038
0074
008B
008F
FFD9
0055
001D
FFC1
FF98
FF9C
FF95
FFCF
0087
009E
00BB
FFF9
FFC6
FFC2
FF87
FF91
0070
0059
001E
FF57
FF83
008C
FF4B
FF78
002A
0088
00A7
FF80
FF92
FFFA
003C
00B5
FF6C
FFBD
005C
0093
FF7A
0053
FFDA
FF80
00B6
0031
FF8B
FFA8
0092
FF99
FFA7
0068
0094
009F
FFCF
FFBA
005B
FFD0
002B
0028
0083
009C
0041
0039
00AB
FFC8
FF88
FFB2
FFE5
FFE0
0075
FF96
0068
FF46
004D
FF85
FFDF
FFC3
FF64
0091
0088
0087
0063
FFE0
008A
000D
FFA6
0056
0069
FF96
FFD5
0044
FF7F
0053
003D
FFF8
FFB3
006B
009F
0053
0064
0017
004E
FF6A
FF6F
0083
009A
007A
FF49
FF7F
FFA9
007A
0063
FFA9
FF73
FF5D
0035
FF70
FF73
0065
FFB5
0082
FF75
FFF0
0074
FF80
FFCF
0067
FFC4
0097
0025
0047
005F
FF7A
0090
FF9D
FF71
00A6
0076
FFE9
003E
FF71
00B0
FF98
002B
FFF2
FF4D
FF73
FF99
FF8B
FF74
0042
00A4
FF5F
FF49
FFAE
009A
009A
FF9E
FFA7
FF6D
FFAC
0070
007E
0042
00AC
FF68
007E
00AB
FFFE
FFCF
0068
FFF4
0086
FF73
006A
004B
FF95
FF89
0085
FF89
FF9C
0074
FF77
FF85
0060
0078
0063
FF61
FF77
FF99
0001
0064
FFE1
FF8C
FFDA
008D
FF7F
0012
FF99
FF9A
0077
002B
0082
007E
0075
0045
0038
FF82
0083
FF85
FF89
0001
FF91
008B
FFAD
0070
FF6C
008F
FF7C
FFAC
0052
FF83
FF91
006A
0089
008E
004A
FF9E
005B
FF55
008E
0086
FF65
FF97
005F
FF90
005A
FF5C
FFFD
FF79
0007
FF9D
007F
0097
0090
0062
008E
FFA2
FF72
0037
FF63
0073
FFAF
0058
FF73
0047
000E
FF5B
FF9C
0057
0069
FFFF
FF88
FF7C
00A7
FF76
FF99
004F
FF5C
0078
0087
0089
FF7C
FF8B
FF87
006A
FF93
00AF
FFA8
FF9A
0072
007A
FF70
006D
00B0
FFE0
FF99
00A2
FF6E
00AE
FF97
FFF3
0071
0078
FF8C
FF98
0011
FFAC
FFA7
FFE5
FFDA
FF69
0059
0082
FF80
FFE5
00C1
FF8D
0017
FF88
0088
0003
0023
00B1
003F
001A
0082
FF85
FFA2
FF74
0095
0012
002E
FF95
FF8A
0006
FF79
FF8B
0027
009F
0076
FF59
FF89
FFF8
FF97
0060
FF90
FFA2
FF9B
00A1
007F
0084
FF9A
FF90
FFBB
00AE
FFEC
0048
0056
0025
FFBD
0076
FFAC
0086
0058
FF7A
FF8D
FF5E
0037
FF93
0057
0059
0058
0052
0064
007A
007A
0025
FF6E
FF6E
FF59
004A
FF57
0077
FF56
FF6A
0067
0083
007F
FFD3
0072
001A
FFC9
0066
FFC8
0098
005D
FF88
008A
FFB8
FFA5
0025
FFE2
FF9E
FFE1
008C
0022
FFAF
0076
0038
FFB4
FFB4
FFBE
FF9D
0061
FFBA
0039
FF61
002B
FF84
FF90
00BD
00BD
FF52
005C
FF6E
005D
0024
003D
0091
0037
0097
008C
FF85
00AE
FFAA
FF90
0084
FF6C
0061
00A0
FFB1
FFA7
0085
0049
FF62
FF42
000C
004C
FFA7
004E
0074
FFA2
FF59
FF61
FF5D
FFE6
0083
0047
005C
00A5
FF62
FFC0
FF81
FFD8
009F
0067
0079
0076
FF68
FF86
009D
FF89
004C
FF9A
FFCD
008C
FF8A
0053
0068
0066
002F
FFD1
FF5D
FF53
FFAC
FF54
FFFE
0078
FFE7
FF83
FFA5
FFA4
FFC6
006F
FFA7
FFD7
FF90
005A
000C
FFD7
FF92
001F
007D
0003
FF85
003A
0021
0068
FFB5
00C9
009F
FF79
FF69
0058
FF96
FF70
007D
005F
FFAB
0090
0068
FF7B
FF64
FF7A
0056
FF75
FFC2
FFB4
004E
FFAF
0094
008C
005C
0081
FFBF
001A
0044
0073
0065
007F
0018
0036
009E
0026
FFAF
FFC2
FF9C
0076
0045
002B
FF8C
0004
FF77
FF6F
FF7D
FFDA
008A
FFFF
FF74
0060
FF6B
008B
00AD
005C
0008
0025
FF63
0062
FF97
009D
0087
FF8D
FFB1
FFDE
007E
FF82
FFC6
0091
FFDE
FF7C
FFF1
FF5E
FF6C
0028
FF9B
FF5C
003D
0083
0098
0068
0082
006F
FF34
005F
0090
005A
003A
FFA0
FF95
FF85
FFC0
FF5B
FF72
0074
0099
FF9E
FF91
FF76
00A1
00B7
FFA7
FFA2
0098
0096
FFB0
FF9A
008C
FF92
FF8D
FFBB
0074
00A7
009B
FF85
FF85
FFDA
0087
FFA4
FF9B
FFB6
FFB2
001A
006A
FF5F
FFFF
FFE9
009A
FF94
0075
005E
FF7E
0075
0066
008F
FF86
FF94
FFA3
0049
002A
FF8F
FF7C
004D
0015
FFD3
FFAA
0050
FF80
00AA
FF80
0075
FF8D
FFED
FF9C
FFD6
003D
FF98
FF8F
FF81
008E
00A6
0099
FFA4
FFAB
00A2
008A
FFA6
0082
FF9D
FF76
FF90
008D
0032
FF76
000C
009F
FF59
0019
0014
0051
0014
0094
0051
0043
FF7E
0088
FF84
FF7B
006A
003A
FFC7
FF47
FFFC
FF7F
00AC
0047
FF66
0050
0065
FFA5
FFC0
FF73
FFAF
005A
00B3
0071
FFF9
0092
0071
FF96
FF5B
FFE1
002F
0006
0055
FF47
FF6E
003D
FF61
002F
0057
FF77
FF67
FFB2
0084
002D
FFBF
006F
FFAE
FFB7
FFA6
FFD1
FF8C
004F
0080
0074
002E
0051
FFAD
FF77
0066
0068
FF8D
0023
FF85
0053
FF72
FF80
003E
FFC8
FF62
004E
0056
0068
0016
0059
0079
FF4C
0073
0056
FF7E
FF6C
FF96
0062
0062
005F
FF69
FF81
009A
FFB0
FF6B
00AE
0090
0010
FF9B
004D
FF90
FFE8
FF7A
0078
FFAF
FF9C
FFAF
0029
FF99
0077
005C
009B
009E
FF62
0031
0054
0066
0026
0062
0078
0077
0040
0013
000A
FF3A
FFDA
0031
006F
0068
0046
FF54
FF87
0048
FFFE
FF5A
0049
FF4B
FF85
FFAB
FFB8
0039
FFC4
0061
00AA
00AE
00A6
0062
0032
FF96
FF8C
FFC0
009B
FF94
0039
FFA1
FFA8
002B
0077
0078
FFD8
FFB7
FFFB
0074
008F
FFB7
007E
00B5
0011
FFE4
0056
FFBA
0038
FF29
002B
FF33
0037
005B
FF6E
FF5F
0083
FF5B
FFEC
0042
FF74
006C
0046
FFC6
008A
0076
004B
003A
FFCF
FFEC
008F
FF5B
FFCA
FF30
FFFE
006B
FF67
0046
FF71
0050
0038
FF7D
FFCB
FFE7
0084
006C
0094
0035
0026
002C
FFEC
FF98
FF5C
009D
FF6A
0070
007C
FF92
FF57
FFFE
FFAB
FF72
000C
004B
FFF6
0023
0086
0089
FF8D
0062
0089
FF71
FF74
0093
FFFB
FF94
006C
0058
006D
FF8C
FFB9
005F
00A6
FF73
0034
001E
FFB5
006F
0087
FFB5
FFB1
FF8B
0061
006B
0079
FF5B
FF58
FFE6
FF8C
0015
0005
FF6E
0001
00B0
00A6
0011
FF7B
FF6C
0089
FFD1
00B0
0011
0093
FFC0
FFD7
FF82
003F
002D
0077
FFE3
FF3F
0001
0073
FFA6
0041
0046
001F
FF9E
FFF7
005D
006C
FF35
0035
FF82
FF59
0059
0061
FFA6
FFC2
FFFA
0014
005B
005D
0087
0027
FFB7
002E
FF87
FF58
FF5F
001C
0061
FFB6
003F
0019
003E
FF76
FF89
FF07
004F
0035
0071
0047
0073
0046
003F
0005
0080
FF8F
FF68
0032
FF7B
FFCF
0035
FF34
0077
FF84
0065
0021
0035
008D
0070
FF72
0045
FF3E
0090
FF88
0060
0089
FFE9
007F
FF92
FF38
0061
006D
0009
006E
0068
0060
FF3E
FF92
005D
006D
FF70
005A
FFF6
FF71
007D
007A
FF88
FF6D
FF71
0057
0055
003E
009E
FF7E
0075
00DC
005D
FF3D
0027
FFAF
FF4A
FF5C
FF80
FFD8
FF81
006C
FFD9
FF5F
001A
0074
00B5
0067
0058
006B
FF6C
0059
FFBA
FFAD
FFB8
006D
FFA6
008B
0097
0098
FFAB
FF9D
0084
0011
FFA6
FFDB
FF9B
FFA8
FFD2
FF6E
FF99
007E
00D1
FF96
00AA
0038
FF7D
0077
FF8A
006B
FF99
FFD4
0065
009D
FF84
0066
007D
0062
0066
FF78
FF80
FF75
0051
0062
FF56
FF94
FFBF
FF80
005D
FFBE
005B
FF88
FFCD
FF91
FFA5
0028
FFD6
FF77
FFDC
FF71
00A6
0093
007A
0002
004A
009B
005E
FFC9
00AF
FF87
FF88
0099
FF6F
FFB2
FF68
0091
0029
FF78
FF50
0089
FFA6
FF84
FF87
0040
004E
0043
0090
FFA8
0080
006C
0055
FF65
00A1
0052
FFAB
0087
FF8A
00C6
FFAF
FF91
FF87
002B
FF97
005E
FFF5
FF6F
005E
FF6D
008A
0036
0088
001E
FFDC
FF8D
0082
0078
FFAE
FFC9
001E
00AC
FF82
0078
0081
0069
FFF7
0090
0008
003D
FF4E
0015
FF3F
FF91
0083
008E
006F
0050
007F
FF34
008E
0085
0062
FF4C
FF5A
004E
FF60
FFD9
0075
FFCC
0069
0042
007F
FF61
FF4F
0066
FFD4
FF99
005A
0071
0060
FF6E
0003
FFB1
FFFE
FFB2
FFE0
FF4E
FFB7
0086
0080
FF70
007C
002B
0050
FFD9
0074
FF77
002C
0021
0096
0083
FF8C
FF7B
FFF0
FFAC
FF6D
008B
FF83
FF79
006A
007E
009C
FF74
005C
FF75
005D
FF9D
FFC9
0092
00C7
FFFF
FFAF
00A0
0015
FF9C
0089
0011
FFB4
FF98
FF96
0036
FFC1
00A5
FF8C
FFE7
0051
FFA5
FFBE
00A4
FFAE
FF75
0071
FFE1
0020
FFE4
FF8D
0000
0090
0063
FF87
000F
FF66
000D
FF8A
0003
FF4A
0074
FFD5
0087
0095
FFBF
0077
008A
FF45
FF84
0077
0065
001B
FF53
002C
0066
0009
0084
FFBB
FFB9
FF8A
001F
0053
003B
0081
008E
FF65
FFCD
FF66
006B
0095
