FF
00
02
FE
FD
03
FD
FD
01
01
FF
FF
FE
FB
00
FD
FA
FE
01
00
FE
04
09
FE
00
05
02
FF
FE
00
FF
FE
FC
FE
FD
FE
01
00
FE
FD
01
FB
FD
00
01
FF
00
01
01
03
FF
00
02
FF
01
FF
FF
FF
02
FF
00
FE
00
00
04
03
01
00
05
FF
00
03
04
FC
02
09
07
00
FF
09
FF
00
00
FE
FF
FE
FE
FE
FE
FE
02
FF
FF
05
09
FE
FF
04
01
02
05
03
0D
07
07
06
04
FF
FE
00
01
FD
FC
FC
FF
FB
00
01
FF
FF
01
03
01
01
FE
00
FC
FC
01
02
00
FD
FE
08
03
FF
FC
FE
FF
FF
FE
01
01
02
02
FE
FF
00
FF
01
FF
01
02
07
00
FD
04
FD
03
FE
00
05
FD
FE
00
FE
FF
00
FF
00
FF
00
05
00
05
03
FE
03
FF
01
00
02
03
00
02
03
00
00
01
FD
01
00
00
02
01
01
02
02
FE
03
00
00
02
FD
01
FF
FE
02
FF
01
FF
FB
FE
FD
FC
FF
FE
00
00
02
FF
FF
02
FD
01
00
FF
01
FD
05
02
FE
03
FF
FF
01
00
02
00
00
01
00
02
01
FD
00
00
FD
01
00
FF
02
03
03
FF
04
FF
00
FF
FE
04
FE
01
00
FC
04
FF
FC
01
FC
FF
FD
FF
FE
FF
FF
00
FE
FF
FD
00
FF
00
FF
FC
FF
FB
FC
03
01
00
01
FE
02
FF
02
04
02
02
FF
03
02
FE
FF
00
01
FE
FE
00
FC
FE
00
FE
FD
00
FF
02
01
03
04
01
01
FE
FC
00
FE
FF
02
07
05
01
FF
FC
FF
FF
00
00
02
02
01
FF
FF
FF
FF
02
00
01
02
01
FF
FE
02
03
01
01
FE
00
FF
01
06
FE
FF
02
FF
FE
FF
FD
FD
FF
00
FD
FF
FF
01
02
01
00
00
FE
FF
01
00
00
FF
FF
FE
FF
00
FF
FF
01
FE
00
01
FF
01
00
01
FF
03
04
FF
FF
FC
FD
00
FD
02
FE
FD
02
03
00
01
FF
01
01
FF
FF
00
FD
FF
01
FE
FE
FF
FE
FE
FD
FF
FD
FC
00
FF
FF
00
00
00
00
00
00
00
FF
FF
00
FF
00
00
00
00
02
01
00
FF
00
00
00
00
00
01
00
FF
00
FF
FF
00
FF
FF
00
00
01
FF
00
01
00
FF
FF
00
01
00
00
00
00
FF
00
00
00
00
00
FF
00
FF
00
00
00
01
FF
FF
00
00
FF
01
01
01
03
00
FE
01
00
FE
FF
00
FF
00
00
01
FF
00
01
00
00
FF
02
01
FF
FF
00
00
00
FF
00
02
FE
FF
01
FF
FE
00
00
FF
00
00
00
FF
FF
FF
00
00
00
FE
00
01
00
FE
00
00
FF
00
02
01
FF
00
02
01
FF
00
00
00
01
01
FF
FF
00
00
00
00
00
FE
00
FD
FD
FD
00
FF
FF
00
FD
00
FE
02
01
01
04
02
01
02
00
00
01
00
FC
FF
FE
02
FF
FE
FE
00
00
FF
01
01
03
02
FF
06
06
01
06
09
03
03
03
FF
03
04
01
02
03
01
01
FF
FE
FF
FE
00
FE
FE
00
02
FD
00
01
FD
FC
02
FF
FC
05
01
FD
FE
FE
FC
FB
FA
FB
FF
01
FF
00
02
01
03
07
02
02
02
01
FF
FE
FE
FC
FD
FE
03
FF
FF
FC
FC
FD
F8
FA
FC
00
01
00
02
04
01
05
07
02
FE
FE
FE
FC
FB
00
FD
FD
FF
06
03
FE
06
03
FE
05
03
FF
FE
00
FF
FF
00
FF
00
00
00
01
FF
FF
01
FE
FD
02
00
00
02
FE
FE
01
FE
FE
01
00
02
00
00
01
FF
FF
00
00
01
01
03
FF
FD
02
FF
FF
01
00
01
03
FF
FE
02
00
FF
02
02
03
03
02
01
03
01
02
02
01
04
01
FF
FE
01
FF
FE
01
00
FF
01
FA
FD
01
FC
FA
04
FF
FE
04
FE
FE
00
FD
00
01
00
02
02
01
00
01
FF
00
01
01
03
01
01
01
00
FF
01
01
01
02
00
FC
FF
03
FD
FE
05
00
01
02
FF
FD
03
00
FE
01
01
03
FF
FE
00
FF
FC
FD
02
FE
FE
03
02
00
01
FF
FE
01
01
FF
00
FF
FF
FE
FE
FD
00
FE
FD
FE
FC
00
FC
FD
00
FE
FF
01
01
FF
FE
FE
00
00
00
01
02
00
01
01
00
FF
FF
02
FF
FF
00
FF
00
00
00
02
01
02
01
04
04
00
02
03
FF
05
03
00
06
08
03
06
05
01
05
04
01
FF
FD
00
FE
FD
02
FF
FF
FF
FE
FA
00
FB
FA
00
FD
FE
03
01
01
01
01
FD
FF
03
FF
FE
03
01
FF
01
02
01
02
01
02
02
03
04
02
03
01
04
02
00
00
00
01
00
FE
FF
01
FE
00
02
04
00
00
02
01
02
05
01
FF
FB
00
FC
FC
02
FD
FC
01
02
01
01
00
FD
FD
00
FF
FE
FD
FD
FF
FB
FC
FF
FE
FE
FD
FE
01
00
FE
FF
00
FE
FD
03
00
02
08
FD
00
03
00
00
04
01
FE
FF
02
FF
01
00
00
FD
04
FE
05
01
FE
08
01
FF
03
FF
FF
FF
FD
FC
00
FD
FE
02
03
FF
00
01
FE
01
00
FC
FF
04
01
02
03
00
03
01
00
00
FF
FB
FD
FD
FE
FE
FE
FE
02
03
FC
04
01
FD
08
00
FD
03
FF
04
FF
FE
00
01
FE
01
00
04
FF
02
02
FE
04
03
FE
FF
FF
02
04
FC
03
07
FD
00
04
00
FD
05
FF
FE
02
01
00
03
00
06
FF
FF
04
02
FE
02
FF
00
FE
FC
FE
FB
00
FE
FE
01
01
FD
FE
FF
FC
FF
FF
FE
FF
01
02
01
02
00
FF
00
FE
00
03
01
FF
04
FF
02
04
02
04
00
FE
FF
FD
00
00
FC
00
FF
04
01
00
03
00
01
02
01
02
01
FE
FC
04
FF
01
05
06
08
01
FD
FC
02
FE
FE
01
02
02
03
01
01
02
00
00
01
00
00
00
FF
FE
01
FF
FD
FF
FE
FF
00
FB
FD
FD
FB
FE
FF
FE
FE
03
00
FF
04
00
02
01
04
05
00
FD
FD
FF
FC
FF
FE
FE
00
00
FC
FE
FF
FC
FE
FD
FD
FE
03
FF
FD
04
01
00
04
08
05
01
00
00
01
FF
FE
FE
FE
FE
FF
FD
FD
01
00
00
02
02
02
01
01
02
FF
FF
00
FE
00
00
01
01
01
00
00
01
01
01
01
FF
FF
00
FE
00
02
FF
02
02
01
FF
FF
00
FE
FF
02
01
01
01
FF
FE
FE
FE
02
FE
03
04
FF
FD
FE
FD
FB
FE
FD
FF
02
FF
FE
FE
FF
FD
00
FF
FF
03
01
00
00
00
00
00
00
01
02
03
01
02
01
01
01
02
01
00
00
FE
FF
00
FE
00
02
04
02
00
FE
FF
FE
FD
00
FE
FF
02
01
FE
FE
01
FE
FF
01
02
03
00
FF
FE
02
FF
00
03
03
01
FF
FE
FE
FC
FD
01
FE
02
02
02
00
FF
02
00
00
02
01
01
FF
FF
00
FC
FD
FF
00
00
00
00
00
01
FF
00
00
FF
00
01
04
03
01
01
01
00
01
02
02
02
03
02
01
02
01
03
04
03
00
FD
02
FF
FD
00
01
01
00
FE
FD
03
FF
02
03
00
02
00
00
FC
00
F9
FB
01
00
02
00
FE
FB
FF
FC
FB
FF
FF
FF
01
00
FF
03
02
02
02
02
02
00
01
02
02
00
FE
FE
04
01
00
FE
FC
02
FD
FC
00
02
01
FD
03
FF
FF
FC
FE
04
00
02
03
00
FD
00
FE
FB
FE
01
FF
00
FE
FC
01
FE
FC
00
01
00
00
FE
01
02
FD
FD
FE
01
01
FF
04
FF
02
02
00
04
04
01
03
02
01
00
FB
FA
FF
01
01
00
01
03
05
FF
01
02
00
FE
FE
FC
FF
00
01
03
02
02
02
FF
02
01
03
05
05
02
03
01
FF
FC
FF
00
FE
FB
FF
01
FC
FE
02
03
00
03
03
01
04
01
FE
03
07
03
04
00
FE
FE
F9
FD
FF
01
FE
FF
FC
FC
02
FB
FD
01
01
01
02
01
00
04
02
FF
FD
FD
FF
FD
00
00
01
00
03
FC
FE
00
FE
F9
FF
02
FA
FD
03
03
01
04
03
FF
00
FD
FE
FC
FF
FF
00
FC
FE
04
FC
FD
FC
FD
02
FE
FB
FF
02
FE
FF
05
05
FF
02
03
00
03
FD
FC
FF
00
03
03
00
00
04
00
00
FE
01
FE
FD
FE
00
FD
FC
FE
01
03
00
FE
FF
01
00
01
02
FF
00
02
00
02
01
FF
01
03
06
03
02
FF
00
00
FD
FE
02
00
FE
FE
FF
FD
00
FF
FE
01
03
07
01
04
FF
00
04
FE
FF
FD
05
04
FE
FB
FC
FE
FF
01
01
00
FE
00
FE
FF
00
FE
FF
01
04
01
02
00
00
03
FF
FE
00
FE
00
FF
00
FF
FF
00
02
01
FF
FF
01
FD
01
00
FC
03
FD
04
02
FE
00
FD
00
02
01
03
01
FF
02
FE
FF
01
FE
00
01
FE
03
FD
00
02
FD
01
02
04
04
01
01
FC
FE
00
FB
FE
FC
04
01
01
02
FF
00
01
FD
FE
FD
FF
FD
FC
FF
FD
FE
02
FF
01
00
FF
FE
FF
00
FD
FD
FE
FD
FF
00
00
00
FF
00
FF
FD
FD
FF
FF
00
01
FF
FF
00
03
01
00
FE
FE
00
01
FF
00
FC
FE
00
FE
FD
FF
02
FE
01
05
05
03
00
04
05
FE
FE
FF
02
04
03
FF
01
01
FF
FF
01
FD
FC
FF
FF
FD
FF
02
00
01
FF
02
02
00
01
00
FF
FF
FE
01
FE
FE
FF
FE
FF
01
FF
02
01
FF
00
FF
02
01
FE
FF
FF
01
00
FF
FF
FF
00
01
FF
01
FF
FF
FF
FE
FE
FD
FE
02
01
FF
03
01
FE
00
03
00
FD
FF
FF
FC
FE
FF
FD
FD
02
01
01
07
03
01
01
05
03
FF
FD
00
02
00
FF
00
FF
00
01
FF
01
FF
FE
FD
01
01
FF
03
00
FF
01
FE
FC
FF
04
FF
03
01
FF
00
00
02
01
FE
FF
04
01
02
06
00
FE
03
FE
FD
FF
02
01
02
02
03
00
FE
FE
00
FF
03
FF
FF
01
01
FF
03
01
01
04
03
FE
FE
05
FC
FD
01
00
00
00
FD
FD
FE
FD
FD
FE
FD
FE
01
FF
00
FF
00
00
02
02
05
01
03
01
05
01
FE
02
FE
01
00
FE
01
FF
00
01
03
03
05
FE
FF
FE
02
01
FF
01
02
03
03
00
FE
FD
01
FE
FE
01
02
04
FF
FE
07
FE
FC
02
FC
FE
FE
00
01
FD
00
00
02
FE
02
02
FE
FF
01
FB
FC
FD
FC
FE
FD
FD
FF
00
02
01
06
06
02
FD
FC
FD
FD
FE
FF
02
05
04
02
FF
FF
05
03
01
FF
FF
FF
01
FD
FE
00
FC
FC
FD
00
02
01
02
03
FF
00
00
FE
FE
FF
FD
FD
00
FF
FF
00
02
00
03
03
FD
FF
02
FD
FD
FE
FD
01
FD
FE
00
FB
FD
FF
04
05
04
03
FA
FD
06
FF
FF
02
00
FF
00
02
01
01
00
00
03
FE
FE
01
FD
FD
01
01
00
00
02
02
FD
FE
01
03
FF
FF
05
FE
FC
02
00
00
FA
FA
FD
FD
02
05
01
FF
01
02
00
FE
01
FA
FC
FD
FC
FD
01
FF
00
04
04
02
03
01
00
01
FE
FD
FA
FC
01
FF
FD
01
FD
FC
01
01
FE
FF
FE
FC
FE
00
FD
01
01
01
00
00
01
01
01
03
02
FF
02
00
FD
FC
FE
00
FE
FF
FF
FF
01
FE
FD
FF
07
05
FF
02
02
00
01
01
00
03
06
02
FE
03
02
FD
FC
00
FF
FE
00
FF
FF
02
FD
FE
02
FF
FE
01
01
FE
01
00
01
00
01
05
05
00
04
02
00
FE
FE
02
FF
FF
02
01
FF
FF
01
00
02
05
03
FE
03
02
01
FF
FE
03
05
02
FF
03
03
FC
FC
FD
02
FE
FF
02
01
FF
FF
FC
00
FE
FC
00
00
FE
01
02
00
00
00
01
01
05
05
00
FE
FB
FE
01
FD
FD
01
FF
00
FF
02
FF
02
00
FF
03
FF
00
FD
04
02
04
04
FB
04
FF
FC
FF
FF
FF
FF
FF
00
01
FF
FF
FD
FD
02
FC
06
04
FE
05
FF
01
FC
FE
FE
FD
00
FF
FF
02
00
FE
00
00
FF
00
FD
FF
00
00
FD
02
FD
02
03
FD
03
01
FC
00
01
FF
FD
FE
01
FF
FF
FF
FF
FF
FF
03
FE
00
02
FC
03
00
FF
04
FE
03
00
FD
03
FF
00
00
00
03
01
FF
00
00
03
01
FF
09
FF
FD
05
FF
01
FB
00
01
FE
05
FF
01
01
FC
06
FF
00
07
FD
01
04
FF
05
FE
FF
00
FE
FE
FF
FF
FC
00
00
FF
00
FC
00
02
FE
00
00
FF
01
01
FE
FE
00
00
FF
FF
FF
00
01
FD
FD
01
FF
FD
FE
02
FE
01
03
00
FD
03
02
00
02
FE
01
FF
FE
01
FF
FE
FF
03
00
01
FF
FF
00
FF
01
01
01
00
01
00
FE
01
00
FF
00
03
FE
00
02
FF
FF
FF
FF
FE
FF
02
FF
FE
00
02
FF
FC
FD
FE
01
03
01
FE
00
01
FF
00
02
00
00
FF
FF
FF
FF
01
00
02
FF
01
03
FE
00
02
00
01
FF
04
00
FC
01
03
FE
FE
00
01
FF
00
FD
FE
02
FE
FE
00
03
01
00
01
01
FE
FD
00
FF
FE
01
02
01
FD
FE
02
01
FF
02
FD
FF
01
FF
FE
00
00
FF
00
FD
FE
00
00
01
01
01
01
FF
FD
FD
00
FF
00
00
FF
00
02
03
02
FF
FD
FE
00
FF
FF
00
FE
FF
00
FD
FE
01
FF
00
03
06
03
FF
01
04
FF
FD
FF
03
05
03
FE
FF
FF
00
FD
FF
FF
FE
FE
01
FF
FE
02
00
00
02
02
01
00
01
00
01
01
01
04
03
00
FE
FD
FD
FE
FD
FF
00
FF
00
FF
FF
00
01
FF
00
02
03
FF
FF
FE
FE
00
FE
FE
01
00
FF
FE
FD
FE
00
FD
00
00
01
01
FE
FF
00
FF
FD
FD
00
FC
FF
00
FE
FE
03
01
02
04
06
01
FE
01
02
00
FE
FF
02
00
FF
02
01
01
01
01
01
01
00
00
01
FF
FF
FE
00
FF
02
FF
FD
05
00
FE
00
04
FF
FF
00
00
FF
00
00
01
00
FF
00
00
00
06
01
FF
05
00
01
FE
FD
FD
FE
01
FF
FF
00
FD
FF
00
FF
FF
02
00
01
01
01
01
01
01
02
01
00
04
FF
01
01
00
00
FE
FE
FF
FE
FD
FE
01
00
01
03
02
00
01
03
00
00
FF
FF
00
02
FE
01
01
FE
00
FF
00
03
03
01
01
02
01
03
01
FE
05
04
FE
01
04
FF
FE
FF
FD
03
00
FF
01
02
01
03
FF
00
03
02
FE
03
00
FF
FE
FF
00
FD
FE
00
00
00
FF
FF
FF
02
FE
FC
00
00
FC
00
01
FD
FF
00
FF
FF
01
00
FF
08
FF
01
06
04
01
02
03
FE
FD
00
01
FA
FF
01
FC
FF
05
04
00
FF
07
FF
00
00
01
02
03
02
01
06
05
00
FE
FB
01
02
00
FE
00
01
00
FB
FD
02
01
00
FE
03
FF
02
01
01
05
01
FE
FE
FF
FC
FF
FF
FD
00
FD
FD
01
FC
00
02
FD
03
07
03
00
FF
05
05
FF
00
FD
01
FF
FE
FF
FE
00
01
FB
00
05
FC
FC
00
FC
01
03
FE
06
05
07
00
FE
06
FF
FE
00
00
FF
00
00
FD
00
FF
02
01
FE
09
03
02
01
FD
FF
00
FB
FD
FE
01
FF
00
00
FC
FD
FE
FE
FF
01
FF
02
FF
FF
FF
FE
FF
FD
03
00
01
03
FF
FE
FE
FF
FF
FE
00
00
00
00
02
02
01
01
00
00
00
03
00
FF
01
FF
00
00
04
02
03
00
00
04
FD
FE
00
02
01
04
04
03
06
01
01
FF
FF
00
FF
FF
FF
FF
FE
FF
FC
FF
06
FC
FB
02
FC
FC
FD
FD
FE
01
02
01
01
02
01
01
04
02
00
04
00
FE
02
00
FF
FF
01
01
01
03
03
04
00
00
FF
FF
01
04
01
03
02
00
02
02
03
00
03
00
FF
03
FF
FF
03
FF
00
02
FE
00
FC
FF
FF
FF
00
02
FD
FC
FE
00
FC
FE
FF
FF
00
FC
FD
FD
FF
FF
FD
FF
00
04
FD
00
03
FD
FE
00
02
FD
02
FD
FE
03
FE
FF
00
00
02
FE
FF
00
FC
03
02
00
07
02
FD
02
FD
00
FF
00
00
02
02
00
FD
FB
FA
FE
FF
FE
03
01
FE
02
00
FD
02
01
FE
03
02
FF
02
FF
00
00
00
00
FF
FB
FF
FE
FF
04
FC
FF
03
01
03
FD
00
00
FC
03
01
00
FF
02
03
FE
FE
FC
FE
FF
FE
04
03
FE
02
02
FD
05
02
01
FE
00
00
FE
FF
02
FF
00
02
04
FE
FD
FF
FD
00
FE
00
00
FE
02
03
FF
01
00
FF
00
02
00
00
01
FD
FD
FD
FE
FD
FF
00
00
FF
FF
FE
00
FF
FF
00
