09
04
FB
0B
02
F9
09
01
F6
08
FE
F8
09
00
F5
0B
FF
F5
05
FE
F9
0C
00
F3
0B
FD
F5
0C
09
06
FD
FC
FD
F8
F8
FC
08
06
04
FD
00
01
F9
FA
F9
0B
0A
03
FB
FE
02
F8
F9
F9
0A
0A
0C
00
05
02
F7
F3
F5
07
09
06
01
05
00
F6
F4
F7
06
09
06
02
02
02
F7
F6
FA
FA
09
0A
F2
05
0C
F2
FB
09
FA
08
06
F4
03
0A
F4
FA
05
FD
05
09
F5
04
08
F4
F9
08
0E
0E
0C
0D
0A
0A
0B
09
04
08
0A
07
0A
07
06
08
07
02
0C
0A
07
09
09
08
07
07
02
F4
03
0A
F4
05
0B
FA
00
05
F7
05
08
F8
05
09
FC
01
06
F7
06
09
F7
04
09
FB
01
05
F3
F1
F6
F8
F9
06
06
0E
10
F7
F7
FA
FD
FE
06
01
0B
0C
F9
F7
FC
FB
FE
03
08
0A
0C
F9
F7
F4
FA
F6
F6
F9
F7
FC
FA
F7
F8
F8
F9
F9
F8
FA
FC
F9
F7
F7
FB
FA
F8
F8
FB
FB
