04
02
FF
04
FF
FF
04
FF
FE
03
03
01
02
00
00
01
00
00
04
03
01
02
FF
FF
00
FF
00
00
FF
01
FE
FE
01
FE
FF
03
08
01
01
01
FB
FE
FD
F9
FC
01
FE
00
FE
FE
00
FD
FE
02
FE
FD
FE
FE
FE
00
FD
FE
01
FF
03
03
02
05
05
04
05
06
07
04
00
06
FF
FB
01
FB
FE
04
04
02
04
01
FD
00
FD
FD
05
05
03
05
00
FC
FE
FC
FE
FD
FE
03
FC
FF
03
FF
03
02
09
00
FD
00
F7
FF
F9
FE
06
FF
FD
00
FC
FF
06
FF
05
06
FE
FE
03
FD
06
0A
03
08
03
FE
02
02
04
08
02
05
04
FC
FF
05
03
FE
01
04
01
FD
01
02
FF
FF
03
01
FE
01
05
03
02
FE
FF
03
01
FD
02
06
03
06
01
00
07
05
FF
02
08
04
01
01
FD
FD
03
FF
FD
FE
03
03
00
FE
05
02
FE
01
05
01
FE
FE
FF
FD
FE
00
00
FF
00
FA
FD
FF
FF
FC
FE
02
FE
FC
01
FD
FD
FE
FD
03
FD
01
05
01
FE
FC
FD
FD
00
FE
01
03
01
FD
FC
FC
FD
02
FE
02
04
FF
03
01
03
05
FF
04
01
FE
FC
FA
04
F7
00
04
FC
04
01
FE
03
04
02
08
02
06
03
FF
FF
08
06
06
06
FF
07
02
FD
05
04
FF
08
FF
FB
04
FC
FF
00
FE
01
FE
02
05
02
00
00
FE
FF
01
04
06
05
06
08
07
FE
FF
01
07
08
06
08
09
08
FE
FC
FF
02
02
FE
FE
01
01
FD
FB
FB
07
08
01
02
FD
FC
FD
FF
00
03
00
FC
00
FF
FF
0C
0F
0B
03
04
04
01
01
03
03
03
00
FD
F9
FB
01
01
FF
04
00
01
03
03
02
03
05
05
04
07
04
FF
FF
01
06
07
03
05
07
05
FF
FE
00
08
06
04
04
06
04
04
FF
02
05
04
03
FC
FD
FF
FF
FE
FC
02
01
FD
01
04
02
01
00
02
05
01
01
02
00
FF
09
06
02
FF
00
04
FE
FD
FE
FF
FE
FE
FE
FB
FC
FE
FD
00
FD
FE
03
FE
00
05
FF
FD
FE
FD
FE
FF
FE
FF
00
FE
FC
FE
FD
FE
FF
FE
00
00
05
02
FC
04
02
FC
05
FF
FC
FB
01
02
FD
03
03
FE
04
01
03
03
FF
05
03
FE
05
01
FC
03
02
FE
04
FF
FB
03
FE
FD
04
01
00
03
FF
01
02
FF
03
02
FE
FD
03
00
FF
03
02
00
02
02
03
FE
FF
01
FE
FD
FE
00
02
03
FD
FE
01
FD
FC
FC
00
01
03
FE
FE
FF
00
FD
FF
FD
FC
00
FF
FC
FC
07
04
FF
FE
FF
01
FD
FD
FE
01
FE
FF
00
FD
FD
03
01
00
02
04
06
08
09
07
06
07
0A
04
07
09
04
FF
04
07
FE
02
08
01
FE
01
01
FF
FE
02
01
FC
00
05
00
02
FE
FE
03
01
FB
01
05
06
0C
00
01
0F
05
FD
08
09
FA
00
02
FC
FE
05
02
F9
01
03
07
00
FF
0A
03
FC
06
06
FD
FF
FF
FD
FE
FE
02
01
FE
01
FD
FE
03
FE
FB
02
02
FE
FD
00
05
01
05
03
05
03
FE
FE
FF
01
01
05
06
03
03
00
FD
00
03
02
06
06
05
03
FF
FF
FD
FD
FE
FD
FF
FD
FD
FF
00
03
00
05
05
FE
03
FC
FA
01
01
FE
01
FE
FD
FE
FD
00
07
06
04
00
FF
FF
00
03
04
02
FE
FE
FD
FD
FF
00
02
02
02
06
01
00
05
03
03
01
03
02
00
00
02
00
FF
00
04
01
02
FF
00
02
00
FE
00
03
01
08
01
05
0B
05
03
05
09
04
FD
01
FD
FC
FF
00
FB
00
03
04
00
04
08
02
02
05
05
02
02
01
02
FF
FF
01
01
00
01
FB
FF
01
FE
FB
00
00
FD
FD
0B
03
FF
0E
07
FD
08
09
00
FC
00
01
FC
FF
02
FD
FD
02
FB
00
01
FB
FE
02
FC
FC
03
FD
06
07
FE
03
0B
00
FE
08
00
FB
FF
06
FA
FE
0C
FE
FB
FD
04
05
FE
01
08
00
FC
06
FF
FD
00
FE
FE
01
FE
02
01
FF
01
FF
FD
02
00
FD
01
03
02
01
FE
FF
FD
FE
FE
FF
01
05
04
02
01
FF
FE
FF
02
04
05
06
03
01
FE
FE
00
04
05
FD
00
02
FE
01
00
01
01
FF
01
FB
FB
FA
FC
03
01
07
07
FC
FD
01
FE
03
05
04
05
00
FD
00
05
08
0E
0C
07
04
00
01
03
01
03
03
FC
00
FC
FB
01
04
04
02
08
04
04
08
02
FC
FD
01
FD
FE
00
FF
00
FF
FC
FD
00
FC
FE
00
FF
FE
FE
04
FC
FC
04
FC
FD
03
FC
FD
05
06
02
06
01
FF
07
03
FB
05
FE
FD
07
FE
FC
05
FD
FB
02
FC
FD
FF
FB
FC
FF
FB
FE
01
01
05
FF
00
06
FE
FF
04
FC
FF
00
FE
FB
FD
FF
FF
FE
05
02
FE
04
08
07
FD
FD
01
06
03
FE
04
09
09
FC
FC
01
06
03
FE
02
05
05
FE
FC
FF
04
05
01
FC
01
03
00
FC
FB
03
00
FD
00
02
00
FD
FD
FF
FC
00
03
FF
FC
FD
05
07
05
FD
FD
FC
05
01
FD
03
04
04
FC
FD
00
FB
FB
FE
FB
FB
FE
FF
FD
FE
FE
FE
FD
FF
FE
FF
FE
FD
FD
FE
FE
FD
FF
FF
FF
00
FF
FE
01
FE
FE
FF
FE
FF
02
03
04
04
07
05
04
06
08
00
FF
FF
01
00
FF
00
00
00
01
02
02
01
FF
FF
FF
FD
FD
03
03
01
03
01
01
02
01
FE
