FF 01 01 FF 02 01 00 00 FD FF 01 03 FE 01 02 00 01 FF 01 02 FF FD 01 01 FF 00 00 FF FD 03 01 FE 00 01 00 FF 03 01 00 FF 00 00 03 01 FE FF 00 02 00 00 00 00 FE 00 00 FE 00 00 00 FD 00 FF 02 FF 03 01 FF 01 00 01 00 FD FE FF FF 01 FE FF 01 01 00 01 01 00 02 00 00 03 01 FF 00 FE 02 01 01 FD 02 FF 01 FE FF 01 00 00 01 FE 03 01 FF 02 FF 00 01 00 01 00 FF 03 03 FE FE FF FE FF 02 01 FF FF FF 00 00 FF 00 01 FF 01 FF 00 01 01 01 00 00 FE 00 01 02 00 FF FF 00 00 01 FF 01 FF 01 00 FF 00 00 FF 01 FE 01 00 01 02 01 FE FF 01 00 FF 02 00 03 00 00 02 00 00 02 00 FF FF FF 01 FF 00 00 00 FE FF FE 01 01 01 FF 00 FF 02 FF 02 01 FF 00 FF FF 02 00 01 00 FE FE FF 02 00 00 00 01 01 FF FE FF FD 00 FE FF FE 02 01 00 FE FF FE 00 02 01 02 01 01 FF 01 FF 01 02 00 FE 01 FF 00 00 FF 01 01 FD 00 01 01 02 FE FE FE FF 01 01 02 FF 02 01 00 01 01 00 01 FD FF FE FF 00 04 FD FF 01 01 00 01 FE 01 FF 01 01 01 01 02 00 01 FE FD FE 01 00 01 00 00 02 FF FF FD 00 03 02 00 01 00 FF FD FE 00 01 01 01 00 01 FF FF 01 00 FE 02 01 FF 02 00 FF 02 00 00 01 FF 01 00 01 00 01 FF FE 01 00 FF 03 00 01 FF 01 01 02 FE 00 01 FF 00 FF FC FE 00 03 01 FC 00 01 FF 01 FE 02 01 01 01 FF FF 01 00 FF 00 FF 02 00 FF 02 FF 02 FE 00 FF 00 00 01 FF 01 00 01 FF FF 02 04 04 02 FE FF 02 FF 03 FF FC 01 00 02 00 00 02 03 02 00 01 FF 00 01 FE 00 01 FE 02 00 FF FF 01 04 02 FF 00 FD FF FF 02 01 00 FE FC 00 01 00 02 01 FF 01 00 03 FF 00 00 00 00 FD FF 00 02 02 FE FD FF FF FE 00 00 FE 01 01 FE 00 00 FE 01 FE FF FD 01 01 01 FE FE FF 01 00 03 01 02 01 01 01 FE FF 00 01 00 01 FF 02 FF FF 02 02 00 FC 00 05 FF FE 02 FC FF 06 FE FF 01 03 01 FF 04 FE FE 00 FD FF 00 FE FE 02 FE FF 00 FE 02 FE 02 FE 03 FF 01 FE FE 02 00 01 FF FC 02 FE 00 FE FE 03 03 FF FF 01 01 02 05 02 03 03 FE FC FD FE 04 FF FE FE 00 FF 03 01 03 FF 01 FE 02 FE FE 01 FF FF 01 FF 02 01 01 03 02 FF FF 04 FE 00 03 00 01 00 FF FF 00 FF FF FE FE 03 02 02 03 00 FE FF FE FF FE 01 02 00 FF FE FE 00 00 00 00 02 FF 02 00 00 00 02 00 01 FF FF 00 00 FE FE 01 00 00 03 FE 01 FE FF 01 03 FF 03 02 01 01 01 00 FF 01 01 FE 02 FC 03 FE 01 02 FF 01 03 02 00 01 03 00 FC 00 00 00 00 03 01 00 FE FF FD 00 FF 03 FE FF 01 FF 01 01 00 00 01 00 00 00 01 01 FF FF FF 01 FF 00 01 02 FF 00 FF 02 FF FE 00 00 FE 00 00 FF 00 02 01 02 FF FF FF 00 01 02 00 00 00 00 FE 02 FF 00 00 00 00 FE 00 00 01 01 00 FE 00 FF 00 00 00 01 00 01 FD FC FC FF 01 02 FF 03 00 01 01 FC 00 02 01 02 FC 01 00 00 FF 00 01 00 02 00 FD FF 02 02 FF 03 FF 02 01 00 01 FD 01 00 01 FF FD FF FF FF 00 00 00 01 FD 01 02 01 00 02 01 FF 02 FE FF 03 00 01 FF FF FF 02 FF 00 FE 02 00 FF 01 FE 03 01 01 01 FF 01 01 01 01 00 00 FE 02 FF FF 00 00 01 02 02 FE 02 00 00 FE FE 02 01 02 00 00 FD FE FE FE FE FE FF FF 00 00 01 FF 00 FE 01 01 FF FD 01 01 01 FF FF FF 00 00 01 FD 03 02 FE FF 01 01 00 01 01 FF 02 FF 00 01 02 FF FF 01 FE 00 01 FE 00 01 00 00 00 02 01 02 01 02 02 03 00 01 FE 00 00 FF 00 00 00 FE 01 FE FF FE 01 FE 00 00 FF 00 00 00 00 00 01 01 00 FF 00 00 01 00 FF FF 01 00 00 01 00 FF 01 00 00 00 01 00 FF 00 00 01 01 FE 00 01 00 00 FF 00 00 00 02 00 01 01 00 00 00 00 00 00 00 00 00 00 00 FF 00 01 00 FE FF FF 00 00 03 00 00 03 FF FE 02 FE 01 FF FE 00 01 00 FF 04 00 01 FD FD 01 03 FE 00 01 FF 00 00 00 FE 01 01 01 01 FF FF FF 02 FF 01 FF 01 FF FF 00 02 FE FE FE 00 02 FE 01 01 01 00 01 01 00 00 01 FF FE FF 00 01 00 00 00 00 FF 00 01 FF 01 01 00 FE 00 00 FE 03 00 FE FF 00 00 00 01 FF 00 FF 00 00 FF 01 00 00 FE 00 00 00 FF 02 00 01 00 01 00 00 00 00 01 FE 01 01 00 00 00 00 FF 00 00 00 FF FF 01 01 00 02 FE 00 00 00 00 FF 00 00 00 00 FF 00 02 00 FF 01 FF FF FF 00 00 FF 01 FF 00 00 00 00 01 00 00 00 FE 02 FE 02 FF 02 00 01 00 00 00 01 FF 00 00 FF 01 00 01 FF 00 FF 00 00 01 00 00 FE 00 00 01 FF 00 00 FF 00 01 00 00 00 00 FF 00 01 FF 01 00 00 00 00 01 01 00 00 00 00 01 00 01 FF 00 01 00 00 01 00 01 00 00 FF FF 00 00 FF 00 00 FF FE FF 00 FF 00 FF 00 00 00 01 FF 00 00 01 01 FF FF 02 FF FD 01 FF FF FF 00 01 00 FF 00 01 FD FF 01 00 02 FD FD 02 02 FF FF 03 FF 02 01 02 FD 00 FE FF FE FF 00 FD 02 00 02 FD FD FE 02 01 02 FF FF 00 01 FF 01 01 02 02 FE FE FF 02 00 00 00 FE 01 FE FF 00 FD 01 01 FF 00 01 00 01 FF FE 01 FF FD 02 FE 00 03 01 FE 00 00 FF 00 FF 00 00 00 FF 01 FE 00 FF 02 00 00 02 01 02 FE 01 FF FE FE 02 02 00 FF FE 01 FF 01 00 01 01 FF 00 00 FF 01 FF 02 FF 01 FE FF 01 FF 00 FF 01 FF 00 01 FE 00 02 FE 01 FF FF 01 00 FD FF 00 01 00 00 00 FF 01 00 FE FF FF FF 02 FE 00 00 01 00 00 00 00 01 00 00 01 00 01 01 FF 01 FE FD 00 00 01 00 00 FF FF 01 01 FF 00 00 01 FF 00 00 FF FF 01 00 00 00 01 00 00 00 00 00 00 FF 00 00 FF FF 01 00 00 00 FF 00 00 01 00 00 00 00 00 00 01 00 00 FF FF 00 00 00 FF 00 00 01 00 FF 00 01 01 01 00 00 01 00 FF FF 00 FF 00 02 FE FE 00 FE 02 FF FF 02 FF FF FE 00 00 00 00 03 FF 01 FF 04 FF 00 FE 03 01 FE 00 FD FF FF FF 00 01 00 01 01 00 FF 01 00 04 02 FF FF 00 FF 01 FD FF 03 FD FF FF FE FE 01 FE 00 01 02 FF FF FF FF 01 01 01 FE 00 FE 02 00 00 02 FF FF 00 FF 01 FF 01 01 FF 00 FF 00 01 01 02 FF 02 FF 00 FF 00 00 FE FF FE 03 FF 01 FE 01 FF 00 03 01 02 01 01 FF 01 00 00 01 00 00 03 00 FD 00 00 00 01 FE FF 01 FF FF FF 00 00 00 00 00 01 00 01 FF FE 01 00 00 01 00 FE FF 00 00 01 FF 02 FF FF 00 00 00 00 01 00 01 00 01 01 FE 00 00 FF FF FE 01 00 01 00 00 01 FF FE 01 01 01 00 01 01 00 00 FE 01 00 FF 00 00 00 01 01 00 00 01 FF FF 01 01 FF 00 01 FF 00 01 00 00 FF 00 00 00 00 00 FF 00 00 01 00 01 00 00 01 00 00 00 00 01 00 FF 00 FF 01 FF 00 00 FF 01 00 00 01 FF 01 FF 01 01 FF FF 00 FF FF 01 00 00 01 FF FE FF 00 00 00 01 00 01 01 FF 00 00 FF FF FF 00 00 FF 00 01 01 FE 01 01 FF 00 FF 00 FF 00 00 FF 01 00 FF FE FE FF FF 01 01 00 00 01 01 01 01 00 FF 01 00 01 00 00 FF 00 01 00 00 01 02 01 01 01 00 00 01 FF 01 01 FD 00 02 01 FF 01 00 00 01 00 00 01 01 FF 00 FE 03 02 00 FF FF 00 FF 00 01 00 00 01 01 FF FF 01 01 01 00 FE 00 01 01 00 01 01 00 FE 01 FE FF 00 01 FE 01 FF 00 00 01 FF 02 01 00 00 FF FF 00 01 FE FE 02 FF 00 00 00 00 00 FE FF 00 01 FF 00 FF 00 02 FF FE FF 00 00 FE FF FE 00 00 01 FF FF 01 01 01 FF 01 00 01 FF 00 FF 00 00 FE 00 01 FF FF 00 FF 01 FF 00 00 01 00 00 00 FF 00 00 00 00 00 00 00 00 00 00 00 00 00 00 00 00 00 00 00 00 00 00 01 00 00 00 00 00 00 00 00 00 00 01 00 00 00 00 00 00 00 00 00 00 00 00 00 00 00 00 01 00 00 00 00 00 00 01 00 FF 01 00 FE 01 FF 02 01 FF 00 01 00 00 00 00 00 FF 00 01 FF FE 01 01 01 FF 01 FF FF 01 00 00 00 FF FF FF FF 00 00 FF 00 01 00 01 01 00 00 00 00 02 00 02 00 00 00 00 01 00 00 00 FF FF 01 FF 01 FF 00 01 FF FF 01 01 00 00 02 00 FE 01 FF FF 03 FE FF 00 FF 01 FF 00 01 FF 00 00 01 FF 00 FE 00 FF 00 FF FF 01 03 01 00 FF FF 01 01 00 01 00 FF 01 01 00 00 01 00 01 02 00 FE FF FF 00 02 00 00 FF 01 00 00 01 FF 00 01 00 FF 01 01 00 00 00 00 FF 00 FF 00 00 FF FF 00 00 00 FF 00 01 00 01 00 00 01 FF 00 FE 00 00 01 00 FF 01 FF 00 FF FF 00 01 00 01 00 FF 01 01 01 01 01 FF 00 FF FF 00 00 00 00 00 00 FF 00 00 00 00 00 00 01 FF 00 01 FF 00 00 00 00 01 00 00 01 00 FF 00 00 00 01 01 FF 01 00 00 00 00 FF 00 FF 00 00 00 FF 00 00 00 00 01 00 FF 00 00 01 00 01 00 01 00 01 00 FF 01 01 FE FE FF FF 00 02 01 FF 02 00 00 FF FF 00 01 00 FF FF 01 FF 02 FF 02 FF 00 03 00 FF FF FE FF 00 02 FF 00 FF 02 00 FE FF 00 01 01 00 FF 02 FF FF FD 00 FE FF 01 FF FF 00 FF FF 00 01 FF 01 00 00 02 01 FF 00 00 00 00 00 00 00 00 FF 00 FF 00 00 00 FF 01 00 01 FF 00 00 01 00 00 00 FF 00 00 01 00 00 00 00 00 00 00 01 FF 01 01 00 01 FE 01 00 01 01 01 00 00 FF 00 00 01 01 00 FF 00 FF 01 02 FE 01 FF FF FF FD 01 FF 00 FF FE 00 01 FF 01 00 00 FF FF FF FF 00 00 02 00 FE 01 00 00 FF 01 00 00 02 FE 01 FE 00 FF 00 00 01 FF 00 FF FF 00 00 03 00 01 FF FE 01 00 01 00 00 00 FF FF FF 01 01 FF 00 FF FF FF FF 00 00 01 00 FF 00 01 00 01 00 00 FF FF FF 00 FF FF 02 FF 00 00 00 00 00 02 00 00 01 FF 01 FE 01 FF 01 00 00 00 FF FF 00 FF FF 03 FF FF FF FF 01 01 01 00 01 00 00 FF 00 FF 01 01 FD 01 01 03 03 03 00 01 00 00 FF 00 01 00 FF 02 03 FF FF FF 02 01 FF FE 03 00 FF 01 00 FF 03 FF 00 02 FF 03 FF 00 01 01 00 00 01 FF 01 FE FD FD FF FD FF 00 FF 00 FD FD 01 02 00 00 02 00 01 00 00 FF 01 01 01 FF 01 01 FF 00 01 00 02 02 01 FC 00 00 01 01 FF 00 00 FE 03 00 FF FF FE FD 03 FF 01 02 01 03 00 00 00 01 FE 00 02 FF FF FE FF FE FE FF 00 01 00 04 00 00 FE 01 FE FF FF 00 01 02 00 FF FE 00 00 FF 00 00 00 00 02 FF 00 02 00 01 01 FF 00 00 00 FE 02 00 FF 00 FF 00 01 02 01 02 00 02 01 FF 00 FF 00 00 00 FF FE 00 00 00 FF 01 00 FE 00 00 01 02 00 01 01 FF 00 FF FE 01 01 FF 00 00 FF 00 FF 00 00 01 00 FF 01 00 01 01 00 00 00 00 00 00 00 00 01 FF 00 00 00 00 FF 01 01 00 00 01 00 00 00 00 01 01 FF FF 00 FF 00 FF FF 00 FF FF FF 00 00 01 00 00 FF 01 FF FF FF 00 00 00 00 02 01 01 01 01 01 00 00 FF 00 02 00 FF FF 00 01 00 FF 00 01 00 00 00 FF 00 02 00 00 FF 00 00 FF 00 FE 01 FF 00 00 00 00 01 02 00 00 00 00 00 01 00 01 00 FF 00 00 FF 00 01 FF 01 01 00 01 02 FF 00 00 01 00 01 FE 01 01 FE FF 01 01 FF 01 00 FF 01 00 00 01 02 FE 00 FF 01 00 00 FF 00 00 00 FF 00 00 01 00 00 00 00 02 01 01 FF FE 00 01 01 FF 01 FF 00 FE 00 FF FF 01 02 FF 00 00 00 00 FF 01 01 00 FF FF 00 01 FF 00 FF FF 01 00 00 00 00 00 00 FF 00 00 01 00 00 FF 01 00 00 FE 00 FF 00 00 00 FF 00 00 01 FF 00 FF 00 01 FF 01 00 01 01 FF 00 00 00 00 00 01 00 00 00 FE 00 00 00 00 FF 00 00 00 00 00 00 01 00 00 00 00 FF 00 00 00 00 FF 00 FF 00 00 01 01 00 00 00 00 00 FF 00 00 01 FF 01 00 00 00 FF 00 00 00 00 00 00 00 00 00 00 00 FF FF 01 01 00 00 00 00 00 00 00 00 00 00 00 FF 00 00 00 00 00 00 00 00 00 00 00 00 00 00 00 00 00 00 00 00 00 00 00 00 00 00 00 00 00 00 00 00 00 00 00 00 00 00 00 00 00 00 00 00 00 00 00 00 00 00 00 00 00 00 00 00 00 00 00 00 00 00 00 FF 00 00 00 00 00 00 00 00 00 00 00 00 00 00 00 00 00 00 00 00 00 00 00 00 00 00 00 00 00 00 00 00 00 00 00 00 00 00 00 00 00 00 00 00 00 00 00 00 00 00 00 00 00 00 00 00 00 00 00 00 00 00 00 FF FF 00 00 00 00 00 01 00 00 00 00 00 00 00 00 00 00 00 00 00 00 00 00 00 00 00 00 00 00 00 00 00 00 00 00 00 00 00 00 00 00 00 00 00 00 00 00 00 00 00 00 00 00 00 00 00 00 00 FF 00 00 00 00 00 FF 00 00 00 00 00 01 00 00 00 00 00 00 00 00 00 00 00 00 00 00 00 00 00 00 00 00 00 00 00 00 00 00 00 00 00 00 00 00 00 00 00 00 00 00 00 00 00 00 00 00 00 00 00 00 00 00 00 00 00 00 00 01 00 00 00 00 00 00 00 00 00 00 00 00 00 00 00 00 00 00 00 00 00 00 00 00 00 00 00 00 00 00 00 00 00 01 00 00 00 00 00 00 00 FF 00 00 00 00 00 00 00 00 00 00 00 00 00 00 00 00 00 00 00 00 00 00 00 00 00 00 00 00 00 00 00 00 00 00 00 00 00 00 00 00 01 00 00 00 00 00 00 00 00 00 00 00 00 00 00 00 00 00 00 00 00 00 00 00 00 00 00 00 00 00 00 00 00 00 00 00 00 00 00 00 00 00 00 00 00 00 00 00 00 00 00 00 00 00 00 00 00 00 00 00 00 00 00 00 01 00 00 00 00 00 00 00 00 00 00 00 00 00 00 00 00 00 00 00 00 00 00 00 00 00 01 00 00 00 00 00 01 00 00 00 00 00 00 00 00 FF 00 00 00 00 00 00 00 00 00 00 00 00 00 00 00 00 00 00 00 00 00 00 00 00 00 00 00 00 00 00 00 00 00 00 00 00 00 00 00 00 00 00 00 00 00 00 00 00 00 00 00 00 00 00 00 00 00 00 00 00 00 00 01 FF 00 00 FF 00 01 00 00 FF FF FF 00 FF 00 00 00 00 00 00 00 FF 01 00 00 00 00 FF 01 01 FF 00 00 FF 00 FF FF 00 00 00 00 00 00 00 00 00 00 01 01 00 00 00 01 01 00 01 00 00 01 00 00 01 01 00 FF FF FF 00 00 00 01 00 00 00 00 00 01 00 FF 00 00 FF 01 00 00 00 00 00 01 00 00 00 01 00 00 01 00 FF 00 00 00 01 FF 00 FF 00 00 00 00 00 FF 00 01 00 00 FF 00 00 00 FF 00 00 01 00 00 FF 00 00 01 FF 00 01 00 00 FF 00 00 01 00 00 FF 00 01 00 00 00 00 FF 00 00 00 00 00 00 00 01 00 FF 01 00 00 00 00 01 00 00 00 00 00 00 00 FF 00 00 00 00 00 FF 01 FF FF 00 00 FF 00 00 FF FF 01 FF 00 00 01 00 01 00 00 00 00 00 00 00 00 00 00 01 00 00 00 00 00 00 00 00 00 00 00 00 00 00 00 00 00 00 00 00 00 00 00 00 00 00 00 00 00 00 00 00 00 00 00 00 00 00 00 00 00 00 00 00 00 00 00 00 00 00 01 00 00 00 FF 00 01 00 FF FF FF 00 01 FF 00 01 01 00 00 01 00 FF 00 FF 01 FF 00 FF 01 00 FF 01 FF 00 00 00 FF 00 00 01 00 FF 01 FF FF 00 FE 00 00 00 FF 00 01 02 00 00 01 00 01 01 01 00 01 00 FF FF FF 00 00 FF FF 00 01 01 00 00 00 00 00 00 FF 00 00 FF FF 01 00 00 FF 01 00 00 FF 00 01 FE 01 00 00 01 FF 00 00 00 FF 00 00 00 01 01 00 01 00 00 01 00 00 FF 01 00 00 00 FF FF 01 00 00 00 01 01 02 00 00 01 FF 00 FF 00 00 00 FF 00 00 00 01 FF 01 00 FF 00 00 FF 01 00 00 00 01 00 00 00 FF FF 01 00 00 00 00 01 01 00 00 FF 00 00 00 00 00 00 00 FF 00 00 00 00 00 00 01 00 00 00 01 00 00 00 FF 00 00 00 00 00 00 00 00 00 00 00 00 00 00 00 00 00 00 00 00 00 00 00 00 00 00 00 00 00 00 00 00 00 00 00 00 00 00 00 00 00 00 00 00 00 00 00 00 00 00 00 00 00 00 00 00 00 00 00 00 00 00 00 00 01 FF 01 FF FF 01 02 00 01 02 FF FF FF 00 00 FF 01 FE 02 02 02 FF 03 01 FE FE FF 00 01 FF 01 FE 02 FF 02 FE 02 FE 00 00 01 00 01 02 01 FF 01 FF 00 00 FF 01 FE 03 01 FF 00 FE FF 02 01 00 00 00 02 FF FF FF FC 00 02 FF 01 00 FF 00 00 FF FF FF 01 01 01 FE 02 01 01 00 00 FE 01 02 02 FC 01 00 02 FF 03 FE 01 01 FF 00 FE FF FF 02 00 FE 00 FE 00 00 FF 00 FD 02 03 FF FF FE 00 03 01 03 FE 00 02 00 FF FE FD FF 00 00 02 FF 00 FF 00 00 FE 00 01 FF 01 FF 01 02 00 01 01 00 00 02 01 FD 01 02 00 00 FF 01 00 02 00 00 FE 01 00 01 FF FF 00 FF 00 00 FF 00 00 00 00 00 FF FE 01 01 01 02 FE 00 FF 01 01 FE FF 00 00 00 01 FF 01 00 FF FF 00 00 00 00 00 00 01 FF 02 FF FF FF 00 01 00 00 FF 00 FF 03 FF 00 00 01 00 00 00 01 FF 02 00 FF 01 00 FF FF FF 00 00 FF 00 FF 01 FF 01 00 00 FF 00 00 01 01 00 01 FF 01 01 FF FD FF FD 02 FE FF 02 00 FE 02 FF FE 04 00 03 02 FE FE 02 FE FF 02 01 FE 03 00 03 FD 00 00 FF 00 01 FF 03 01 00 00 FF FE 00 02 01 FF 00 03 01 FD FF 02 FE FF 02 01 02 FF 00 01 FE 00 00 03 00 00 FC 00 FF 00 FE 00 02 01 FF 01 FD 00 01 01 03 FF FF FD 02 FE 00 03 FE FB FF 02 00 00 FF 01 02 00 03 FD 01 FF 00 02 00 00 FF 02 FD FE 00 02 02 FE 02 01 FE FD 00 00 02 FF 00 03 FD FD 00 FD FE FF 00 FE 01 03 FE 02 00 FF 00 00 02 01 01 FD FE FF 01 03 FF FF 00 00 01 00 02 FE 02 FE FF 00 00 01 FD FE 00 FE FB 00 00 05 00 00 01 FF FC FF 00 01 FE 03 FF FF 00 02 FF 01 00 01 FF 00 00 FF 00 FF 01 00 01 00 00 00 00 01 01 00 FF 00 00 00 00 FF 01 01 FF 01 00 00 00 FF FF 02 FF 00 00 00 00 00 00 01 00 FF 00 00 00 00 FF FF 00 00 00 00 00 00 01 00 00 00 FF FF 00 00 01 00 03 03 02 01 01 FE FF FF FD 01 FE FF 04 01 FE 02 00 00 01 01 FF 02 FF FF 01 FC 02 03 01 FF 01 FF 01 FF FF 00 FF FF 01 FF 00 02 00 03 FF FF 00 02 02 FF FE 03 FF FE FF 00 FD 01 02 FF 01 FF FE 00 01 01 02 03 03 00 00 03 FE FF FE FF 04 FF FE 00 FE 03 FF 01 FF 02 00 FF FF FF 02 02 FF FE FD 02 FD 02 00 FF 02 01 03 FF FF FF 02 02 00 00 FF 00 00 FF 01 02 00 FF 03 FE FE 00 01 FD 01 01 00 01 FF FE FF FD FF 00 01 FF 01 01 FF FF FE 01 00 00 02 00 00 FE FE 00 00 01 00 02 00 FE 01 01 01 FE 01 FF 00 FF 00 00 FD 01 FF 01 FE 01 FE 01 FF 00 01 FE FE FD 00 01 FF 00 FF 01 01 01 FE 01 00 00 00 00 00 FF 00 00 01 01 01 00 01 00 00 00 01 00 FF 00 FF FF 01 FF 00 01 FF 02 00 FF 00 FF FF 01 00 00 01 FF 01 00 FF 01 FF 00 02 00 00 FF FF 00 00 FF 00 FE FF 01 01 00 00 01 FF FF FF 00 FF FF 01 02 00 00 FF FF 00 01 FE 00 00 01 01 FF 01 01 FF 00 FE 01 FF 00 FF 01 01 FE 02 00 00 01 FF FF FF 01 00 00 FF 01 00 FF FF FF 00 01 00 FF 01 01 02 00 01 01 FF 01 00 00 01 01 00 FE 01 FF FF FF FE 01 00 FF 00 FF FF 02 FF 01 02 00 FF FF 01 01 00 01 FF FF 00 FE FF 02 00 00 00 00 00 FF 01 FE 01 FE 00 FE 00 01 00 FE FF FD FF 00 01 02 00 02 01 01 FF 01 01 02 00 03 00 00 FE 00 FF 00 FF 00 FE FE FF 00 FE 01 00 FF 01 01 02 00 FE 00 00 00 00 00 00 00 00 00 01 00 01 01 FF 00 00 00 00 00 FE 00 FF 01 01 00 00 00 00 00 FF FF 01 02 01 FF FF 02 01 FF 01 00 FE 01 01 FF FF 02 00 01 00 00 01 00 01 00 FF 00 00 01 01 00 00 FF 00 00 00 00 01 00 00 FF 00 00 00 01 00 00 00 00 00 FF 00 00 00 00 00 FF 00 00 00 00 00 00 01 00 01 00 00 00 00 00 00 00 FF 00 00 01 00 00 FF FF 00 01 01 00 00 00 00 00 01 00 00 00 00 FF 00 01 00 00 01 FF 00 01 00 00 01 00 00 FF 00 00 00 00 00 FF 00 00 00 00 01 00 00 FF 00 00 00 00 00 00 00 00 00 00 00 00 00 00 00 00 00 FF 00 00 00 00 00 00 00 00 01 00 00 00 00 00 00 00 00 00 00 00 00 FF 00 00 00 01 00 FF 00 00 00 FF 00 00 00 FF 00 00 00 00 00 FF 01 01 00 01 00 00 00 01 00 FF 00 00 00 00 00 00 01 00 00 00 00 00 00 01 00 00 00 00 00 00 00 FF 00 00 00 00 00 FF 00 00 00 00 00 00 01 00 00 01 FF FF 00 01 00 00 00 00 00 00 00 00 00 01 FF 00 01 01 00 00 01 00 00 01 00 00 00 00 00 00 FF 00 00 00 00 FF 00 00 00 00 00 00 01 00 00 00 00 00 00 00 00 00 00 00 00 00 00 00 00 00 01 00 FF 01 00 FF 00 FF 00 00 00 00 00 00 FF 00 FF 00 FF 00 00 00 01 00 00 00 00 00 00 00 00 00 00 FF 00 00 00 00 00 00 01 FF 00 00 00 00 00 00 01 00 01 02 00 00 FF FF FE FE FE 01 FF FF 01 01 FF 01 00 FE 00 01 FF 01 00 FF 04 FD 01 00 00 01 01 FE 00 FF 00 02 FE 00 00 FF FF 02 00 01 FF FE 01 02 03 00 03 01 00 00 FE 00 01 01 01 00 02 FE FF FF FF 01 01 01 02 00 00 04 00 FD 01 FF 01 00 FF FF 01 00 FF FE 00 00 00 00 FF 00 00 01 02 FE 00 00 00 01 FE FC 01 00 02 01 FF 01 04 01 00 FF 00 01 00 01 02 FF FF FF FF 00 FF 02 01 FE 00 01 01 00 FF FF FF FF 01 00 01 00 00 FF 00 00 FF 01 00 00 FF 00 01 01 FF 00 01 00 00 01 00 00 01 FF 00 00 00 FF 00 FF 01 FF FF 00 00 FF FF 01 FF 00 00 00 FF FF 00 00 01 00 00 00 FF FF 01 02 FE 00 FF 00 00 00 FF 00 00 00 00 00 00 00 00 FF 00 00 00 FF 00 00 FF FF 01 00 00 00 00 01 00 00 00 00 FF 01 00 01 FF 00 01 00 00 01 00 00 00 FF 01 00 FF 00 FF 00 00 00 00 FF 00 00 00 00 FF 00 00 00 02 FF 01 01 FF 00 FD 00 FE FB FF 02 01 FF FF FF FE 03 01 FD 02 02 01 00 00 FF 04 FD 01 00 FF 02 03 FD 01 FE FF 04 FD 01 00 FE FE 03 FE FF 00 00 03 00 01 02 00 02 01 00 FC 01 01 01 00 03 02 FF 00 00 FF 00 00 01 02 00 01 02 00 FE 01 FF 00 00 FF FF 01 00 FF 00 01 00 FF 00 FF 01 00 00 01 FF 01 00 00 01 00 FE 00 00 01 02 00 00 03 00 00 FE FF 00 FF 00 01 00 00 01 01 00 FF 02 00 00 00 00 00 01 FF FE 00 FF 00 00 01 FF 02 01 00 FF FF 00 00 00 01 FF 01 FF FF 00 02 00 FF 01 00 00 00 00 00 FF 01 FF 00 FF 01 00 FE 00 00 00 00 00 FF 02 00 FF FF 00 FF FE 00 01 FF 01 FF 00 00 01 FF 01 00 00 00 00 00 00 00 00 00 01 00 00 00 00 00 FF 00 00 00 00 00 FF 00 00 00 00 00 00 00 00 00 FF 00 00 00 00 00 FF 01 00 00 00 00 00 00 00 01 00 00 00 00 00 00 00 00 00 00 00 00 01 FF 00 FF 00 00 00 00 00 00 00 FE 00 FF 00 FF 01 00 01 01 FF 01 01 FF 00 FF 00 00 FF FF 00 01 FF 01 00 FF 00 00 00 00 00 01 01 00 00 00 FF 00 FF FE 00 00 01 00 FF 00 01 FF 01 00 01 00 00 00 00 FF 00 00 FF 00 00 FF 01 00 00 FF FF FE 00 00 01 00 01 00 00 02 01 FF FF FF 00 00 FE FF 01 00 FF 01 00 FF 00 00 00 00 FF 00 01 00 00 FF FF FF FE FE 00 00 01 00 FF 00 00 FE 00 00 01 01 01 00 00 FF 00 00 FF 00 01 00 FF 00 FF FF 00 00 FF 01 00 FF 00 00 00 00 00 00 00 00 00 00 00 00 00 00 00 00 00 00 00 00 00 00 00 00 01 00 00 00 00 00 00 FF 00 00 00 00 00 00 00 00 FF 00 00 00 00 00 00 00 00 00 00 00 00 00 00 00 00 FF FF 00 00 00 00 00 00 00 00 00 00 00 00 00 FF FF 00 01 01 00 00 00 00 00 FF 00 00 00 00 00 00 00 00 00 00 00 FF 00 00 00 00 00 00 01 00 00 00 00 00 00 00 00 00 00 00 00 00 01 00 00 00 00 00 02 FF 01 00 FF FF 00 FF 00 01 00 FF 00 FF 01 01 00 01 00 FF 00 01 00 FF 01 00 01 00 00 FF 00 FF FF 00 00 01 01 01 02 01 00 FF FF 00 00 00 01 00 00 FF 00 FF FF 00 01 00 00 00 02 01 FD FF FE 00 00 FF 01 02 00 00 FF FE FF 01 FE 02 01 FE 02 01 00 02 02 00 FF 01 03 FE 01 FF 01 00 00 FF FF 01 01 01 FF 00 01 01 00 02 FF FE 00 00 01 00 00 02 03 FF FE FE FD 01 03 00 FE 01 00 02 00 00 FF 00 FF 00 01 01 01 00 FF 00 00 00 00 01 00 FF 00 01 00 01 00 01 FF 00 02 FF 00 00 00 01 FF FF 00 01 00 01 00 00 00 01 00 00 00 FE 00 00 00 01 00 00 01 00 00 FF FF 01 00 00 FF 00 FF 01 01 00 00 01 01 01 00 00 01 00 00 00 00 00 00 00 01 01 FF FF 01 00 00 FF 00 01 00 00 00 FF FF 01 00 00 01 00 00 00 00 01 00 02 01 00 00 00 FF 00 FF 00 00 00 00 FF 00 FF 00 00 00 FF 01 00 01 FE 00 02 00 00 00 FD FE FE FE 02 00 FF 02 01 FF 02 FE FE 04 00 FF 00 00 FF 03 FF FF 02 01 FE FF FD 02 FC FE FF 00 01 00 FE 00 01 01 03 FF FF 01 05 02 FF 02 01 02 FE FE 03 01 FF 01 00 FF FF FF 00 FE 00 00 01 FF 00 00 01 00 FE 00 00 FF FF FE FF 00 FF 00 00 00 01 01 00 01 FE 01 01 FF FF FF FF FF 01 FE FE 02 00 02 FE 01 FF 00 01 01 01 02 01 00 02 02 01 FF 00 FF 00 FF 00 00 01 01 01 FF 02 03 FE 01 FF FF 01 00 00 00 01 FE 01 00 00 00 FE 03 02 FE FE 02 01 FE 01 00 00 00 00 FF 01 00 00 01 00 01 FF 00 FE FF 01 00 02 00 00 00 03 00 FF 00 FF FE FE FD 01 FF 00 FF 00 00 00 02 00 00 00 00 00 00 00 00 00 01 01 00 FF 00 00 00 01 01 00 FF 00 00 00 01 00 01 00 00 01 01 FF FF 00 FE 02 FF 01 00 00 01 00 00 01 00 00 00 00 00 FF FF FF FF 00 00 00 00 00 02 FF 00 FF 00 FF FF FF 00 FF 02 00 00 FF FF FF FD FD FF 02 00 00 00 00 FF 02 FE FD 03 01 00 00 00 FF 04 FE FE 02 00 01 01 FE 02 FD FF 01 FF 00 01 FE 01 00 00 01 FF FF 01 04 01 FF 02 FF 00 00 00 03 01 FE 00 01 01 FE 02 00 00 01 00 03 00 01 FE FF FE FF FF 00 00 FF FF 00 00 00 00 02 03 01 FF FF 03 FC 00 03 FE 00 02 00 FF 01 00 02 00 FF 04 FE 01 01 FF 00 01 00 02 00 FE 02 02 04 FF FE FE 01 FF FF FF 02 03 FF 01 01 01 00 FE FE 00 00 01 FF 01 FF 01 02 FD 02 00 00 01 FF FF 01 00 01 FF 02 00 01 01 FD 00 03 02 00 01 00 01 00 FF FE FE 02 00 00 FD FF FF 00 FF FE FF FE FD FF 00 02 00 FF FE 01 02 03 FE FF 00 FF 00 00 00 00 00 00 01 02 00 FF 00 01 FF 00 01 FF 00 01 00 00 00 00 00 00 00 00 01 FF 00 00 FF 01 00 00 01 00 00 00 00 00 00 FF 01 FF 01 FF FF 00 00 00 01 00 00 01 01 FF 00 00 FF 00 FF FF 00 00 01 FE 00 FF 00 00 01 FE 00 00 00 FF 01 00 FF 02 00 FE 01 00 00 00 01 00 01 00 FF 02 00 FF 00 FF 00 00 FE FF 01 00 00 FF 00 01 01 02 00 00 00 02 01 00 02 FF 00 00 FF 01 00 FF 00 01 01 01 01 FF 01 02 00 00 FF FF FE 00 FE 01 01 02 01 00 00 02 FE FE FE 02 00 FF FF 00 02 FD 01 01 FF 01 02 FF 00 00 00 01 FE 00 00 FE FF 00 FF 00 00 FF 01 01 02 00 01 02 00 01 01 03 01 00 FF 00 02 FE 01 00 00 01 FF 00 FF FF FF 01 01 00 01 00 FE 00 01 01 00 FE 01 00 00 00 01 01 00 FF 01 00 00 00 01 01 01 FE 00 00 00 00 00 00 00 00 FF 00 01 00 01 FF 00 01 FF 01 01 01 00 00 00 FF FF 00 FF FF 00 01 00 00 00 00 00 00 00 01 01 FF 00 FF 00 01 FF 00 00 00 00 00 00 00 00 00 00 FF 00 00 00 00 00 00 00 00 00 00 00 00 00 00 00 00 00 00 00 00 00 00 01 00 00 00 00 00 00 00 00 00 00 00 00 00 00 00 01 00 01 00 FE 00 FF 00 01 00 01 01 FF FF 00 01 02 00 FF FF 01 00 FF 01 00 FF FF 01 FF 00 02 01 01 00 00 01 FF 01 02 00 00 01 00 FE 02 01 02 FE 00 02 00 00 00 01 FF 01 01 00 FE 01 01 00 02 01 01 01 01 FF 00 FF 00 FF 00 01 FF 01 00 00 01 00 01 00 01 01 01 02 01 02 FF FE 01 01 01 00 02 01 00 FF 01 01 00 00 01 00 02 00 FE 01 01 00 01 FF 02 01 00 02 00 00 00 01 00 00 01 00 00 FF 01 01 00 00 FF 00 00 FF 00 00 01 00 00 FF 00 01 00 01 FF FF 00 01 00 00 01 01 00 00 02 FF 00 00 00 00 00 00 00 00 01 00 FF 00 FF FF 00 02 FF FE FF 00 00 00 00 00 01 00 00 00 FF 01 01 00 FF 00 00 00 00 00 00 00 01 01 00 FF 00 00 00 FF 01 01 00 00 FF 00 00 00 00 00 01 FF 00 01 FF 00 00 FF 00 00 00 00 00 00 00 00 00 01 01 01 01 01 FE 00 FF 00 FF FF 01 00 00 FF 00 00 00 00 01 00 00 00 FF FF 00 01 01 FF 00 FE 01 03 00 FE 00 03 01 FF 01 FE 00 01 FD 00 FE FE FF 03 FD FE 00 01 01 01 02 01 01 02 01 00 FF 00 02 00 FF FC FF FE 02 00 00 00 02 01 FF 00 FF 03 04 01 01 03 FE FF FE FF FC 01 FF 00 02 00 FE 00 00 01 00 02 FE FF 03 FB 00 00 01 02 FF FC 01 FE 00 01 00 FE 00 03 FF FF 00 FF FE 02 FF FF 01 03 03 FE FF 00 FF 00 04 03 03 01 02 03 02 FF FE 01 FF 02 01 00 FD FE 02 03 FE 00 FF FF 00 03 01 01 00 01 00 00 01 FF 01 FE FF 00 00 01 00 FF 01 00 00 FD 01 01 FF 00 00 FF FE 00 FF 00 00 FF 01 02 01 00 00 01 02 00 01 00 01 00 FE 01 00 00 01 FE 00 FF 00 00 FF 00 02 01 FF 00 01 00 FF 00 00 01 00 00 01 00 00 00 FF 00 00 00 01 00 00 FF 00 00 00 00 00 01 00 FF FF 00 00 FE 01 FF 01 FF 00 00 FF 00 00 00 00 00 FF 00 00 01 00 00 FF FF 01 01 00 00 00 01 01 00 00 00 02 FF FF FF 01 02 05 00 03 00 01 FD 02 FE FF 00 00 FF 02 01 02 FF 01 02 01 FE FE 02 FD 01 04 FE 02 02 01 FE FF FE FF FF 02 03 03 04 04 FF 01 FF 01 FE FD 02 00 02 02 FD FE FF 00 00 FF 02 01 02 00 00 FE 02 00 00 FE FD FF 02 FE FF 01 FF 00 01 FE 00 FF 00 01 01 00 01 01 03 FF 00 02 00 00 FF FF 00 FE 01 FD FF 03 00 00 00 01 FD 00 03 00 FF 01 02 02 00 02 02 01 01 FF 01 FF FF 02 FE FE 01 00 FE 02 00 00 02 01 01 00 01 FF FF 01 01 00 00 01 FF FF 01 00 01 01 02 00 FE 01 01 FE 00 00 FE FE 02 00 FF 02 FF 01 00 01 01 01 01 02 FF 00 FE 01 01 FE 01 02 02 00 FE 01 FF 01 FF FF 00 00 FF FF FF 01 00 FF 00 FF 00 00 00 00 FF 00 FF FF 00 01 00 00 00 01 00 01 00 FF 00 01 00 01 00 FF 01 00 FF 01 FF 00 00 00 00 00 FF 00 00 00 00 00 00 00 01 00 00 00 01 01 00 00 00 00 00 00 00 00 00 00 01 02 FF FF 01 00 01 FF FC 02 00 FE FE 00 01 FF 01 01 FF 03 00 04 00 FF FD 01 00 FF 00 FF FF 01 02 01 FF 00 02 00 00 00 00 00 04 00 FF 00 FF 00 00 FE FF 00 00 01 FD FF FF 00 FE 00 01 02 FF FF 01 02 FF 01 02 FF 01 FE FD 02 03 FE FE 01 00 FF 02 00 01 00 FE 01 FF 00 FE 01 FF 00 02 FE FE FF 00 01 FE 00 00 01 01 01 FF 00 03 00 01 00 03 01 00 FD 00 FD 00 01 FE FF 00 FF FE 00 00 02 FF 00 01 00 00 01 00 FF FF 00 FF 01 01 FF 00 01 00 01 01 00 01 00 FE 00 00 00 01 00 00 FF 01 00 FF FF 00 01 00 01 00 00 00 01 FF 00 00 FF 00 00 01 00 FF 00 00 FF 00 00 00 00 00 00 FF FF FF 00 00 00 FF 00 00 00 00 00 00 00 01 FF FF 00 01 00 00 01 FF FF 00 00 01 00 00 FF 00 00 00 00 00 00 01 00 01 00 00 00 01 00 00 01 00 01 FF 00 FF 00 00 00 00 00 00 00 00 00 01 01 FF 00 01 00 FF FF 00 00 FE 00 01 FE 00 01 FF 00 01 FF FE 01 01 00 FF 00 00 FF FF 00 01 FF FF FF FE 01 00 01 FE 01 00 00 FE 01 00 FF 00 00 00 00 FF FE 00 02 FF 01 FF 00 02 00 00 00 01 01 00 00 FF 01 03 00 01 FF FF 00 FF 00 00 FE FE FF 01 00 00 FF 00 01 03 FF FF 03 FF FE FF 00 00 00 FF FF 00 02 01 00 FF FF 01 00 FF 01 01 02 01 FE 00 FE FF FF 00 FE FE FF 00 FF 01 01 00 00 00 FF 01 01 01 03 00 FF 02 00 FE 01 00 00 FF FE FE FF 00 01 FD FF 01 00 02 00 FF 03 FE FF 00 00 00 00 01 00 01 02 02 FF FE 00 03 FF 00 00 01 01 03 FE FF FD 00 00 01 FD FD FF 01 FF 00 01 00 01 FF FE 01 00 00 03 00 00 02 00 FF 00 01 FF FF FE FF FF FF 01 00 01 FF 00 FF 00 00 01 01 FF FF 01 00 01 FF 00 00 00 01 00 FE 00 01 FF 02 FF 01 FF 01 00 00 FF 01 FF 00 00 FF 00 FF 00 FF 00 00 00 00 00 00 01 FF 00 00 00 00 FF 01 00 01 00 00 00 00 02 01 FF 02 FE FF 00 01 FF 02 00 FE FF 02 00 02 02 02 FE FF 01 01 FF 00 00 01 00 01 00 FF 01 FF 01 FE 00 02 02 FF 00 00 FF 00 FE 00 FE FE 00 01 01 FE 02 FF FE FE 02 01 01 00 00 01 FF 00 02 00 01 FF 00 00 00 00 FF FF 02 00 FF FF 02 01 FF FD FF 00 FF 00 FF FF 00 02 02 FE 02 FF 01 FF FF FE FF 00 01 01 00 01 01 01 FF 01 FF 01 01 FF FE FF FF FF FF 01 FF 00 FF FF 00 01 03 02 FE 00 FF FD FF FC 02 FE 00 00 FE 02 01 00 02 FF 01 FF 00 00 FD 01 01 03 FF FE 01 00 02 00 02 FF 00 01 FF 02 FE 00 FE 01 01 00 FD 00 FE 01 FF FF 03 FF 00 FF FD 02 FF 01 FF 00 01 00 FE FF 00 01 FF 00 FF FF 00 FF 02 00 00 FF FF 00 01 FF 01 FF FF 00 00 FF 00 00 00 01 FF 01 00 FF 00 00 FF 02 FF 03 00 01 FF 00 00 01 00 00 00 FE 00 FF FF FF 01 00 03 FF FE 01 01 00 00 01 FF FF FF 00 01 02 03 00 02 02 01 01 00 FD FF 01 FD FE 03 02 FD 01 00 FF 01 01 02 01 00 FD 02 FE 01 02 FF FF FF 02 FF 00 FF 00 00 FE 01 00 FF 03 01 03 FF FF FF 00 FF FE 00 01 FF FD FE FF FD FE 02 01 03 FF FF 00 00 00 00 02 01 00 FE 01 00 FF FF FE 03 01 FF 01 FE FF 01 FF 02 FF 00 FD 00 01 00 01 00 FC FE 01 00 01 FF 00 02 00 02 00 FF 01 03 02 00 FE FF 01 FF FF 01 FF 01 FE 00 FF FF 00 00 FE 01 00 FF 00 FE FD 01 00 FF 02 FF FD 02 02 02 FE FF 01 FE 00 02 01 00 FD FE FF 01 FF 01 02 FD 01 00 FF FF FE 00 FE FF FF 01 00 FE 00 FF 01 00 02 00 04 01 00 FE 01 FF FD 01 FF FC 01 00 00 00 02 01 02 00 00 00 01 01 00 FF 00 FF 01 00 00 00 00 00 00 01 00 FF 01 FF FF 00 00 00 01 00 01 FF 00 00 FF FF 01 FF 00 01 00 01 00 00 01 00 00 00 01 00 FF 00 00 00 00 00 00 01 00 00 00 01 00 00 FE 00 00 FF 01 00 00 00 00 00 00 00 00 00 01 00 01 00 00 00 01 01 00 FF 00 01 00 00 00 00 FF 01 00 FF 00 00 00 00 00 01 01 FF 00 FF 00 00 00 FF FF 01 01 00 00 00 00 FF 01 00 00 FF 00 FF 00 00 01 01 00 FE 01 00 01 02 00 FF 00 FF 02 00 02 FF 00 02 00 01 01 FE 01 FF FF 00 FE 00 01 FF FF 02 01 FE FE FD 01 00 00 01 FF 02 00 00 FE FE FE FF 02 01 01 00 01 00 00 FE 00 FF 01 01 01 FF FF FF FE 00 00 FF 01 00 00 01 01 00 00 FE FF 00 01 00 FF 01 00 FF 01 00 00 00 FF 00 FF 00 FF 00 FF 00 01 FF FF 01 FF FF 00 FF 01 00 01 02 FF 00 01 00 00 01 02 01 00 00 01 FF 01 00 FF FF 01 FF FF FF 01 02 00 00 00 01 00 00 00 00 01 00 00 01 FF 01 00 FE 01 00 00 01 00 00 00 00 00 00 00 00 01 FF 00 00 00 01 00 01 FF 00 FF 00 FF 00 01 00 00 00 00 00 00 00 00 FF 01 00 00 01 00 00 00 00 00 00 01 00 00 00 00 FF 01 01 00 FF 00 FF FF 00 00 02 00 00 01 FF 01 FE FF FF 01 FE FF 01 01 00 01 FF 01 FF 01 FF 01 FF 01 FE 00 01 01 00 00 00 FF 01 02 00 01 01 00 00 00 02 FE FF 01 00 02 02 FF FF FF 00 00 00 01 01 00 02 FF FE 00 FF 00 00 02 00 02 00 01 01 FF 00 02 00 01 01 01 00 03 00 FF FF 01 FF 02 00 00 00 FF 02 00 01 FF 00 01 02 FD FD 01 00 02 00 FF 01 FF FE 00 FF 01 01 02 FF FD 00 00 00 FF 00 01 FF 00 00 00 FF FF 00 00 00 00 FF 00 00 01 00 00 01 00 FF FF 00 00 00 01 00 00 00 00 00 00 01 FF 00 00 FF 00 00 FF 00 00 00 FF FF 01 FF 01 FF 00 01 FF 00 FF FF 01 00 01 FF 00 00 00 00 00 00 00 00 01 01 00 00 00 FF 01 01 01 FF 00 01 00 00 00 01 00 FF FF 01 00 00 01 FF FF 00 01 FF FF 01 00 01 FF 01 FF 00 00 01 00 00 FF 01 00 00 00 00 00 00 00 FF FF 00 00 01 01 FF 00 00 FF 00 FF 00 00 01 00 01 00 00 00 01 01 01 FF 01 01 FF 00 01 FE 01 02 FE 00 00 00 00 02 FF 01 01 FF 00 00 FF 02 00 01 02 FF 01 FE 00 01 01 FF 00 00 01 00 00 FE FF 00 FF 00 FF 01 00 FF 00 00 00 FF FF 00 FF 01 02 00 01 FE FF 00 02 03 01 01 FF 01 FE 00 02 00 01 01 FF 00 02 01 00 04 FF 00 01 FF FE 01 FF 01 00 FF 03 FE 02 00 FE 00 01 FD FE 00 00 00 FF FF 00 FF FE 00 FF 02 02 00 FE FD 01 FF FE 01 00 00 00 01 02 01 01 00 00 01 00 FF 00 00 00 01 00 00 00 01 FF 00 00 01 FF 01 FF FF 00 01 00 00 00 01 00 00 00 FF 00 00 02 00 01 FF 00 01 00 00 FF FF 00 00 00 01 00 00 01 00 FF FF 00 FF 01 00 00 00 01 01 01 00 00 00 FF 01 00 00 00 01 00 01 00 00 01 00 00 00 01 00 FF 01 FF FF 00 01 00 FF 01 00 01 FF 01 FF 00 00 01 00 01 FF 01 00 00 FF FF 01 00 FF FF 00 01 00 01 01 FF 00 00 FF 00 FF FE FF 02 FF 00 00 FF 01 FF 00 01 FF 00 01 FF 01 01 00 FF 01 FF 00 01 00 00 00 00 01 00 00 FF 00 FE 02 FF 01 02 00 02 00 00 00 00 01 00 00 00 FF FF 00 FF FF 01 FE 00 01 02 FE 01 FF 00 FE 00 FF 00 01 02 00 FF FF 00 00 00 FF 01 01 FF FF 00 01 01 01 FF 00 01 FF 01 FF 01 FF 00 01 FF FF 00 FF FF 01 00 FF 01 01 00 00 FF 00 00 02 01 01 FE FF FF 00 FF FF FF 00 01 FE 01 FF 01 FF 00 FF FF FF 00 01 FE FF 01 00 00 FF 01 FF 00 01 FF 00 01 00 00 00 FF 00 00 FF FF 00 02 00 00 00 FF 01 00 FF FF 00 FF 01 FF 00 00 01 00 00 00 00 00 01 FF 01 FF 00 00 00 01 00 00 FF FF 01 00 FF 00 FF 00 01 01 01 FF 01 00 00 00 FF 00 FF 01 01 FF 00 00 01 00 01 00 FF 01 00 00 00 01 00 00 FF 00 00 00 FF 01 00 00 00 00 01 00 00 00 00 01 00 FF 01 FF 00 00 00 00 FF 00 00 00 FF FF 01 00 FF 00 00 00 00 00 00 FF 01 00 00 00 FF 00 00 00 00 00 FF 01 01 00 01 00 00 00 00 FF 00 01 00 00 00 01 00 00 FF FF 00 FF 00 FF 00 00 00 00 00 00 00 00 01 00 FF 00 00 01 00 00 01 00 00 FF FF 00 00 01 FF 00 00 00 01 01 00 00 00 00 00 00 FF 01 00 FF FF 01 00 01 00 FF 00 01 00 00 00 00 FF 00 FF 01 00 00 00 FF 01 00 00 00 00 00 00 00 00 00 01 00 01 FF 00 FF 00 00 FF 00 00 00 00 01 FF 00 00 00 00 00 00 01 01 FF 00 00 00 00 FF 01 FF 00 01 FF 00 01 00 00 00 00 00 00 00 01 00 01 00 00 00 00 00 00 FF 00 00 00 00 00 00 00 01 00 00 00 01 00 01 FF 00 FF 00 00 FF 00 00 00 FF FF 00 00 00 01 FF 00 00 01 01 FF 00 FF FF 00 FF 00 00 01 01 FF 00 00 01 00 00 00 FF 00 00 00 00 01 00 00 00 00 00 00 FF 01 FF 00 00 00 00 00 00 FF 00 01 00 FF 01 FF 00 00 00 01 FF 00 00 00 FF FF 01 00 FF 01 00 FF 00 FF 00 00 00 00 00 00 01 00 01 01 FF 02 00 00 FF FF 00 00 00 FF 00 00 FE FF 01 FF 01 FF 00 FF 01 00 00 00 01 FF FF FF 00 01 01 FF FF 02 00 02 01 01 FF FF 01 01 FF FF 01 01 02 01 00 FD 01 01 01 FF 01 02 00 01 00 00 00 FF 00 00 00 00 03 00 00 01 FE 01 01 FE FF 00 00 FE 02 FF FF FE 02 FF 02 01 02 00 00 01 00 FF FF 01 02 02 FE FE FE 00 02 FF FF 01 FF 00 FF FD 01 02 02 01 FE FE 00 02 FE 02 01 00 02 FF FE 00 FD FE FF FF FD FF 02 FF 03 01 FE 00 FF 00 02 00 01 FF 02 01 FE 01 FF 00 00 02 FF 02 01 FF 01 FE FC FE 01 01 FF FE 01 FE FF FE 01 01 FD 00 00 FE 02 00 01 00 FF 02 01 FF FD 00 01 01 01 00 FF 00 FF FF 01 01 FF FF 01 00 01 01 FF 01 FF FF 00 02 00 FE 02 00 FE 01 01 FF 00 03 00 02 00 00 00 FF FF 01 00 00 FF 00 FF 01 FF 00 01 02 FF 00 FF FE 02 01 02 00 00 FF 00 FF FF 00 FF 02 00 01 FF 02 01 01 02 FF FE 02 02 FE 00 02 FD 01 02 FE 00 01 01 FE 01 FF 01 FF 00 00 02 00 02 00 00 02 FD 00 FE 00 02 00 00 01 FF 01 FF FF FF 00 01 FF 00 FF 01 02 00 00 01 00 00 FF 00 FF 01 00 00 01 FF 00 00 00 02 01 01 00 FF 00 00 00 00 01 01 00 FE 01 00 00 02 FF 00 00 01 00 00 00 00 01 FF 00 FD 02 FF 00 01 00 FF 01 01 01 00 00 01 00 00 00 FF FF 01 00 01 00 FF 00 FF 00 01 00 00 FE 01 01 01 01 FF 01 00 00 FF 00 FD 01 00 FE 02 FF 00 00 00 FE 00 01 00 FE 00 00 01 02 00 FF 01 FE 01 FE 00 00 02 01 01 00 FF 01 01 00 00 00 FE 00 01 FF 01 01 FF 00 00 00 00 00 FE 00 02 01 02 FF 01 01 00 00 FE 00 00 01 00 FF 00 01 02 00 00 00 FE 00 01 01 00 00 01 FE FE 00 01 01 FF 02 01 00 01 FF 01 FF 00 01 01 01 FF FF 01 FF FF FF 00 02 FF 00 00 00 01 00 01 00 FF 00 FF FF FF FF 01 02 FF 00 01 00 02 01 00 01 FF 00 FF FF 02 00 FF 01 00 FF 01 01 02 01 FF 01 00 00 FF FF 01 FE 02 FD 02 02 01 02 FF 00 02 02 01 00 00 00 FF 00 FE FE 00 01 00 00 FF FF FC FF 00 02 FF 01 FF FF 02 01 FE 01 02 01 02 00 00 02 01 FD FE 03 02 01 02 FE 01 01 FE 02 FE 01 FD FD 03 00 00 FE FC FC 03 FF 00 02 00 04 01 00 FF 00 00 02 02 FF 00 FE FF FD FD FD FF 03 FE 02 FE FF FD 01 FE FF 00 FF 00 00 FF 01 00 00 01 FF FE 00 02 00 01 01 00 00 00 00 00 FE 00 00 FF 00 FE 01 FF FE 01 00 00 01 FF 00 00 02 02 FE 00 00 00 00 01 00 FF FF 02 00 00 00 00 FF FF 00 FF 00 01 01 01 FF 00 02 FF 01 01 FF 00 00 FF FF FF FF FF 00 02 FF 00 01 01 00 01 FE FF 01 00 01 FF 01 00 00 FF 00 01 FF FF 00 FF FF 00 00 01 00 00 FF FF 00 00 FF 01 FF 00 00 01 01 FF 00 01 00 FF FF 01 00 FF 00 00 00 FF 01 01 00 FE 00 01 01 01 02 FE 02 FF 00 FE FF 02 FE FF 03 00 01 00 00 03 02 FE FF 01 00 00 01 FF 00 00 FF 00 00 00 01 FF 00 02 02 03 01 00 00 00 00 FE FE 01 00 00 00 FD FC FE FF 00 02 01 01 01 00 01 02 00 01 00 01 FF 01 FF FF FF FE 00 03 01 00 FF FF 01 FF FF FD 01 00 FF FF 00 01 00 00 FF FD 01 FF 01 00 FF 00 FE FF 01 FF 01 01 02 FE FF FE 01 00 FD 00 FF FE FF 01 FE 00 01 02 FE 00 00 01 01 FF 01 FF FE 00 FE 00 FF FF 01 FF 00 02 00 01 01 FF FF 00 00 FF 00 00 00 00 FF 01 FF 00 FF 01 FE 01 FF 00 01 FF 00 FE FE FF 00 FF 01 FF FF 00 01 02 FF FE 01 00 00 FF 01 00 01 01 00 00 00 01 00 FF 01 FD FF 00 FF 00 00 01 00 01 01 FE 01 01 01 00 FE 00 01 01 00 00 01 00 00 00 FE 00 00 02 FF 02 FF 01 01 00 00 FF 00 00 00 FF 00 FF FF 00 00 00 FF FF 00 01 01 00 01 00 01 00 01 FE 00 00 00 02 01 00 FE 00 00 01 01 FF FF 00 01 FE 02 01 FE 01 00 FF 01 00 02 FF 01 00 00 00 FF FF 02 01 00 00 00 01 FE 00 FE FF 02 00 FF 00 00 FF FF FF 00 00 FF 01 00 FF 02 01 00 00 00 01 00 00 FF 00 01 04 02 01 00 00 01 FF FF 01 01 01 FF FF 01 01 02 00 00 FF 00 02 FF FD 01 00 00 00 FF FF 02 00 01 02 FE 02 00 FE 00 00 01 FF 01 00 FF FF FF FF FF 00 FF FD 00 00 01 02 01 01 FF FF FF 01 FF 02 01 00 01 00 00 01 FE FF FF 00 00 FF 00 01 01 01 FF FF 00 00 01 00 01 00 01 FF 00 00 01 01 FF 00 01 00 01 00 01 FE FF 00 01 02 00 FF 01 FF 00 FF 00 01 FF 00 00 FF 00 01 01 00 FF 01 00 00 FF 01 01 00 FF 00 FF 00 FF 00 FF 01 00 FE 00 01 00 00 00 01 FF 00 00 01 00 00 00 FF FF 01 00 01 00 00 00 00 01 FF 01 FF 00 00 00 00 02 00 FF 01 FF 01 00 01 00 00 00 FF 00 00 00 00 00 00 00 FF 00 00 01 01 02 00 00 02 00 01 01 00 00 FF 00 02 01 01 00 FF 00 FF 00 01 00 FF 00 FE 00 00 FF 00 00 00 02 00 FF 01 00 FF 00 00 01 00 00 01 00 FF FF FE FF 00 FF FE 02 00 00 03 00 00 00 00 FE 00 00 01 00 01 00 00 00 04 00 03 02 00 FF 00 FF 02 01 00 FF 00 00 00 FF 00 00 00 FE FF 02 FF FF 02 FF 00 02 01 FF 01 FE 00 00 00 02 00 02 04 FF 00 FD FE 00 00 00 FF 00 01 FD 01 FE 00 01 01 FE 00 00 00 01 FB FE 01 FE FF FE 02 FE FF 00 00 FF 03 FE 00 FF 00 00 FF FD FC 01 04 01 00 01 FE 01 03 FF FE FE FD 03 FD 00 FE 01 FF 00 00 01 00 01 FF 03 00 01 02 01 04 FD FC 00 FC 01 02 01 FF FF 01 03 01 02 FF 01 FF FF FF FE 00 FF 00 FF FE 00 01 01 01 01 FD FE 00 02 01 00 00 00 01 00 01 FE 00 01 00 02 FE 02 00 04 FF 00 FF 01 00 00 FF 00 FE FE FF 00 02 FE 02 01 FF 00 01 FF 01 FF 01 FF FF FF 01 02 FF FE 00 01 04 02 03 01 01 FF 00 01 00 02 FF FF 00 01 FF 01 FF 01 01 FF FD 03 FF 00 01 00 00 02 00 00 02 00 00 FF 00 02 02 FF 00 FF FF 02 FE FC FD FF FD 00 00 FE 00 FF FD 00 01 02 01 02 00 02 01 FF 02 02 01 01 FE FE 00 01 FE 01 03 02 01 00 FC 00 01 01 02 00 01 FF 00 FF 00 01 FF FF FD 04 FF 01 02 02 03 FF 02 FF 02 00 FE 03 FE 00 FE 00 FE FD 00 01 00 FE 02 FF FF FC 02 FF 01 FF 00 02 00 00 FF FF FF FE FF FF 00 01 FE 01 00 01 00 01 00 FF FE 00 FF 00 00 01 00 FE 00 FF 01 01 02 FE 00 01 00 02 FE 01 FF 00 00 FF FE 00 FE 01 00 01 03 FF FF 00 00 01 FF 01 00 01 01 00 FF FF 00 01 00 FE FE FF 00 00 01 00 02 00 00 00 FF 01 02 00 00 FF 00 00 01 00 02 01 FF 02 00 FE 01 00 FF 01 00 01 01 01 01 FF FE 02 01 01 FF 00 FE FF FF FF FF FF FF FE 01 01 00 FF 01 00 01 FF FF FF FF 01 02 FE 02 01 02 01 02 00 00 01 FF FF 01 00 FF 00 02 02 00 00 FE 02 01 FF FF 00 00 01 00 01 FF 01 FF FF 01 FE 02 00 01 00 00 01 00 01 01 00 00 FF FF 00 FE 00 00 FF FF FE FD 00 01 01 01 02 00 00 00 01 00 00 01 FE FF FF FD 00 FF 01 03 00 FF 01 FE 00 00 02 FD 01 00 FF 01 FF 01 02 01 00 01 FF FF 01 FF 02 FE 01 01 FF FF 00 00 02 FF FF 00 02 02 FF 01 01 00 FF 00 01 FF 01 01 00 00 00 00 FE 00 01 00 02 01 00 FE 01 FF 00 02 FF 00 FF FF 01 00 01 FF 00 FF 00 FF FF 00 00 00 00 00 FF 01 FE 01 FF 01 00 FF 01 01 FF FF 01 01 FF 01 00 02 01 00 02 FF 01 02 00 00 01 01 02 FF 01 01 00 FF FE 00 FF 00 00 FF 02 FF 01 00 00 02 FF FF FE 01 01 00 00 00 FF 01 FF 00 00 01 01 FF 00 FF FF FF FF 01 FF 00 FE 01 00 FF FF FF 00 02 00 02 00 01 01 FF 02 00 00 01 00 00 01 02 00 FE 00 00 00 FF 00 02 00 00 00 FF 00 00 01 00 FE 01 01 FF 00 00 FF 01 00 FE 00 01 00 FF 01 00 FF 00 00 FF 01 01 00 00 01 00 00 00 00 01 01 00 00 00 FF 01 00 00 00 00 00 01 00 FF 01 00 00 01 00 FF 00 00 FF 00 00 00 01 00 01 00 00 00 01 00 00 00 FE 00 00 FF 01 01 00 00 FF 01 01 00 01 FF FF 01 00 00 00 FF 01 FF 00 00 FF 00 00 00 00 01 01 00 01 01 FF 00 FF 00 00 00 01 00 00 00 FF FF FF 00 FF 00 00 02 02 FF 00 FF 00 00 FF 01 00 01 00 00 FF 00 01 FF 01 00 FE 01 02 00 00 02 01 FF FF 01 00 01 00 01 00 FF 00 FE 01 01 01 00 01 01 FF 00 02 FF FF 00 FF 01 00 01 00 01 FF FF 00 FF 00 02 00 FF 00 01 00 01 00 00 FF 01 FF 00 FF 00 00 00 00 00 01 00 00 00 FF 00 01 FF 01 00 FF 00 00 00 FF 01 00 00 FF 01 FF 01 00 FF FF FF 00 00 FF 00 00 FF FF FF 01 00 FF 00 00 00 00 01 00 00 00 01 00 FF FF 01 00 FF 02 00 FE 02 00 02 00 FF 00 01 02 FF 01 01 01 FE FF 00 02 FF 00 01 01 FE 00 00 FF 01 02 00 02 00 FF 00 00 FF 01 FF 00 FF FE 00 00 FF 00 FF FF 00 FF FF 01 00 01 02 02 00 00 00 FF FE 00 FE FF 00 01 01 01 FE 00 FF 02 00 00 00 01 01 FD 01 00 FF 01 00 FF 01 FE FF 01 00 FF 00 01 FE FF FF 00 00 00 01 00 01 01 01 FF 00 FF 00 FF 03 01 01 00 01 02 00 01 00 01 01 00 02 FF FE FF 01 FF FF 01 FE FE 00 01 FF 00 01 FF 01 00 FF FE 02 FF FF 01 FF 00 00 FF 00 FF 01 FE 01 02 FE 00 00 FE FE FF FF 02 FE 00 01 01 00 FF FF 01 02 00 FF 01 00 00 FF 00 02 FE FF FF FF 00 00 00 00 00 01 02 00 00 01 01 FF 00 00 00 FF FF 00 FF 00 00 00 01 00 01 00 FF FF 01 00 00 FF FF 01 00 01 FE 01 01 00 FF 01 00 00 01 FF FF FF 00 FF 01 00 00 FE FF FF 00 00 FF FF 00 00 00 01 FF 01 01 01 00 00 FF 02 02 FF FD FE FF 02 02 02 FF 04 00 00 FF FE 01 00 FF 02 00 01 FF 04 FF 00 FF FE 02 FE FF 00 FF 01 01 01 00 00 00 00 00 00 03 01 01 01 FE 00 02 FF FD FD 00 FE FE 01 FF FF 00 FF FF FF 02 00 01 00 00 01 FE 00 00 FD 00 FE FF 01 01 FF 00 FF 02 FF 01 01 FE 00 00 01 FF 01 FF 02 01 FF 00 FF 00 FF 00 00 00 01 01 03 00 FF 00 00 02 00 02 FF 00 00 02 FF FF 01 FE 01 FF FE 00 01 FF 01 01 FF FF FF 01 FE 00 02 00 FF FF 01 00 00 02 FE FF 03 FE 01 01 FF 02 00 FD FF FF 01 01 FF 00 00 02 00 FE FD 00 FE 01 FE FF 01 02 00 FE FF 00 00 01 00 03 01 00 01 01 01 FF FF 00 FF 01 00 FF FF FE 01 03 00 FF 01 01 00 01 00 00 FF 00 FF 00 01 01 00 00 00 00 00 01 FF 01 00 00 FF FF 01 FF FF FF 00 01 01 01 00 00 02 01 FF 00 01 01 00 01 00 FF 00 FF 00 00 FF 01 FF 02 01 FF 00 FF 02 01 00 FF 01 FF 00 01 02 FD 01 00 03 02 03 FF 02 00 FF FE 00 01 FE 00 01 00 01 01 01 02 01 FE FF 01 00 00 01 01 00 02 00 00 00 FE 01 FF 00 02 00 02 02 01 00 00 FF FE FE 00 FF FF 00 FE 00 FE FD 00 01 01 02 02 01 01 01 FE 00 01 02 01 01 FE 01 00 FF FF 01 01 FE 00 01 00 02 00 00 01 00 FE 00 00 00 01 01 00 01 00 00 00 00 00 00 00 01 01 00 02 01 00 FF FF 00 00 00 FF 00 00 01 FD 00 FF FF 01 02 00 01 00 00 00 02 01 00 00 01 00 FF FF 00 01 FF 00 01 00 00 00 00 01 FF FF 00 00 00 FF 00 FF 00 00 00 FF 00 00 00 00 01 00 FF 00 00 00 00 02 00 00 FF 00 00 00 00 FF FF 01 00 FF 00 00 00 01 01 FF 01 FF 00 00 00 00 00 00 FF 00 00 01 00 00 00 00 00 00 00 00 01 00 00 FF 00 00 00 00 00 00 00 00 00 00 00 00 00 00 00 00 00 00 00 FF 00 FF 00 00 01 00 00 01 FF 00 00 00 00 00 00 00 00 01 00 00 00 00 00 00 00 FE 00 01 FF 00 00 00 00 00 00 FF 00 FF 00 00 02 00 00 FF 01 00 00 FF 00 00 01 00 00 FF 01 00 00 00 01 01 01 00 00 FF 00 01 00 FF 01 00 00 00 FF 01 FF 01 01 FF FF FF FF 01 00 00 00 01 00 00 01 FF 00 00 00 00 00 00 01 01 00 00 FF FF 01 00 01 00 00 00 00 00 00 00 FF 01 01 FF 00 00 00 00 01 FF 01 00 00 01 00 FF 00 00 00 FF 01 00 00 00 00 00 FF 00 01 00 00 00 00 01 00 00 00 00 FF 00 00 FF 00 01 00 01 00 00 00 01 01 FF FF FF 00 01 01 00 01 FF FF 00 00 00 00 01 00 00 00 00 FF 00 00 FF 00 00 00 01 00 FF FF 01 00 00 01 00 01 01 FF 01 FF 00 01 00 00 00 00 00 00 01 00 01 FF 01 01 00 00 01 00 01 00 00 01 00 00 00 00 00 00 01 01 00 00 FF 00 00 00 00 00 00 FF 01 00 FF FF 00 00 00 00 00 00 00 01 00 00 01 00 00 00 00 00 00 00 00 00 FF 00 FF 00 00 00 00 00 00 01 01 FF 00 FF FE 00 03 02 00 00 02 FF FF FF FF 02 FF 00 FF 01 03 00 FD 01 01 FE FE FF 01 00 00 01 FD 00 00 00 FF 02 FE 01 FF 00 FF 02 00 01 00 01 01 00 00 FE 00 FD 02 01 FE 00 FE FD 01 02 00 02 01 01 FF 00 00 FE 01 01 00 00 FF FF FE 00 FF 00 01 FF 00 FF FF 02 01 00 00 00 FE 01 01 00 FF 01 FE 00 00 01 FF FF 01 00 00 00 00 00 01 01 00 FF FE 00 00 FE FF 00 01 01 FE FF FE FF 01 02 01 FF 00 01 FE 01 00 FF FF 00 00 01 00 FF FF 02 00 FE 00 00 FF 01 FF 00 01 00 01 01 00 01 01 00 FE 01 01 01 00 FF 00 00 00 FF FF FF 01 00 01 02 FF 00 FF 01 00 00 01 02 00 FF 00 FE FF 01 02 00 01 FF 00 01 00 00 00 00 00 00 00 01 00 00 00 01 FF FF 00 00 00 00 FF 00 00 01 00 00 00 00 01 00 00 00 01 00 01 FF 00 00 00 00 00 00 01 00 00 00 FF 00 00 00 FF 00 00 00 00 FF 00 00 00 00 FF FF 01 00 01 FD 00 02 00 02 01 01 02 FF 00 FD 00 00 02 01 01 FF FF FD 03 FE 00 FF 01 FE FF 01 01 FE 02 00 01 FD 02 FE 00 01 00 01 FE 00 01 01 00 01 02 00 00 00 01 FF FF 01 00 FF FE 01 00 00 FF 01 FF 02 01 FE 01 00 FF 00 00 FF 02 FF 00 FF 00 00 03 00 02 00 FF FF 02 FD 01 FF 00 FF 01 FF 00 01 FF FF 01 FE 02 FE 02 01 02 01 FF FF 00 FF FE FD 01 00 02 FF FE FF FE FE FF FF 01 02 FF FF 00 01 00 00 00 01 01 FF 00 00 FF FF FF 00 FF 01 00 FF 00 00 00 01 00 02 00 00 00 00 00 00 01 FF FF 00 00 00 00 01 00 01 00 FF 00 FF 00 00 00 00 00 FE 00 00 01 FF FF 02 FF FF FF FF 01 00 01 00 FF 00 01 FF FF 01 00 FF 00 00 FF 00 FF 01 00 00 00 FF 00 01 FF 01 FF 00 00 00 00 00 00 00 00 00 FF 00 00 01 00 00 01 FF 01 00 01 FF 01 01 01 00 01 01 FF 00 FF 00 00 01 00 02 FF FF 01 00 00 01 01 FF FF 00 00 FF FE 00 03 01 FF FF FE 00 01 FE 01 00 01 01 FF 01 01 FE 00 00 01 FF 00 00 02 00 FF 01 00 00 00 FF FF 00 00 00 00 00 01 00 FF FF FD 00 02 00 FF 00 03 03 00 01 00 FF 01 01 02 01 01 00 FD FF FF 00 FE FE 02 00 00 FF FE FE 01 FF 01 02 00 00 00 01 01 FF 00 00 00 00 FF 00 00 01 00 FF 00 00 FF 01 FF 00 FF FF 00 00 01 01 FF 00 FE 00 00 01 01 01 01 00 01 00 01 01 00 00 02 01 00 FF FF FF 00 00 00 FE FE 00 FF FF 01 00 FF 01 01 02 FF FF 00 FF 00 01 FF 01 00 00 00 01 00 01 01 FF 00 00 01 00 FF 00 FF FF 01 01 00 FF 00 00 01 00 00 01 02 01 00 FE 01 01 FF 01 00 FE 00 00 FF 00 02 00 01 00 00 00 01 01 00 00 00 00 01 00 00 00 00 00 00 00 00 00 00 00 00 00 00 00 00 00 00 00 00 00 00 00 00 00 00 00 00 00 00 00 00 00 00 01 01 00 00 00 00 01 00 00 00 00 01 00 00 00 00 00 FF 00 00 03 01 FF 01 FF FE 00 FE 00 FE FF 01 00 00 00 02 00 02 FE FD 01 03 FE 00 02 00 00 00 00 FE 01 01 00 00 FF 00 00 03 FF 01 FE 00 00 FF FF 02 FD FF FF 00 02 FF 01 00 00 00 FF 01 00 FF 02 00 FF 00 FF 01 03 02 01 01 00 01 FF 00 00 00 01 FF 00 00 00 01 00 FF FF 00 01 00 FF 01 00 FF 00 00 FF 01 01 01 00 FF 00 01 FF 01 02 00 FF 00 01 FF 02 FF 01 00 00 02 00 01 00 01 01 00 00 01 FF 00 00 00 00 01 01 FF 01 01 01 01 00 FF 00 01 FF 01 02 00 01 FF 00 02 FF FF 00 01 00 FF 00 FF FF 01 00 00 00 01 FF 01 02 00 FF 00 01 01 00 02 FF FF 00 01 FF FF 00 00 00 00 FF FF 00 00 00 00 00 FF 02 FF 00 00 01 00 FF 00 00 00 00 00 00 FF 01 01 FF 01 00 00 00 00 00 01 00 00 00 00 00 01 00 FF 00 00 00 FF 00 00 00 00 00 00 FF 00 00 FF FF 00 FF FF FF 00 FF FF 00 FF 00 00 00 00 00 00 01 00 00 FF 03 FF FE FF FD FE FF 00 01 FE 02 00 02 FF FE 01 00 02 01 FB 01 02 01 FF 02 00 02 00 00 FD 00 01 02 FD 00 00 FF 03 FE 00 FE FF FE 02 00 FF FF FE 00 00 01 01 01 00 01 01 FE 00 02 01 FF 02 FF 00 FF FE 02 FF 01 02 03 02 01 01 FE FE 02 02 00 FE 00 FE 00 02 FE 00 00 01 FF FF FE 02 FF 00 02 01 FF 03 00 01 01 FE 00 FE 02 01 00 01 02 00 03 FF 00 FF FE 02 FF 01 00 FE FF FE 00 03 FF 00 00 02 00 00 01 01 FF 00 FF FF 00 01 FF FE FF 01 00 FF 01 00 FE 00 00 01 02 01 00 00 02 FF 02 FF FD FF FE 00 FE 02 01 02 00 00 02 01 00 01 00 FF 00 FD 00 01 00 00 03 01 FF 00 01 FF 01 FF 00 FF 01 FE 00 FF 00 01 FF 00 00 00 00 00 FF 00 01 00 00 00 00 00 00 01 FF 00 FF 00 00 00 00 00 FF FF 01 00 00 FF 01 00 00 00 00 01 FF 00 00 00 00 FF 00 00 00 00 01 00 FF 00 00 00 00 00 00 01 00 00 00 01 FF 00 01 FF FE 00 FE 02 FF FE 01 00 00 00 FE FF 00 01 03 FE 00 00 03 FF FE FF 02 FF FF FF FE 02 03 FE 00 00 00 02 FE 01 00 00 FF 02 FF FD 01 01 01 00 00 01 01 FE FF 01 00 01 02 00 FE 03 01 FF 00 FF 00 FF FE 02 01 03 FF 00 02 FF 03 FF FE 00 FE 00 03 FF FF FF 03 FF FF FF 01 00 FE FF 01 01 03 FF 01 FF 00 FF FF 00 01 02 01 02 02 FE 02 FF 01 FE FE 02 FF FF 01 FF FD 00 00 02 FF 01 02 01 FF FF 00 FF 00 01 00 01 02 01 FF FF 00 00 00 FF 00 FF 00 01 01 00 FF 01 01 00 00 01 00 00 FF 00 FF 00 FE 01 FF 00 01 01 02 FF 00 00 02 00 01 00 01 01 FF 02 03 00 00 00 01 00 01 00 FF 00 00 02 FF FE 01 01 FF 01 FF 01 FF 01 FF FF 01 00 FF 00 01 00 FF 00 FF 01 01 00 FF 00 01 00 00 FF 00 01 FE 00 00 00 01 01 01 00 00 00 00 00 00 FF 01 FF 01 00 00 01 01 00 01 00 01 FF 01 01 00 FF 00 FF FE 01 FF 00 00 00 FF 00 00 00 00 01 FF 00 01 FF 01 00 00 01 FF FF 00 FF 00 00 FF FF 01 00 FF 00 FF 00 FF 00 00 00 01 00 FF FF FF FF FF 00 00 01 00 00 00 00 FF 00 00 01 00 01 00 00 00 00 00 01 FF 00 00 00 00 00 FF FF 00 01 00 00 FF 00 00 00 01 00 00 FF 00 00 FF 00 01 01 00 FF 02 00 00 00 FF 00 00 00 00 00 00 00 00 FF FF 00 00 01 01 FF 00 00 01 01 00 01 00 00 01 00 FF 01 00 FF FF 00 00 00 00 00 01 01 00 00 00 FF 00 00 FF 00 01 FF 00 00 00 01 00 00 FF 00 00 00 00 FF 01 01 00 00 00 00 00 FF 00 FF 00 00 01 FF 00 00 00 00 00 00 00 00 00 00 FF 01 00 FF 00 FF FF 00 00 00 01 00 FF 00 00 00 00 01 00 00 FF 01 00 00 00 00 01 00 00 00 FF 01 00 FF 01 FF FF 00 00 00 00 01 00 FF FF 00 00 00 00 00 01 00 00 00 00 FF 01 00 01 00 00 00 00 00 00 00 00 00 01 00 00 00 00 FF 00 00 01 FF 00 00 FF FF 00 01 00 FF 00 01 01 00 00 01 01 01 FE FF 00 01 00 FF 00 FF 00 01 00 FF 00 00 FF 00 01 FF 01 01 01 01 FF FF FF FF 00 01 FF FF FF 00 00 FF FF FF 01 00 00 01 01 00 01 00 FF FF FF FE 01 01 01 02 02 01 FF 02 FE FD 01 01 01 FE 00 FE 00 01 FF FE 00 FF FE FF 00 FF FE 02 02 FF 02 00 01 01 FF FE FF 00 02 01 FF 00 02 FF 02 00 01 02 00 02 00 FF 00 FF 00 01 01 02 FE FF 00 01 02 00 01 00 FF FF 00 FF FF 00 00 FD 01 02 FF 02 01 FD 01 00 FE 01 00 00 FF 02 00 00 00 00 01 01 02 00 02 00 01 00 FE FC FE 01 01 00 FF 00 FE 00 FE 00 00 FE 00 FF FE 01 FF 00 FF 01 01 01 FF FD 00 00 00 00 00 00 00 01 00 00 01 00 01 FF 00 00 00 00 01 00 00 00 01 00 00 00 FF 01 00 00 FF 00 00 01 01 FF 00 00 01 00 00 00 00 00 00 00 00 01 00 FF FF 00 FE 00 01 00 FF 00 FF 00 00 00 FF 00 00 FF 03 00 FC FD FC 00 FD FF 02 00 00 01 FD 03 02 01 00 FD FF 02 01 FE 00 00 04 01 00 FC FE 03 FF FF 00 01 03 06 FF FF FD 02 FE 02 FF FE FE FC FF 02 01 FE 02 FD 01 02 01 FE 05 00 00 00 FE FC 00 00 02 01 FF FF FF 00 FE 02 01 FF 00 02 00 03 03 01 FF FF FF 01 01 FF FF 01 FF 00 01 FE FF FE FF 01 00 00 03 01 01 FF FF 00 FF FF 00 01 FF FE FE 00 00 FD FE FE 00 01 03 FF 00 00 01 FE FE FD 01 01 00 00 01 00 00 01 00 FF 00 00 00 01 01 01 00 00 FF 00 FF 01 FF FF FF 00 00 FF 00 FF 00 00 01 01 00 00 01 01 FF FF 00 00 00 00 FE FF 00 01 FF FF FF FF FE 01 FF 00 01 00 FF FF 00 00 01 FF 00 00 00 00 00 FF 00 01 00 00 00 00 01 00 FF 01 FF 00 01 00 00 00 00 00 00 00 01 01 00 FF 00 00 02 FF 01 FF 00 FF 01 00 FF 00 00 00 01 00 FF 00 00 00 FF FF FE FF 00 FF FF 01 FF 00 01 01 00 01 00 FD 03 01 FD FD FC FE FF FF 00 01 00 01 FD 01 03 01 00 FE 01 02 FF 00 01 02 03 FF 02 FC FD 03 FF FE FF FF 03 04 00 01 FD FF FF 00 FE FE FE FD 00 02 03 00 02 FF 01 02 01 FE 04 02 00 FF FD FC FF FE FF 00 00 FE 00 FE 02 01 00 FF 00 FE 00 FE 00 FF 03 01 01 FD FE 00 01 01 FF 00 FF 01 02 00 00 FE 01 FF FE FE 00 01 00 01 00 00 02 01 01 01 01 02 02 01 01 FE FF 01 FE 00 01 02 FF 00 FF 02 01 01 FF FF 00 FE 00 FF 01 FE 00 02 FF 00 01 01 FE FF 01 00 FF 00 FE 00 01 FF 01 FF 00 00 01 01 02 FD 01 FF FF 00 FE 00 FE FF FF FF FF 00 FE 02 00 01 01 FF 00 FF FF 00 FE 02 FE 02 01 01 01 01 00 FF 00 01 00 FF 00 01 FF 00 FF 00 01 01 00 01 00 00 00 00 FE 01 FF FF FF 00 01 FF 01 FF 00 01 00 FF 01 FF 01 01 FF FF FE FF FF FF FF 00 FF 01 00 01 00 FF FE 00 00 01 00 00 00 02 01 01 00 FF 00 00 01 00 FE FF FE FF 00 00 01 01 00 02 FE FF 02 01 00 FF 01 01 FF 00 01 01 01 FF 02 FF FF 01 01 FF 01 00 00 01 00 01 00 FF 00 FF FE FF 01 00 01 00 02 01 00 01 02 02 00 00 01 00 00 01 FF FE 00 FF FE FF 01 01 FF FE 00 01 00 00 FF FF 00 FE 00 00 01 01 02 FF FF 01 01 01 FF FF 01 02 00 FE FF FE 00 FF FF FE 02 01 01 FE 01 00 00 01 01 01 02 00 00 02 01 02 01 00 00 00 00 FF FF 00 FF 00 FE 00 FE FE 01 01 FF 00 00 FF 01 01 FF FE 00 FD FF 01 00 01 02 FE 00 FF 01 FF 01 FF FF 03 00 FE FF FE FF 00 FD FF 02 02 01 FE FF 00 01 00 02 03 02 01 00 02 00 00 01 FF FE 01 00 FF FE 01 01 02 00 00 00 01 01 01 00 00 FE 00 FF 00 00 00 02 00 00 00 FF 01 00 00 00 00 FF FF 01 FE 00 01 00 FF FF 00 00 FF 00 01 00 00 01 00 00 01 01 01 00 01 00 00 00 00 FF 02 00 00 FF 00 00 00 00 FF 01 FF 02 00 00 FF 00 01 02 FF 00 FE FF 01 FE 00 02 FF 02 FF 02 02 01 FE 01 03 00 FD 00 FF 00 00 01 FD 02 FF 02 FE 02 01 FE 00 00 FF 02 03 00 FF FF 01 00 00 00 01 FF 03 01 FD FE FE FF 01 01 01 01 00 02 00 FF FF FF 01 01 FF 00 00 00 01 FF FE 00 FE FF 02 01 00 03 00 00 02 02 FE 00 00 02 FF 00 FE 01 FE 01 FD 00 01 00 02 01 FD 01 01 00 00 01 FF 02 01 00 02 00 03 03 FE FE FE FE 02 01 02 FF 00 FF 01 FF FE FF 00 FF 01 01 00 01 03 00 FF 00 FF FF 02 01 FF 00 FE 00 FF 01 00 FF 01 01 FF 00 00 00 FF FF FF 00 01 00 03 00 FF FE 01 00 FF 01 00 01 00 00 01 FF 00 02 00 00 FF 00 01 FF 00 00 01 FF 01 FF 00 00 00 01 00 00 00 00 00 00 FF 00 00 00 01 FF 00 00 FF 00 00 00 00 00 01 00 FF 00 FF FE 00 FF 00 FF 00 01 00 FF 00 FF 00 01 01 FF 00 FE 00 FF FF FF 00 01 FF 00 FF 00 00 01 FF 00 01 FF 03 00 FF 02 00 01 01 00 00 00 03 FE 00 03 01 FF 00 01 01 00 FE 01 02 FF 00 FE 00 FF 02 00 FF 01 02 00 FE 01 FE 00 00 00 00 02 00 FF 02 00 02 FF FE 00 FE FC 01 01 FE FF 01 FC FE 01 00 02 02 00 01 00 01 00 01 00 00 00 01 FF FF FF 00 01 02 FE 01 FF FE 00 02 01 00 00 FF 00 FF 02 00 FF 00 00 00 FE 01 FE 00 00 00 00 00 00 FF 00 01 FF FF FF FF FF FE 00 01 00 FF 00 00 FD FE 02 00 01 00 00 01 00 00 00 00 FF 00 FF 00 FF 01 00 01 00 02 FF 01 00 FF 01 01 01 01 FF 00 00 FE 02 00 00 01 01 00 00 FF 00 01 01 00 00 FF 00 FE FD 01 00 FF 00 00 00 FE FD 01 02 00 FF FF FE 00 02 01 00 FF 00 00 00 FF 01 01 00 00 01 00 FF 00 00 01 01 FF 00 FF 00 01 FF 00 00 01 00 00 00 FF 00 01 00 00 FF 00 FE 01 FF 00 00 00 01 00 00 FF 00 00 01 00 00 00 00 00 01 00 FF FF 00 00 00 00 00 00 01 00 00 FF 02 FF 00 FF 01 01 00 FF 01 02 01 00 00 01 00 01 01 FF 01 FF 00 00 00 00 00 00 FF 01 01 01 01 00 02 FD 01 FF 01 00 00 00 00 00 01 01 FF 00 00 01 00 FF FF FE 02 FF 00 01 00 00 00 00 00 01 01 00 02 FE FF 01 01 04 00 FD 01 FF 00 FF FE 01 FD 00 04 FF FF 01 02 02 00 FD 02 FF FF 00 00 02 03 FF FE 01 00 02 FE FF 00 02 00 04 00 FE 00 00 01 FE FE 00 02 FF FF FE FD FF 00 01 01 03 04 00 01 00 FF 00 FE 00 00 01 02 02 01 FE 01 FF FF 01 FF 01 FF FE 01 01 00 01 01 00 FF 01 01 FF 01 01 FF 02 FE 01 00 00 01 00 01 02 01 00 01 01 00 FE FF FE 00 00 02 00 01 00 00 FE FF 00 01 FF FE 00 00 00 00 00 00 FF 00 FF 01 01 00 FF 00 00 01 00 00 00 00 FF 00 FF 00 00 00 01 00 00 00 00 00 FF 00 00 01 FF FF FF 00 00 00 00 00 FF 01 00 01 00 00 00 02 FF 00 FF 00 01 01 00 00 01 FF FF FF 00 00 00 00 FF FF FF FF 00 01 FF 01 01 00 00 00 00 02 00 FF FF 00 FF 00 FF 00 00 FF 02 00 FF 00 FF FF 01 01 00 01 FF 01 00 FF 00 00 FF 00 00 FF 01 FE 00 FF FF FF FE 00 01 02 00 01 FF FF 00 FF 00 01 00 02 00 00 FF 00 FF FF FF 00 02 01 02 FF 00 03 01 FF FF FF 01 01 FF FF 01 00 FF FF FF FF 01 01 00 02 FE 02 02 FF FF FF 01 00 FF FF FF FF 01 FF FF 00 00 FE 00 00 02 02 01 01 FF FF 00 00 FD 00 01 00 FF 00 00 FF 00 00 FF 02 01 00 00 00 01 01 01 01 FF 01 00 01 00 01 00 00 FF 00 00 00 FF 00 02 00 00 01 01 01 00 01 02 01 01 00 00 00 01 00 FF 00 00 00 FF 01 00 00 00 00 FE FF FF 00 FF FF 00 00 01 01 00 00 00 00 00 00 00 00 FF 01 00 00 00 00 00 00 00 00 00 00 00 00 FF 00 01 00 00 00 00 00 FF 00 FF 00 00 01 00 00 00 00 00 01 00 00 00 00 00 00 01 00 00 00 01 00 00 00 FF 00 00 00 01 00 01 00 FF FE 00 FF FF 01 01 00 00 00 01 FF 03 FF FD 00 00 FF FD 00 01 00 FF 01 00 FE 01 FF FF FF 00 FF 01 00 02 FF FE FE FF FF 00 00 01 00 00 01 FF FF FF 00 02 01 02 01 00 FF 00 FF 00 FF 01 01 01 02 00 00 FF FF FF 01 00 00 00 00 FF FF 01 01 01 FE 00 00 00 FF 01 FF FE FF 01 00 01 02 01 00 01 00 01 FE 01 02 02 00 00 00 FF 01 00 01 FE 02 01 FF 00 FF 01 01 01 01 00 FF FF 02 FF 01 02 FF 00 00 FF FF FF 00 FE 00 01 FE 00 02 00 00 00 00 00 FF 01 00 01 01 00 00 FE 00 00 01 00 01 00 FF 01 00 02 FE 01 01 00 00 01 FF 01 00 00 00 00 02 00 01 00 FF FF FE 00 00 01 00 FF 00 00 01 00 00 00 FF 00 01 00 00 FF 00 00 FF 00 01 01 00 00 00 FF 00 00 00 00 00 FF 00 00 00 FF 01 00 01 FF 01 FF 01 01 FF 00 FF 01 00 00 00 00 FF FF FF 00 00 FF FF 00 00 00 00 FF FF 01 01 00 00 FF 01 FE 01 02 01 00 02 00 00 01 FF FF 03 00 00 00 01 00 FE 00 00 01 00 FF FF 00 FF 02 FF FE 01 00 FF 02 00 FF FF FE FF 00 01 02 FD 00 04 00 00 FE 00 FF 00 01 01 00 FF 00 02 01 03 01 FE FE FE 00 FD 00 FE FF 03 02 00 00 03 04 01 FD 00 FF 00 FD 00 FE 01 04 FF FE 00 01 00 02 FD 00 00 02 00 FF FD 02 FD 03 FF FD 03 01 04 00 02 FE 01 01 03 01 01 01 FF 02 01 00 FF 01 01 FF FF FF FF FE 00 04 FD FF 00 FF 00 02 01 01 00 00 FF 00 00 FD 01 FE FE 02 FE 01 01 FF 00 00 00 FE 00 01 FF 01 00 FF FE 01 FE 01 FF FF 01 03 02 FF 00 00 01 00 01 00 01 00 FF 01 02 01 01 FE 00 FF 00 00 FF 00 01 03 00 00 02 FE FF 00 01 02 FF FE 00 00 01 02 FD 01 01 FF 01 00 FE 01 FF 01 FF FF 01 01 FF FE 00 02 01 FF 01 FF 02 02 FF FF FE 01 00 01 FE FE FE FF FF 00 FF FF FF FF 00 00 00 FE 00 01 02 02 00 FE 00 00 01 FE FE 00 FE 01 00 00 04 00 01 FE FF 01 01 01 02 FE 00 FF 04 FD 00 FF 01 02 FF FE FD FF 00 00 01 FF 01 01 01 00 00 01 FF 03 02 FF 01 FF FF 00 FE 00 00 FE 01 01 00 FF 02 FF FF 01 00 FF FF 00 FE 00 00 01 FE 01 FF 02 01 01 01 FE 00 FF 01 01 FF 00 02 FE 03 FE 01 00 00 02 FF 01 FE FC FE 00 00 FF FF FE 05 01 00 FE 01 FE 01 02 01 01 00 01 FE 01 00 FF 02 FF FF 01 00 FD FF FF FF 02 FF FF 00 01 00 00 01 01 00 00 FE 01 01 00 02 00 00 01 FE 01 FF FF 00 00 00 FF 01 01 FF FF 00 FF FF 00 00 FF 01 00 00 01 00 00 FF 01 01 01 00 00 01 01 FF 00 FF 01 01 FE 00 00 01 01 00 FF 01 00 01 FE 02 01 FF 01 01 01 FF FF FE 00 02 01 FD 00 01 01 00 FF 00 03 00 01 FF FF 02 FF 00 FE 00 02 01 00 01 FE 03 02 FF FF FF 00 00 01 FF FE 00 FD 01 00 00 01 FF 02 02 FF 00 FF 01 01 01 01 00 FE FF 01 00 FF 00 FF FF 00 01 FF 01 00 FF FF 01 00 FF 00 00 00 00 00 00 00 01 00 00 00 01 00 FF 00 FF 01 FF 01 00 00 01 00 00 FF FF 01 00 00 01 00 00 00 00 00 00 00 FF 00 FF FF 00 00 00 00 00 01 00 02 02 FD 01 00 00 FF 02 FD 02 02 FC FE 01 FF 00 00 02 01 03 FF 01 02 02 FE 00 FE 02 01 FF FE FE 01 00 00 00 01 01 01 01 FF 00 04 00 01 00 00 00 01 00 00 00 01 00 FD FD FE FE 00 01 00 00 00 00 01 01 FE 01 02 00 00 01 FE 01 01 FD 00 02 00 00 00 01 01 00 FF FF 01 01 FF 00 FF 01 02 FF FF FF 00 00 00 00 00 00 01 01 FF 00 02 00 00 FF 01 00 00 FF 00 FF 00 00 FF 00 FF 00 FF 00 00 01 00 00 FF 00 00 00 00 00 00 00 00 00 00 00 00 01 FF 01 00 00 00 01 00 01 00 00 00 00 00 00 01 00 FF FF 00 00 FF 01 00 00 00 01 00 00 00 00 00 01 00 01 00 00 01 00 00 00 00 01 00 01 FF FF 00 00 FF 00 00 00 00 00 01 00 00 00 00 00 00 00 00 00 00 00 00 01 00 00 00 00 01 00 00 00 00 00 00 00 00 00 00 00 00 00 00 00 00 00 00 01 00 00 00 00 00 00 00 FF 00 00 00 00 FF FF FF FF 00 00 00 00 00 00 00 00 00 00 00 00 00 00 01 00 00 00 FF 00 00 00 00 01 00 00 00 00 00 00 00 00 00 01 00 00 00 00 00 00 00 00 FF 01 00 00 00 00 00 00 00 00 FF 00 00 00 00 FF 00 01 00 00 00 FF 00 00 00 00 00 00 01 00 00 00 01 FF 00 00 00 01 00 00 00 00 01 00 00 00 00 00 00 00 00 00 00 00 00 00 00 00 FF 00 00 00 00 00 00 00 00 00 00 00 00 00 00 00 00 00 00 00 00 00 FF 00 00 00 00 FF FF 00 00 00 00 01 00 FF 00 00 00 01 00 00 FF 00 00 01 FF 00 00 00 00 00 00 00 00 00 00 00 FF 00 00 00 00 01 00 00 FF 00 00 00 00 00 00 00 00 00 00 01 00 00 00 00 00 FF 00 00 01 00 FF FF 00 00 00 00 00 00 00 00 00 00 00 00 00 FF FF 00 00 00 00 00 00 00 00 00 00 00 00 00 00 FF 00 00 01 00 FF 00 00 00 01 00 FF FF 01 00 02 FF 01 01 00 00 00 FF FF 00 00 01 00 01 00 01 00 00 01 01 01 00 01 FF 00 00 00 FF 00 FF 01 01 00 FF FF 00 01 00 00 00 FF 02 FF 00 01 01 01 FF FE FF FF FF 00 FF FE 00 01 01 FF 00 FF FF 01 FF FF 00 02 02 00 FF 00 01 00 01 01 01 00 02 00 01 FF FF 01 00 01 01 01 FF FE 01 01 00 FF FF FF FF 01 02 02 00 FF 00 01 01 01 FF FF 01 00 00 01 00 01 00 00 00 FE 00 01 FE FF 00 01 00 00 01 FF 02 01 FF 00 00 FF 01 FF FF FE 01 02 00 FF FE 00 FF 01 01 00 01 FF 00 00 FF 03 01 00 00 00 00 FE FF 00 00 01 00 FF 00 00 01 00 FF 00 FF 00 01 00 00 00 00 00 00 FF 00 01 01 00 00 01 FF 00 00 FF 01 00 00 00 FF FE 00 01 FF FF 01 01 00 00 FF 00 FF 00 00 00 FF FF 00 01 00 02 01 01 01 00 FF 01 00 FF 01 FF 01 00 FF FF 01 02 FF 00 01 FF 00 00 00 01 FF 01 00 02 FF 00 00 00 02 01 01 FF 01 00 00 00 FF 00 FF 00 00 FE FF 00 00 00 00 00 01 00 FF 01 00 01 00 01 00 01 00 00 FF 01 01 FF FF 04 01 01 01 FE FF 03 FE FF 01 02 00 00 01 FF FF 00 FF 01 00 FF FE 03 FE FF 01 00 02 FF 02 00 02 FF 00 FE 00 FF 00 00 00 FD 00 00 01 FF 00 00 01 00 FD 03 01 01 02 02 FF 01 00 FE FE FF 00 00 00 01 00 01 00 00 00 01 FF FF 00 00 00 01 01 00 FF 00 01 02 01 01 00 00 00 FF 01 00 FF FF FF 02 FF 00 01 01 01 00 01 00 00 00 01 01 00 FD 00 01 00 00 02 02 01 00 02 FF 00 FF 00 FF 00 FF FF 00 01 00 01 00 00 00 00 00 00 00 FF 00 01 01 00 00 00 01 FF 00 01 00 00 00 00 00 00 00 FF 00 FF 00 00 01 01 01 00 00 00 00 00 00 00 00 FF 00 FF 00 00 FF 00 00 00 00 00 FF 00 01 01 FF 01 00 00 FF 00 03 00 00 00 FE FF 01 FE 00 00 00 00 00 01 00 FE 00 00 00 00 00 FF 01 00 FF 01 00 01 00 00 00 00 00 00 00 FF 00 00 FF FF FE 00 01 00 FF 00 01 01 00 FF 02 01 00 01 01 00 00 FF FF 00 FF 00 00 01 FE FF 00 00 01 00 FE 02 00 00 FF FF 00 FF 00 02 FF 00 00 01 00 00 FF 01 01 FF 00 00 01 01 00 00 00 00 01 FF 00 00 01 00 03 01 FF 01 00 00 FF FE 00 01 FF 00 FF FF FF 00 FF FF 02 01 00 FF 01 00 FF 01 00 FF 00 00 FF 01 01 FF FF 01 00 FF 00 01 01 00 FF 00 00 01 00 00 00 00 00 00 FF FF 00 FF 01 00 00 01 01 00 00 00 01 FF 01 00 00 00 00 01 00 01 FF 00 FF FF 00 00 FF 00 FF 01 01 00 00 00 00 00 00 00 00 00 FF 01 00 00 00 00 00 00 00 00 00 00 00 00 00 01 00 00 01 FF 00 00 FF 00 00 00 00 00 01 00 00 00 00 00 01 00 00 FF 00 00 00 FF 00 00 00 00 00 00 00 00 00 00 00 00 00 FF 00 01 00 00 00 01 00 00 01 00 FF 00 00 FF 00 00 00 01 FF 00 01 01 01 00 00 00 00 01 00 00 00 01 00 00 00 00 FF 00 FF 00 00 00 01 00 00 00 FF 00 00 FF 00 00 01 00 00 00 FF FF 00 01 01 00 00 00 00 01 00 00 00 00 00 00 00 00 00 00 00 FF 00 00 00 01 00 00 00 00 01 00 00 00 01 00 00 00 00 00 00 00 00 01 00 00 00 00 01 00 01 00 00 00 00 00 00 00 00 00 00 00 00 00 00 00 00 00 00 00 00 00 01 00 01 01 01 00 00 00 01 00 00 00 FF 00 01 FF 01 00 00 00 00 00 01 00 00 FF 00 00 01 00 FF 00 00 00 00 FF FF 00 00 01 00 01 00 00 01 00 00 00 00 00 00 00 01 00 FF 00 00 FF 00 01 00 00 00 00 01 01 01 01 01 00 00 FF 00 00 00 00 FF 01 01 00 01 00 00 00 00 01 01 00 00 00 FF 01 01 00 FF 00 01 00 00 00 00 00 00 02 00 00 01 01 01 00 00 00 00 00 00 00 00 00 FF 00 00 00 00 00 FF 01 00 00 01 FF FF 00 02 00 01 FF 00 01 00 FF 00 01 01 00 00 00 01 00 FF 00 00 00 FE FF 01 FF 00 FF FF FF 01 FF 01 01 01 01 00 00 00 01 00 00 00 FF 01 FF FE FD FF FF 00 01 FF 01 FF FE FF 01 00 01 01 01 00 00 00 FF 00 01 00 00 00 00 00 00 01 00 01 01 00 FF 00 00 00 00 FF 00 FF FF 01 00 FF 00 FF FF 01 01 FF 01 01 00 00 FF 00 00 FF FF FF FF FF FF 00 FF FF FE 00 01 00 02 FF 00 FF 01 00 FF FF 01 00 FF FE 00 FF 01 00 01 FF 00 01 01 00 FF 00 FF FF 01 00 FF 00 FE 01 02 00 00 01 FE 00 01 01 00 00 FF 00 FF 00 00 00 FF 00 01 00 00 00 00 02 01 FF FF 01 01 FF FF FF FE 01 00 00 00 02 01 01 01 01 FF 00 00 00 00 00 00 FF 00 01 00 FF 00 00 00 01 00 FF 00 00 01 00 00 FF 00 00 00 00 00 00 00 00 FF 00 FF 01 00 00 00 00 00 00 00 00 00 01 01 FF 00 00 00 00 00 00 FF 00 00 FF FF 00 01 01 FE 00 00 FF 01 00 00 02 00 01 FF FF 01 01 00 01 FF FF FF 02 FE FF FE 01 FF FF 00 02 FF 00 00 01 FD 00 FE 01 FF FF 01 FF 00 02 00 00 01 02 00 00 00 00 FF FF 01 FE FF FF 00 FF 00 00 01 00 01 02 FF 01 02 FF 00 FF FF 01 00 00 FF FF 00 03 00 02 01 FE FF 01 FD 01 FF 00 FF 02 00 01 02 FF FF 02 FD 01 FF 03 01 01 00 FD FE 01 FF FF FE 01 FE 00 FE FF FF FD 00 FD FE 02 02 FF 00 00 02 00 00 FF 01 01 FF 00 FF FF FF FF 00 FF 00 00 FE 00 01 00 01 00 00 FF 01 00 01 00 00 01 00 FF 01 00 FF FF 00 00 00 01 FF 01 00 00 00 00 00 00 FE 00 FF 00 FF 00 02 FF 01 00 FF 01 00 00 00 FF 00 00 FF FF 00 01 FF FF 00 00 00 FF 01 FF 00 00 FF 00 01 FF 00 00 00 FF 00 00 01 00 01 00 FF 00 00 00 00 FF FF 01 FF 01 00 01 00 00 01 00 00 01 01 00 00 00 00 FF 00 00 01 00 FF 00 00 00 00 00 00 FF 00 00 FF FD 00 04 01 FF 00 FE FF 03 FD 00 02 01 00 FE 01 00 FE 01 00 00 FE 00 FF 02 00 FF 00 00 01 00 01 FD 01 FF 00 FE 00 01 01 FF FF FD 01 01 01 FF 01 03 03 01 00 02 01 01 01 02 02 02 FF FE FF FF 00 FF FD 00 00 00 00 00 FF 01 00 FF 02 00 FF 01 00 FF 01 00 FF FF FF FF FF 00 00 01 FE 00 01 00 01 FE 01 FF FF FE FF FF FF 00 00 FF 00 00 00 02 FF 00 FF 00 FF FE 00 01 FF 01 00 02 00 02 01 01 01 00 FF FF FF FF 00 01 00 FE 00 00 01 00 FE 02 FF 00 01 FF 01 01 00 01 00 FF 02 01 FF FF 00 01 00 FF FF 00 00 02 00 FF FE 01 00 01 00 00 FF FF 00 00 FF 00 01 00 00 FF FE 00 00 00 01 02 00 00 00 00 00 00 00 00 00 00 00 00 00 01 00 FF 01 00 01 00 FF 00 00 FF 00 00 00 00 00 00 00 00 00 FF FF 00 00 00 00 00 00 00 00 00 00 00 01 01 00 00 00 00 00 00 00 00 00 00 00 00 00 00 00 FF 00 00 02 00 00 01 00 FE 01 FE 00 FE FF 00 00 00 00 01 00 01 FF FE 01 01 FF 01 01 FF 00 00 FF FF 01 01 02 00 00 00 FF 01 FE 01 FF 01 00 00 FF 00 FE FF FF 01 02 FF 01 00 00 00 00 01 00 00 01 00 FF 00 00 00 01 00 01 01 00 01 FF FF 01 01 01 00 00 FF 00 01 00 00 01 00 01 00 00 01 00 FF FF 01 FF 00 00 01 00 FF 00 01 00 01 02 FF 01 00 FF 00 02 01 02 FE 00 02 00 01 01 00 00 01 01 FF FE 00 01 00 00 01 00 FF 00 01 00 00 FF FF 01 01 FF 01 01 FF 00 00 00 01 FF FF 01 00 00 00 00 FF FF 01 00 FF 01 01 FF 01 01 01 FF 01 01 01 01 01 FF 00 00 00 01 FF 01 00 01 FF 00 00 00 00 00 00 FF FF 01 FF 00 00 00 00 FF 00 00 01 00 00 00 01 00 FF 00 00 00 01 FF 00 00 00 00 FF 00 FF 01 01 00 FF 00 FF 00 FF 00 FF 00 00 01 00 FE FF FF 00 00 00 FF 01 FF 00 FF FF FE 00 01 00 00 00 00 00 00 00 00 00 01 00 FF 00 00 FF 00 FF 01 FF 01 00 FF FE 01 FF 00 01 01 FF 01 FE 00 FF 00 00 00 00 01 FF 01 FE 01 FE 00 00 FE FF FF 01 FF 00 FF 02 01 00 00 00 00 00 01 00 00 FF 00 00 FE 00 01 00 FF 01 FF 01 FF 00 02 00 03 01 01 00 02 01 FF 00 01 01 00 FF 00 FE 01 03 FF 00 FF 03 00 02 FE FF 00 01 02 02 00 02 FF 00 02 FE 01 FF 02 02 01 00 01 00 02 00 01 FE 00 02 00 01 FF 00 00 00 00 00 00 FF 01 01 00 00 02 02 00 FF FF FF FE 00 00 00 FF 01 FE 01 01 00 00 00 01 02 01 02 FF 02 02 FF 01 00 FE 01 00 00 00 FF 00 01 00 FF FF 00 01 FF FF 01 FF FF 00 01 00 FF 02 01 00 01 01 01 00 FE 01 01 FF FE FE 00 00 00 00 00 00 01 00 01 00 00 00 00 00 00 00 FF 00 01 FE FE FF 00 FF 00 00 01 00 00 00 00 FF FE 01 FF 01 FF 00 00 FF FF FF FF 00 00 00 01 00 01 00 00 FE FF 00 01 01 00 00 02 00 00 00 00 FE 01 01 00 00 FF 01 01 01 01 00 00 FF 00 02 00 01 00 FF 00 FE FE 02 FE FE 00 FF 00 00 FE FF FE 00 01 00 01 01 FF 00 01 FF 00 FE 00 01 FF 00 00 FE 00 00 FF FE FE 00 01 02 00 00 00 FF FF FF 00 FF 00 01 00 01 02 01 01 00 00 00 00 00 FE 01 00 FF 00 00 00 00 00 02 01 00 FE 01 FF FF 00 01 FF 00 01 FE 00 01 00 00 00 02 01 01 03 03 00 00 FE 00 00 FF 01 02 01 00 FE FF FF 01 00 00 FE 02 00 01 FF FF 00 FF 00 01 00 01 FF FF 00 01 00 FE 00 FF 01 FF 00 02 01 FE 01 02 00 00 02 FF 00 02 01 FF 00 FF 00 FE 00 01 00 00 00 01 00 00 00 00 00 01 00 FF 01 02 01 01 FF FF FF 00 FF 01 02 FF 01 FF FF 00 FF 00 00 00 01 00 01 00 00 00 00 00 00 00 00 00 00 00 FF 00 FF FF FF 00 00 FF 00 00 00 00 00 01 FF 00 FF 00 00 00 FF 00 FF 00 00 01 00 00 01 FF 00 FF 00 00 00 01 00 FF 01 00 00 00 00 FE 01 FF 00 00 00 FE 00 00 00 00 01 00 01 01 00 01 01 FF FF FE FF 00 FE 00 01 00 00 01 00 FF 00 FF 00 FF 01 00 01 00 00 FE FE FF FF FF 00 00 00 FF 00 00 00 FF FF FF 01 01 00 01 00 FF 00 00 00 00 00 01 00 00 00 00 FF 01 00 00 00 FF FF 01 01 01 00 FF FF 00 00 FF 00 01 00 FF FF 02 00 00 FF FE 01 00 00 00 00 00 00 00 00 FF 01 00 01 FF FE FF 00 00 FF FF 01 FF FF 00 FF FF 00 00 FF FF 00 00 01 01 00 01 01 00 00 00 FF 00 01 FE FF 02 00 00 00 00 01 00 FF 00 00 01 FF 00 FF 01 01 00 FF FF 00 00 00 00 00 00 00 01 00 00 01 00 01 FF 01 FF 00 00 00 FF 00 00 FE 00 FF FF 00 01 FE 01 00 00 00 00 01 01 00 00 FF FF 00 00 00 00 00 01 00 00 00 00 00 01 00 00 00 00 00 00 FF 00 01 00 00 00 00 00 00 00 00 00 00 01 00 00 00 00 00 00 00 00 00 01 00 00 00 00 00 00 01 00 FF 00 00 00 00 00 00 01 00 01 FF 00 FF FF FF FF 01 00 02 01 FF 02 FF 00 02 FF FF 00 00 FF 01 FF FE FE 01 00 01 01 01 01 00 01 01 FE 01 01 00 01 00 FE FE 01 01 01 FF 02 01 00 00 FF 01 02 01 02 FF FE 00 00 FF FF 01 00 00 00 FF FE 01 FF FF 01 03 00 00 FF 00 00 02 FF FF FF 00 01 FE 00 01 01 FF 00 FF FE 02 00 01 FF FF 01 02 00 02 FF FF FF FF FE FF 01 02 01 FF 00 00 FF 00 01 02 01 01 00 FF FF 01 01 00 FE 01 00 FF 00 01 FF 01 FF FF 01 03 00 FE 02 FE FF 03 FF FF FE FD 01 FD 00 FF 00 01 FE 00 FF 00 00 FF FF 01 01 01 FF 04 01 00 FE 01 00 FE 00 01 01 FF 00 00 FF FE 01 00 01 01 02 00 FD FE 02 01 01 00 FE 01 FF FF 01 FE 00 01 FF FE 01 00 FF 01 00 00 FF 00 01 02 FE 00 01 01 00 01 01 FF 01 00 00 FF 00 00 FE 00 00 FF FE FF 00 FE FF 02 FE 00 FF 01 00 FF FF 00 01 00 01 00 00 00 02 01 FE 01 03 00 FC FE FF FE 03 FF 04 03 01 00 00 00 FF FF 02 FE 03 01 02 FF 00 01 02 00 FC 01 01 FE 03 FE 02 FF 02 FF 01 FE 00 01 00 FF 01 FE 00 FE 01 02 FF FE FF 01 FD 02 02 01 00 FF FD 02 00 02 FD 02 00 FE 03 01 FE FF 01 00 00 FF FE FF 01 00 FF FF 00 FF 00 FF 00 01 00 01 FE FE 02 01 FF FE 01 02 01 FF 01 FF 00 00 FE FF FE 02 FF 03 02 FF 00 FD 02 02 01 01 01 01 00 FE FE FF 03 02 00 00 00 FF 00 00 01 01 FF FF FF FE FF 00 FE 00 FE 00 01 00 00 FF 01 FF 01 00 01 01 00 01 02 FE 00 FF 01 FF 02 FF 00 01 00 01 FF 00 00 02 01 00 00 00 FF FE 00 02 03 FF 02 00 FF 00 FF FF 00 01 01 FE 00 FE FF 01 FD FF FF FE FF FE 02 00 00 FF FF FE 01 FF 00 00 00 FF 00 FE FE FF 01 01 FF 02 00 FF 01 00 FF FF FF 03 FC 00 FE 01 FF 00 FE 00 01 00 FF 01 FF 00 02 00 02 FE FE 01 00 01 00 01 FF 00 FF 02 02 02 FF FE FF 01 05 03 02 00 03 00 00 FF FE 02 FF FF 03 00 02 00 03 01 FF FE FF 02 FE 00 01 FF 04 01 03 FD 02 FD 00 FE FF 01 03 01 00 FE FF 02 FE FC FC FF FB 01 02 FE 00 00 FB FE 01 05 02 01 01 00 FF FF 01 02 03 02 00 FF FF FF 02 FF 00 02 FC 00 FF FF 00 01 FF 03 01 FD 01 00 FD 02 03 00 01 01 FE 00 FF FF FF FF 02 02 03 01 02 01 FF FF 00 00 FF 00 02 00 00 FC FE 01 FE 00 02 01 04 01 FF 01 FE FE 00 01 FF FF 00 00 01 01 00 FF 00 00 00 00 FF 00 01 FE FE 00 01 01 FE 02 FF 01 01 FE FE 01 FF 01 FF 00 02 01 01 00 01 FE FF 02 00 02 00 00 FF 00 FF FF 01 FF 00 00 00 FE 00 FF FF 02 00 00 FF 00 00 00 00 FF 00 00 00 FF 00 00 01 00 00 FF FF 00 00 00 FF 00 00 00 00 00 01 00 00 FF FE 00 FE 02 FE 01 FF 00 00 00 FF 00 01 00 00 FF FF 01 01 00 02 00 FF 00 00 00 01 00 00 FF FF FF FF 01 01 01 01 01 00 00 01 01 FF 00 FF 00 02 FF 00 01 00 01 FE 00 00 00 FF 00 00 FE 02 01 FF 00 FF 01 FF 00 01 FF FF FF 00 FF FE 00 01 00 00 FF FF 00 00 FF FE 02 FF 01 01 FF FF 01 00 FF 02 00 FF 01 03 01 03 00 01 00 01 00 FF 01 FE 01 03 00 FF 00 00 01 00 00 FE 02 01 01 FF FE 03 02 01 FF FF 01 00 FF 01 FE 01 00 00 FF FF FF 00 02 00 FF 00 01 02 FF FF 01 FF 00 01 FF FD 01 02 FE 01 00 FF 01 00 00 01 02 FF 00 FE 00 00 01 FE FE 02 00 FF 01 FF 00 00 FF 00 00 01 FE 00 FF 01 02 FF FE FE 00 FE FF 00 00 01 01 02 FF FF 01 00 01 00 01 00 01 00 00 FF 01 01 FF 00 00 FF FF 00 FF 01 00 00 00 01 00 00 00 FF 01 FF 00 00 00 01 00 FF 00 00 00 00 00 00 FF 00 00 00 00 01 00 00 01 00 00 00 00 00 00 00 00 00 FF 00 00 00 00 00 00 01 00 00 00 00 00 01 00 00 00 00 01 00 FF FF 00 00 00 02 00 00 02 FF FF 00 FE 01 FF FE 00 00 FF 00 02 FF 02 FF FD 01 02 FE 00 01 00 01 00 00 FF 01 01 01 FF FF 00 FF 01 FF 01 FF 00 00 00 00 01 FF FF 00 00 03 FF 02 00 00 00 FF 01 00 00 01 00 FF 00 01 02 FF 00 FF 00 FE 00 01 00 01 01 01 FE FF 01 FE 03 00 FD 01 01 FF 00 02 01 00 00 02 FF FF 01 00 FF FE 00 FE 01 01 02 00 00 00 00 FF 02 00 00 01 FF 01 01 01 00 02 00 FF 00 FE 00 01 00 FF 01 00 01 00 00 00 00 FF 01 FF 00 01 02 00 02 01 00 00 01 00 00 FF 00 00 00 00 01 01 FF 00 00 FF 00 00 00 00 FF 01 02 00 01 01 FF 00 00 FF FF 01 01 01 00 00 01 FF 00 01 00 00 00 00 00 FF 00 00 FF 00 00 00 FF 00 00 00 00 00 00 00 00 01 01 FF 00 00 00 01 00 01 00 00 01 00 00 00 01 00 00 00 FF 00 FF 01 00 00 FF 01 00 FF 00 00 01 00 01 00 00 00 00 FF 00 00 00 00 00 00 00 00 00 00 00 00 00 01 FF 00 01 FE FE FE FE FF FD FF 01 00 FF 00 00 00 02 FF FD 02 00 FE 00 02 00 02 FF 01 FF 00 00 00 FD 00 FF FD 01 FF 02 FF FF FE 02 00 01 FE FF 01 02 02 00 02 00 00 00 FD 01 02 01 00 00 FF FF 00 FF 01 01 FF 01 01 00 00 03 00 FD 01 02 FF 00 02 FE 00 00 FF 03 00 02 FF 01 00 01 02 FF FF 02 FE 02 FE 03 00 00 01 FE 01 01 01 FE 00 FF 01 FE 01 FF FF 01 01 01 FF 01 02 FD 01 00 01 00 FF FF FF 02 02 FE 02 00 FF 02 00 FE 00 01 FF 02 01 00 00 FE 03 02 FE FF 01 01 FF 01 01 FE 00 01 FF 01 02 FF 01 00 02 FF FF FE FF 00 00 01 FE FF 00 03 00 00 FF 00 FF FE FD 01 FF 00 00 00 00 01 02 FF FF FF 00 02 FF 00 FF FF FF 03 FF 00 00 00 00 FF 01 01 00 00 01 FF 02 00 FF 01 01 FF 01 FF FE FE 00 FE 01 FF 00 FF 01 01 00 FF FF 00 01 00 01 00 01 01 01 00 00 01 01 01 01 01 00 FF FF FF FF 00 02 FF 00 01 FE FE FF FF FF FF 00 01 01 FF FF 00 01 02 00 FD 02 01 00 FF 01 00 02 00 00 FE 00 00 01 FD 02 FF FF 01 FF 01 FF FF FF 01 00 00 FF FF 01 01 01 00 00 00 00 01 FF 02 01 00 FF 01 FF FF 01 FF FF 01 00 01 00 00 00 00 FE FF 01 FF FF 00 FE 01 01 FE 02 02 00 02 01 00 02 FF 00 01 01 01 02 FF 00 FF FE 00 00 00 02 00 01 01 00 01 01 FF 02 01 00 02 03 02 00 FE FD 00 00 00 00 01 01 01 00 00 FE 00 00 00 FF FF 01 01 00 FF 00 FF 00 00 FF 01 FF 00 01 01 00 01 01 01 FF 00 01 00 00 FF FF 00 FF 01 FE 00 02 01 01 00 01 FF 00 01 00 00 01 00 00 01 02 00 01 00 01 FF FF FF 00 00 FF 01 FF FF 02 00 00 00 00 00 00 02 FF FE 00 01 00 00 00 FF 00 01 FF 00 01 01 FF 00 00 FF 00 FF FF 01 00 01 00 00 01 00 00 00 00 01 00 FF 01 00 01 FF 00 01 00 00 01 00 00 01 02 FF 00 00 00 FF 00 FF FF 00 00 00 01 00 00 00 01 00 FF 00 FF 00 01 00 00 00 00 00 FF FF 00 00 00 00 00 FF 00 01 00 FF FF 00 FF 00 00 FF 01 00 00 FF FF 00 01 01 00 00 00 00 00 00 00 00 00 00 00 00 FF 00 00 00 01 01 00 00 01 01 01 00 00 00 00 00 FF 00 FF 00 01 00 00 01 FF FF FF 00 00 00 00 00 00 FE 02 01 FF FF 00 00 00 00 01 00 00 00 00 FF FF 00 00 01 00 FF 00 00 01 00 00 02 00 00 00 00 FF 00 00 FF 01 FF 00 00 01 01 01 01 00 FF FF 01 00 01 FF 00 01 00 01 00 00 01 FF FF FF 00 00 00 00 FE 02 00 FF FF FF 00 00 FF 01 FF 00 00 01 FF FF 00 00 01 00 00 00 00 00 00 FE 01 00 00 01 00 FF 00 00 FE 00 FF 00 00 01 00 01 00 00 00 00 FF 00 00 00 00 00 00 00 00 00 00 00 00 00 00 00 00 00 00 00 00 00 FF 00 00 00 00 00 00 00 00 01 00 00 00 00 00 00 00 00 00 00 00 00 00 00 00 00 00 00 00 00 FF 00 00 00 00 02 01 01 00 00 00 FF 00 00 00 00 01 00 00 00 FF 01 01 00 00 01 01 FF 01 00 FF FF 01 00 01 00 01 00 00 01 FF FF FF 01 01 01 00 00 FF 00 01 00 FF 00 00 00 00 FF 00 01 00 01 FF 00 00 01 FF 01 00 00 01 00 01 FF 00 FF 01 01 00 01 FE FE 02 FE 02 02 FF 01 01 02 01 01 01 00 FF 02 01 00 00 01 00 FF FF FF FF 02 00 01 00 01 00 00 03 01 FE 01 FF 00 00 FF 02 02 FF FF 00 FE FF 01 FF FF 00 02 01 00 01 FF 01 00 00 00 01 01 00 00 FE FF 02 FF 02 00 FE 01 02 01 00 01 01 FF 00 02 00 00 00 00 01 00 FF FF 00 01 00 00 01 01 00 00 02 FF FE 00 FF 00 FF 00 01 01 00 00 00 FE FF 02 00 FE 00 01 00 00 00 00 00 01 00 00 FF 00 00 00 00 FF 01 00 00 00 00 00 01 FF 01 00 FF 00 00 00 00 01 00 00 FF 00 00 00 00 00 00 00 00 00 00 00 00 FF 00 FF 00 FF 00 00 00 00 FF 00 00 FF 00 01 01 00 00 01 01 00 01 01 FF 02 00 02 00 00 00 01 FF 00 01 01 01 FE FF 00 01 01 00 01 00 FE 01 FF FF 00 00 FF 03 00 FF 00 FF 00 01 00 00 00 00 01 00 FF 00 FF FF 00 00 00 01 00 00 01 01 00 FE 00 FF FF 01 FE 00 FD 01 01 02 00 00 02 03 FF FE 01 FD 01 FE FD 01 00 00 01 FF FF 00 02 00 FF 00 02 01 01 FF FF 00 FD 01 FC FD 02 03 03 00 00 00 02 02 03 FF 02 FF 01 03 02 01 01 FF FF FF FE 01 FF FE 00 04 00 01 FF 00 00 01 01 00 00 00 01 00 FF FF 02 00 00 00 00 FF FF 01 01 00 00 FF 00 00 FF 00 00 FF 00 01 FF 02 FF 01 FF 01 01 02 00 01 01 00 FF FF FF FF 00 FF 02 FF FF FF 00 00 00 00 00 FF 01 00 00 00 00 FF 00 00 FF 00 00 00 00 00 00 00 FF 00 00 00 01 00 FF 00 FF 00 00 FF 00 00 00 FF 00 00 00 FF 00 00 00 00 00 00 FF 00 FF 00 00 FF 00 00 00 00 00 00 00 00 00 00 FF FF 00 01 00 01 00 00 00 01 FF 00 FF FF 01 00 00 00 01 01 00 01 00 02 02 00 FE FF 00 FF 01 FE 00 00 FF 01 00 FF 00 FE 00 01 01 FF 01 00 00 00 FF FF 00 FF 00 00 FE 01 FE 00 FF FE FD 00 01 00 02 01 00 FF 00 00 FF 00 01 FE 01 03 00 FF 00 FF FD 01 FF 00 01 02 00 00 03 00 FD 00 FF 01 01 FE FE 01 00 FF 00 FF FF 00 01 00 02 FF 02 00 FF FE FE FF 00 FE FF FF 00 00 FF 01 00 FF FE 02 00 02 03 02 02 FF FF 00 FE FD 00 01 FF 00 FF FF FF 00 01 FF 01 02 FF 00 00 00 01 01 FF 00 01 00 00 00 02 00 00 00 00 00 00 FF FF 00 FF 01 FF 02 00 01 FF 00 00 FF FF 00 FF 01 00 00 01 00 00 FF 00 00 FF 00 00 FF 00 00 FF 01 00 00 00 00 01 01 00 00 00 FF FF FF 00 00 00 00 FF 00 01 00 00 01 00 01 00 FF 00 FF 00 00 01 00 00 00 00 00 00 00 FF 00 01 00 00 01 00 00 00 00 00 00 00 01 00 01 00 FE FF FF 00 00 00 00 01 00 00 01 02 FD FF FE 00 01 02 FD 03 00 00 FF FE 00 FF 00 02 FF 02 01 01 01 02 FF 01 01 FF FF 00 02 00 00 FF 00 00 01 00 00 FF 02 00 02 01 FF FF FF 00 FF FF 00 02 FD FF FF FF FF 00 00 00 03 00 00 00 01 00 FE 00 00 01 01 01 FF 01 01 00 FF 00 00 FF 01 01 00 01 00 00 01 00 FF 00 01 FF 02 01 00 01 FF 00 00 00 00 00 01 00 00 01 02 00 00 FF 01 01 00 00 00 00 FF 00 FF FF 00 FF 00 00 01 01 01 00 01 01 FF 00 01 00 01 00 FE 01 02 FF 00 00 00 00 01 01 01 00 FF 00 00 01 FF 00 00 FF 00 00 FF FF 01 FF 00 01 01 00 00 00 00 00 02 00 00 FF 01 00 FE FF 00 FF 00 00 FF 00 FF 00 00 00 00 02 00 FF 00 00 00 00 00 FF 00 00 00 00 00 00 00 00 00 00 00 00 00 00 00 00 00 00 01 00 00 00 00 00 00 00 00 00 00 FF 00 00 00 00 00 FF 00 00 00 00 00 00 01 00 00 00 00 00 00 00 00 00 00 00 00 00 00