FC
03
04
FC
05
05
05
05
02
FE
FB
01
FD
05
03
FF
FF
FD
FD
FC
FC
04
FD
FD
FD
FE
00
FC
FD
00
00
03
FC
05
04
FE
FD
FE
06
04
04
FD
FE
00
04
03
FE
FF
FC
02
03
03
FE
FC
05
FC
FB
03
01
FE
05
FC
FD
FC
02
FB
FD
04
03
02
FD
01
06
03
00
FE
03
FC
04
03
FE
FE
FC
04
04
05
FD
FE
FD
04
FA
01
FF
04
04
FE
04
FC
FD
03
FD
FC
04
02
FC
04
03
FD
FD
FE
04
FD
02
FF
FE
00
04
00
02
05
04
FC
FD
04
FE
FF
02
03
05
FE
05
FC
FF
FD
FF
FD
FD
FD
01
FD
05
04
FE
05
FC
FB
04
05
03
04
03
FE
05
01
01
FC
FB
04
FE
FE
00
FB
FB
FA
03
02
03
03
01
FD
00
04
01
02
FD
FC
01
01
05
FF
05
FD
FC
FC
04
FE
05
FE
04
FD
FD
01
FC
FB
02
04
04
04
FF
03
01
FE
FD
FD
FD
FE
04
05
06
00
FE
FE
FC
FD
04
03
01
FB
FC
04
FA
FC
01
04
05
FC
FD
00
02
06
FB
FE
03
05
FC
03
FF
FC
06
02
FC
FD
05
FD
FD
03
05
05
FE
FE
03
FE
01
01
04
05
02
02
05
FE
FC
FE
FF
FF
04
FD
03
FA
02
FC
FF
FE
FB
05
04
04
03
FF
04
00
FD
03
03
FD
FF
02
FC
03
02
00
FE
03
05
03
03
01
02
FB
FB
04
05
04
FA
FC
FD
04
03
FD
FC
FB
02
FC
FC
03
FE
04
FC
00
04
FC
FE
03
FE
05
01
02
03
FC
05
FD
FC
05
04
FF
02
FC
05
FD
01
00
FA
FC
FD
FC
FC
02
05
FB
FA
FD
05
05
FD
FD
FB
FD
03
04
02
05
FB
04
05
00
FE
03
00
04
FC
03
02
FD
FC
04
FC
FD
04
FC
FC
03
04
03
FB
FC
FD
00
03
FF
FC
FF
04
FC
01
FD
FD
04
01
04
04
04
02
02
FC
04
FC
FC
00
FD
04
FD
03
FB
04
FC
FD
03
FC
FD
03
04
04
02
FD
03
FB
04
04
FB
FD
03
FD
03
FB
00
FC
00
FD
04
05
05
03
04
FD
FC
02
FB
04
FD
03
FC
02
00
FB
FD
03
03
00
FC
FC
05
FC
FD
02
FB
04
04
04
FC
FC
FC
03
FD
05
FD
FD
04
04
FC
03
06
FF
FD
05
FB
05
FD
00
04
04
FC
FD
01
FD
FD
FF
FF
FB
03
04
FC
FF
06
FC
01
FC
04
00
01
06
02
01
04
FC
FD
FC
05
01
01
FD
FC
00
FC
FC
01
05
04
FB
FC
00
FD
03
FC
FD
FD
05
04
04
FD
FD
FE
05
FF
02
03
01
FE
04
FD
04
03
FC
FC
FB
02
FD
03
03
03
03
03
04
04
01
FB
FB
FB
02
FB
04
FB
FB
03
04
04
FF
04
01
FE
03
FE
05
03
FC
04
FE
FD
01
FF
FD
FF
04
01
FD
04
02
FE
FE
FE
FD
03
FE
02
FB
01
FC
FC
06
06
FB
03
FB
03
01
02
05
02
05
04
FC
05
FD
FC
04
FB
03
05
FE
FD
04
02
FB
FA
00
02
FD
02
04
FD
FB
FB
FB
FF
04
02
03
05
FB
FE
FC
FF
05
03
04
04
FB
FC
05
FC
02
FD
FE
04
FC
03
03
03
01
FF
FB
FB
FD
FB
00
04
FF
FC
FD
FD
FE
03
FD
FF
FC
03
00
FF
FD
01
04
00
FC
02
01
03
FE
06
05
FC
FB
03
FD
FC
04
03
FD
05
03
FC
FB
FC
03
FC
FE
FE
02
FD
05
04
03
04
FE
01
02
04
03
04
01
02
05
01
FD
FE
FD
04
02
01
FC
00
FC
FB
FC
FF
04
00
FC
03
FB
04
05
03
00
01
FB
03
FD
05
04
FC
FE
FF
04
FC
FE
05
FF
FC
00
FB
FB
01
FD
FB
02
04
05
03
04
03
FA
03
04
03
02
FD
FD
FC
FE
FB
FC
04
05
FD
FD
FC
05
06
FD
FD
05
05
FD
FD
04
FD
FC
FE
04
05
05
FC
FC
FF
04
FD
FD
FE
FE
01
03
FB
00
FF
05
FD
04
03
FC
04
03
04
FC
FD
FD
02
01
FC
FC
02
01
FF
FD
02
FC
05
FC
04
FC
FF
FD
FF
02
FD
FC
FC
04
05
05
FD
FD
05
04
FD
04
FD
FC
FD
04
02
FC
00
05
FB
01
01
03
01
05
03
02
FC
04
FC
FC
03
02
FE
FA
00
FC
05
02
FB
02
03
FD
FE
FC
FD
03
06
04
00
05
04
FD
FB
FF
01
00
03
FA
FB
02
FB
01
03
FC
FB
FE
04
01
FE
03
FD
FE
FD
FF
FC
02
04
04
01
03
FD
FC
03
03
FC
01
FC
03
FC
FC
02
FE
FB
02
03
03
01
03
04
FA
04
03
FC
FB
FD
03
03
03
FB
FC
05
FD
FB
05
05
00
FD
02
FC
FF
FC
04
FD
FD
FD
01
FD
04
03
05
05
FB
02
03
03
01
03
04
04
02
01
00
FA
FF
02
03
03
02
FB
FC
02
00
FB
02
FA
FC
FD
FE
02
FE
03
05
05
05
03
02
FD
FC
FE
05
FD
02
FD
FD
01
04
04
FF
FE
00
04
04
FE
04
06
01
FF
03
FE
02
F9
01
FA
02
03
FB
FB
04
FB
FF
02
FC
03
02
FE
04
04
02
02
FE
FF
04
FB
FE
F9
00
03
FB
02
FC
02
02
FC
FE
FF
04
03
05
02
01
01
FF
FD
FB
05
FB
03
04
FD
FB
00
FD
FC
00
02
00
01
04
04
FC
03
04
FC
FC
05
00
FD
03
03
03
FC
FE
03
05
FC
02
01
FE
03
04
FE
FE
FC
03
03
04
FB
FB
FF
FC
01
00
FB
00
05
05
01
FC
FB
04
FF
05
01
05
FE
FF
FC
02
01
04
FF
FA
00
04
FD
02
02
01
FD
00
03
03
FA
02
FC
FB
03
03
FD
FE
00
01
03
03
04
01
FE
01
FC
FB
FB
01
03
FE
02
01
02
FC
FC
F8
02
02
04
02
04
02
02
00
04
FC
FB
02
FC
FE
02
FA
04
FC
03
01
02
04
04
FC
02
FA
05
FC
03
04
FF
04
FD
FA
03
03
00
03
03
03
FA
FD
03
03
FC
03
00
FC
04
04
FC
FB
FC
03
03
02
05
FC
04
07
03
FA
01
FD
FA
FB
FC
FF
FC
03
FF
FB
01
04
06
03
03
03
FB
03
FE
FD
FE
03
FD
04
05
05
FD
FD
04
01
FD
FF
FD
FD
FF
FB
FD
04
07
FD
05
02
FC
04
FC
03
FD
FF
03
05
FC
03
04
03
03
FC
FC
FC
03
03
FB
FD
FE
FC
03
FE
03
FC
FE
FD
FD
01
FF
FC
FF
FC
05
05
04
00
02
05
03
FE
05
FC
FC
05
FB
FE
FB
05
01
FC
FB
04
FD
FC
FC
02
02
02
04
FD
04
03
03
FB
05
03
FD
04
FC
06
FD
FD
FC
01
FD
03
00
FB
03
FB
04
02
04
01
FF
FC
04
04
FD
FE
01
05
FC
04
04
03
00
05
00
02
FA
01
FA
FD
04
04
03
03
04
FA
04
04
03
FA
FB
02
FB
FF
04
FE
03
02
04
FB
FA
03
FF
FD
03
04
03
FB
00
FE
00
FE
FF
FA
FE
04
04
FB
04
01
03
FF
04
FC
01
01
05
04
FC
FC
00
FD
FB
04
FC
FC
03
04
05
FC
03
FC
03
FD
FE
05
06
00
FD
05
01
FD
04
01
FE
FD
FD
02
FE
05
FC
FF
03
FD
FE
05
FD
FC
04
FF
01
FF
FC
00
05
03
FC
00
FB
00
FC
00
FA
04
FF
04
05
FE
04
04
FA
FC
04
03
01
FB
01
03
00
04
FE
FE
FC
01
03
02
04
04
FB
FE
FB
03
05
