FF
01
01
FF
01
FF
01
00
04
00
02
02
FE
01
FC
FF
FE
FE
04
FF
FD
01
FF
01
09
FF
05
0D
FD
01
02
FF
FD
FD
00
FE
FD
00
00
FF
FF
FE
FF
06
FF
01
FE
01
00
FF
00
FE
00
00
FF
04
FC
00
FF
05
00
FF
FC
FC
FD
FB
09
FE
01
03
02
00
07
FE
09
07
FC
03
00
FF
FD
FA
05
FD
00
02
FE
00
09
FE
04
04
FB
FE
08
01
02
FF
FE
00
FE
01
FF
03
02
FE
FF
03
01
FF
01
FE
03
00
FE
FC
FB
FF
FF
05
00
FE
FE
07
FC
01
FD
FE
01
FE
02
FE
01
FF
00
03
FF
FE
01
FF
00
00
03
02
02
07
FD
00
00
FD
FE
02
FE
00
FF
01
03
FE
FF
FD
00
04
FE
05
00
00
00
FF
02
FD
02
00
04
FC
FE
00
FF
FE
FF
03
00
01
01
FD
02
FE
01
00
FF
FC
00
FF
FE
00
FE
05
02
01
03
FF
00
FF
01
FD
03
01
FD
00
FF
FD
FF
03
02
02
02
FB
FF
05
00
FD
FF
04
FF
FF
01
00
00
FF
00
02
FF
FC
FD
03
00
FF
FE
01
FE
FB
FF
FD
00
00
03
00
00
01
00
01
00
00
FF
00
FF
FF
01
03
00
FE
03
01
FD
FE
FF
02
00
01
00
FF
FF
FC
02
05
FF
01
01
02
FE
FF
01
FF
02
02
04
FC
FF
FC
03
02
FE
FF
00
FF
FF
02
FE
00
FE
00
00
00
FF
FE
01
03
FC
03
02
00
00
01
FF
FF
00
01
03
FE
FF
FE
FF
FF
FE
01
01
01
01
FF
FD
01
FF
01
FF
03
FD
FF
01
02
FE
02
FE
FF
FF
03
FF
FD
FF
FF
01
FD
01
FE
FE
02
FE
04
07
02
01
FE
FE
01
00
FE
04
FD
FF
FE
02
00
FD
FE
FF
FF
FF
01
FD
00
FE
FF
FC
00
FF
FD
00
FF
00
01
FF
00
02
01
02
FF
01
FF
FF
02
01
FF
02
FE
00
01
05
02
02
00
FF
02
FF
00
FF
02
00
FD
04
01
00
FC
FC
FF
FE
06
FF
00
FF
01
FD
01
01
FC
00
00
02
01
00
00
00
01
03
00
02
02
00
FE
02
00
00
00
FF
00
FF
00
FF
00
01
FF
FF
01
FF
00
00
FF
00
00
00
00
00
FF
00
01
FF
00
00
00
00
00
FF
00
FF
FF
01
00
00
01
00
FF
00
00
01
FE
00
00
01
01
00
FF
00
FF
00
00
00
00
00
00
00
FF
FF
FE
02
FF
00
00
00
FF
FF
00
00
01
00
00
FF
00
00
FF
00
00
FF
FF
00
FF
01
00
00
FF
FE
01
FF
FF
00
01
FF
01
00
00
00
FF
01
00
FF
FF
FE
01
00
FE
FF
00
01
00
00
00
00
FF
FF
00
00
01
FF
FF
00
FF
00
00
00
00
00
00
01
02
03
03
01
02
05
FF
02
03
00
FE
06
FE
FD
FE
00
FE
06
03
FF
01
FE
00
FF
FC
02
FC
06
FF
00
01
FC
FF
06
02
FE
02
FB
03
FC
F8
05
FD
05
00
FE
FD
02
FF
02
03
FF
FD
01
01
02
FF
01
FE
03
00
FD
02
01
00
06
04
FE
FD
FE
02
FE
FC
04
FB
03
00
FF
04
FF
01
09
03
FE
FF
FA
07
FD
FA
07
FD
03
00
00
00
00
FE
FF
FF
FE
00
FD
FF
01
FF
00
FE
FE
FF
FD
01
00
00
01
01
00
FC
FC
01
FE
FD
01
00
FE
FF
FF
02
FE
01
03
01
00
FC
FB
02
FE
FC
02
FF
FF
00
01
02
00
03
03
03
01
01
04
02
01
00
02
FF
03
00
01
01
FF
02
02
03
01
01
00
01
00
03
03
FF
01
FE
02
01
00
01
02
02
01
04
01
01
01
05
01
02
01
00
FF
FE
00
FF
FF
02
FF
FA
FE
01
01
FC
FF
FE
02
FF
FE
FE
FF
FF
00
01
FF
FC
FD
FF
FF
FD
00
FC
FF
FE
00
00
01
00
02
01
00
FF
00
01
01
00
01
FE
01
FE
FF
FE
01
FD
FE
01
FE
FD
FE
00
01
FF
FD
00
00
FF
FD
FE
00
FF
FF
02
FE
FA
00
00
01
FE
FE
FD
FE
FD
00
02
01
01
03
04
FF
FE
02
03
02
01
03
FE
FF
FD
FE
01
00
00
04
06
FF
FE
01
03
02
00
02
FF
02
FD
FC
FE
00
00
02
06
FE
FB
01
01
02
00
00
FC
00
FB
FE
00
02
01
05
05
FF
FD
03
02
04
01
02
FD
00
FE
FC
FF
01
FF
04
08
FD
FA
01
01
03
00
04
FB
01
FD
FD
00
FF
00
03
05
FD
FA
FD
02
03
FE
02
FC
FD
FC
FF
01
FF
02
03
04
FF
FE
FF
01
02
FE
05
FC
FF
FE
00
FE
01
00
00
03
00
00
01
FF
04
01
00
00
01
FF
00
00
FF
02
FF
01
02
00
FF
01
01
FF
01
02
FD
FF
01
02
FF
01
00
01
FF
03
FE
02
00
00
01
01
FE
FD
FE
00
01
04
FF
03
04
FF
03
FF
04
FF
00
00
00
01
FE
FD
02
01
FD
01
03
FD
01
FE
02
FC
FF
FF
FE
FF
FE
00
00
01
FD
00
01
FE
00
FE
03
FD
01
FE
FE
FF
01
02
FE
FE
FF
FF
01
FB
FC
04
FF
02
FD
06
FE
FD
FF
00
FF
FE
FC
FE
00
FE
FD
00
FE
03
FE
04
FB
FC
FD
00
00
FF
FE
FC
00
FE
FD
01
FE
00
00
02
FE
FE
00
08
FF
05
FF
00
02
FD
04
FF
02
04
05
FF
FC
FE
00
03
01
08
00
01
03
FE
08
01
04
07
02
02
00
FF
03
04
FD
03
02
FF
00
02
03
00
FF
04
03
FF
01
FF
01
03
00
04
01
01
03
00
00
03
00
00
03
01
FF
01
02
04
FD
03
04
02
02
01
FD
04
FF
FF
04
01
01
FF
00
04
FC
02
05
01
01
FF
FF
01
FE
FD
04
FE
02
FE
02
01
FE
01
FE
FD
01
FF
FB
00
FD
FC
FF
00
FD
01
00
FF
00
00
FF
FE
00
FF
FB
00
FC
FC
01
FF
00
FF
FE
02
00
01
06
02
00
FE
FE
04
FE
FD
08
FE
02
00
01
FF
FF
00
FC
FC
01
FE
FD
FF
FD
FE
FD
00
FD
02
FF
02
00
01
01
FE
00
FD
FE
02
FF
FE
00
FE
00
00
00
04
FF
02
08
02
00
FF
FE
05
00
FE
05
FE
02
00
01
FF
01
01
FF
FF
01
03
00
00
01
00
FF
02
FF
00
00
FE
00
FE
FD
FF
00
01
00
FE
01
02
FC
02
FC
FF
01
FF
02
FE
FD
FF
00
02
02
FE
01
03
FE
02
00
FF
01
FF
FF
FF
FD
FE
00
01
FE
FE
FE
FF
FE
00
FF
00
00
00
FE
FE
FB
FD
00
01
FE
FD
FE
FF
FD
00
FD
00
01
02
01
03
FF
FF
01
01
04
FF
02
03
02
01
00
00
01
00
FF
FE
FE
FE
00
02
FF
FF
FE
FE
FE
FF
00
01
01
02
FF
02
FE
00
00
01
00
00
FF
00
01
00
FF
00
01
02
01
04
02
03
02
00
02
02
03
01
02
01
00
01
04
02
00
FE
00
FE
00
01
FE
03
00
FE
FE
04
02
01
01
01
FF
FF
F9
FC
02
00
FD
FC
FE
FE
FD
02
FB
FF
01
03
01
00
00
FF
02
04
02
00
01
01
01
04
01
00
03
03
FD
FD
FC
FB
FF
02
FC
FF
FD
FC
01
FF
01
03
01
02
FD
02
FB
FB
02
FE
FC
FE
FB
FC
FD
00
FA
01
02
04
01
02
02
FF
02
01
01
02
FF
00
01
01
01
FE
01
02
02
03
00
FF
03
02
02
FF
00
01
02
02
00
05
00
01
00
03
01
FF
02
FE
00
04
FE
00
FE
04
FF
02
02
03
00
00
00
01
00
00
FD
03
00
00
FF
03
00
FE
FC
02
FC
02
03
FF
01
FD
FC
03
FC
FC
05
FF
FE
01
01
05
FE
03
04
FF
02
FD
FE
04
00
FE
02
03
FD
FE
02
03
01
04
FE
02
04
01
02
00
04
02
03
04
FD
00
FF
01
FF
03
07
01
01
FD
FE
03
FF
FD
05
00
01
03
03
05
FB
03
00
FC
01
00
F9
03
FC
FB
03
00
FE
FF
02
01
FC
01
F9
FB
02
00
FA
FD
FC
FE
FD
00
FC
01
00
03
00
00
03
FE
01
FF
00
01
FF
02
FF
03
FE
00
02
02
FF
01
FE
FC
00
00
FF
FF
FE
FF
00
00
00
01
FF
FF
FE
FE
FD
FD
FF
03
FD
FE
FD
FF
FC
00
FE
02
FF
06
00
03
FD
01
01
00
01
FD
03
01
04
FC
FE
FF
00
FF
FF
04
FE
00
02
FF
01
FE
02
FD
01
01
FD
FF
FF
FD
FF
04
FE
00
03
FF
00
00
01
FD
00
00
FD
00
00
03
FE
07
05
00
04
FE
FF
04
01
FE
04
04
FD
01
02
00
FD
FF
FB
FE
00
00
FD
00
FE
00
FC
02
FC
FE
01
FE
FE
FE
FF
FE
FF
00
FC
02
FE
01
FB
01
FE
FD
02
02
FE
01
04
FE
01
00
FF
02
FF
03
01
01
FF
00
01
00
00
00
FC
FF
00
FF
01
FD
FF
02
FE
FF
FF
FF
03
02
01
FF
01
FF
FE
02
03
01
00
02
FE
FD
02
FD
FE
FD
03
FC
05
02
FD
FF
01
01
01
FF
FF
FF
07
02
00
FF
FE
FE
00
FF
FF
00
FF
FF
FF
FE
FE
FF
01
00
FF
FF
01
02
FE
FF
02
FF
01
FE
01
FE
00
02
FF
01
FD
FD
01
FE
05
04
FC
02
FE
FF
00
FF
03
FC
03
00
00
00
FE
FD
04
01
FD
01
FE
02
FF
FE
00
FD
05
FF
00
FF
FF
FE
FE
FF
00
FF
FF
FF
FF
02
FD
01
FD
FF
FF
FF
00
00
03
03
FF
02
FE
00
FF
FF
01
FE
01
FF
00
01
00
FF
05
01
FF
00
FF
01
00
FD
03
FD
03
00
FF
00
00
01
FF
01
01
FE
02
FF
01
01
FF
01
00
01
FF
01
00
06
02
FF
03
00
01
01
00
FE
03
04
FE
02
01
FF
01
03
00
01
05
FE
FF
05
FF
02
FD
07
FD
01
03
03
04
FF
00
01
01
FE
02
02
03
01
FE
02
02
FD
FE
FE
00
00
02
FF
FE
FD
FF
03
FE
FF
00
FF
00
FE
01
04
FE
FE
FE
FF
FC
FD
00
01
00
01
01
FE
00
FB
00
01
01
02
FF
01
00
FD
02
FE
03
02
01
FC
FE
FC
FD
FC
02
FE
03
01
FE
FD
00
01
01
FE
FE
FE
01
FF
FF
FF
FF
FD
FE
03
FD
FD
00
FE
01
FF
FE
FC
00
FC
FF
FF
02
01
03
04
00
FE
05
01
05
03
02
FE
02
FE
FD
FD
02
01
01
FD
03
FD
03
00
01
FD
02
01
FD
03
00
FD
05
00
FF
FF
02
FB
06
01
01
03
FA
02
01
01
06
02
FF
FD
FE
02
FE
04
02
03
00
05
FD
01
04
FA
FD
FC
FF
FD
02
FD
FD
FE
FA
02
FD
FE
00
FF
FC
01
02
FE
03
FC
00
FF
FD
FD
FF
00
01
FF
FA
00
FF
FE
06
05
FF
00
FE
00
FD
05
00
FE
02
FE
02
FA
04
FC
FF
FD
FF
FE
03
00
FF
00
FD
01
FD
01
00
01
FD
00
01
FF
01
FC
00
00
FD
FF
FF
00
00
FF
FD
FE
00
FD
02
04
FF
02
FF
03
01
04
FF
FE
02
FC
05
FC
02
01
FF
FE
00
FD
FE
01
FD
FD
00
00
FF
01
FC
FF
02
FE
FD
00
01
00
07
03
FF
FF
01
02
02
03
02
FE
00
01
01
01
FF
FF
02
FE
FF
01
00
02
FE
FF
02
00
05
01
FD
FC
01
FC
FD
01
FC
FE
01
FE
01
FF
FC
FC
00
FB
FC
FD
03
FE
05
06
FE
FE
05
FF
05
05
FE
FC
01
FD
FE
01
02
FF
02
03
FF
FE
04
01
03
03
01
FE
05
FF
01
FE
01
FE
FF
00
00
02
00
FE
00
FE
FD
00
00
FE
01
01
02
FF
FF
02
00
01
05
FF
03
02
FF
00
01
FD
FF
00
00
01
00
02
02
01
02
FF
02
03
FF
01
00
00
FF
FD
FF
FD
01
00
00
FC
FF
03
FF
03
FB
06
FE
00
02
04
FF
FC
FE
00
FD
FF
FF
04
00
09
FE
07
FE
FC
03
04
01
FE
FF
FD
FD
01
00
00
FF
05
01
04
FF
FE
02
04
FF
FD
FC
FE
FD
00
FF
00
00
01
00
FF
FF
FF
00
04
FF
06
FD
FF
02
FD
03
FE
03
FF
05
FD
FE
00
FF
FF
FF
05
FF
FF
03
FF
02
FD
00
FF
01
FF
FC
00
FF
02
FF
02
FE
00
02
01
FF
FF
00
FF
01
00
00
00
FF
FB
00
04
00
00
03
FE
FE
03
01
FD
FF
01
FF
02
00
FC
FF
FF
02
00
01
FF
FC
03
00
01
FC
05
00
00
FF
FF
02
02
03
01
03
FF
FE
02
02
FF
01
03
FE
02
FE
FD
03
FF
FF
00
02
FE
01
FF
03
FC
FD
01
01
01
00
FF
03
FF
FF
00
FF
FF
01
FF
02
FE
FE
FD
02
00
01
00
FE
FE
00
00
FE
02
01
00
FF
04
FF
01
01
FD
FE
FD
00
FE
FF
FE
FF
00
FE
FF
FE
01
FE
01
FD
FF
FF
FD
02
FE
01
FF
FF
FC
FF
01
00
FE
FE
00
01
00
01
01
01
01
01
01
00
FF
03
00
01
00
00
00
02
FF
00
01
FD
01
00
01
FF
02
00
FF
00
03
02
FE
FE
FE
FF
FE
00
FF
01
00
FE
FD
00
00
01
00
00
FF
FF
FF
00
FF
02
00
03
03
FF
02
04
00
02
01
00
00
04
02
00
00
FF
00
FF
FE
01
00
FE
FF
FF
FE
FE
00
FE
02
01
00
00
01
FF
00
02
01
FE
01
00
00
FF
03
00
01
FD
FD
03
FE
06
05
FE
02
03
FF
03
00
01
FC
06
00
00
FF
FD
FD
01
FF
FF
01
FD
FF
FE
FD
FF
FE
01
01
01
FF
FF
FF
FD
FD
00
01
FD
FF
FE
FD
FD
01
FE
01
FE
FD
02
FF
03
03
FE
01
00
00
FF
FF
01
FF
01
FF
01
00
FE
FE
04
FF
FE
00
FD
00
FE
FE
00
FE
02
01
01
00
FF
00
FF
FF
00
01
FF
00
FE
00
FD
02
FF
01
01
02
FF
00
FE
FF
01
01
01
00
00
03
FE
03
FE
FF
01
05
FF
06
FE
FF
02
FE
03
00
03
05
03
03
FD
FE
FE
00
01
05
FF
01
04
FE
01
01
01
01
01
03
00
00
00
FF
00
00
FD
00
01
00
00
FF
FF
01
FF
FF
FF
FF
FF
00
00
01
01
02
01
FE
02
02
03
04
00
02
FE
FC
00
04
00
00
00
01
FF
FD
03
01
02
04
02
00
00
FC
00
FD
00
00
FD
FF
01
00
01
FF
00
FE
FD
00
00
02
FF
FE
00
FF
FF
00
00
FF
00
FE
01
FE
FF
FE
00
00
FF
FF
FF
01
FD
01
01
FE
00
FE
01
FF
01
FF
FF
00
01
08
FD
04
03
02
01
01
FD
03
FF
FC
07
00
03
01
00
06
FA
07
06
00
03
FF
FC
05
FE
FC
06
00
FD
00
01
02
FC
00
FE
FB
01
FF
FD
00
FB
FE
00
01
FB
FE
FD
FF
00
00
02
00
00
FE
FD
00
FE
FC
00
00
02
FF
FF
04
FF
FF
05
01
FF
FC
00
05
00
01
FF
FF
FF
FC
00
03
FF
01
FB
FD
01
FD
03
FD
00
06
00
FE
FD
FE
FF
01
01
FF
01
FE
FE
FE
01
FF
FF
00
FE
FD
01
00
FF
01
01
00
00
00
02
FF
02
FF
01
03
FE
02
00
FD
FF
FE
05
02
01
02
05
00
07
01
05
05
FF
09
FE
FF
01
03
FE
00
00
00
FF
FC
FD
04
FF
FF
02
03
FF
FF
FF
03
00
03
03
04
FF
FC
02
04
01
04
03
02
FD
FC
FE
FE
02
01
04
06
FF
FC
02
02
04
02
03
FC
00
FF
FF
00
00
00
04
02
FF
FF
FE
02
01
FF
03
FF
00
FF
FF
FF
00
00
00
04
FF
FB
01
00
03
01
00
FE
FC
FD
FF
FF
01
FF
FD
01
FE
FC
01
00
00
00
FF
FF
FC
FF
02
01
00
00
02
01
00
06
01
00
01
01
00
00
02
00
FF
FE
02
FF
00
03
FF
02
01
FE
03
03
FF
00
FE
FD
FD
FF
01
00
FE
01
FF
FD
01
FF
00
02
FF
FF
FE
FD
FF
02
00
07
02
03
03
FF
01
FF
04
FE
04
FE
00
00
FD
FD
FF
02
FD
02
02
FE
00
FE
02
FE
FF
FF
FD
FF
FD
FE
03
FF
FE
02
00
FC
03
FE
05
FF
FE
FF
FE
FF
00
FD
02
02
02
01
02
FB
03
02
03
00
FE
02
00
00
00
FE
00
FD
FB
00
FF
FF
00
FE
02
FF
FD
01
FD
FE
FE
FF
02
00
FF
01
00
FF
01
FF
02
00
00
00
FD
FF
04
02
FE
FD
00
FE
FF
FF
FD
03
FE
00
FD
03
01
FF
03
03
FC
00
FA
FD
00
04
FC
FC
FD
02
00
00
FD
00
00
00
00
00
FE
FE
00
03
00
FE
01
02
00
02
FF
00
