09
08
05
0B
09
0C
09
0B
0B
04
FE
FE
02
00
00
01
FF
FD
FB
F8
F9
F9
F5
F3
F6
F5
F5
0C
08
0B
FD
FD
FB
F8
F9
F8
09
06
0A
FC
00
FE
F8
FA
F9
06
04
03
FD
01
02
FC
F9
F9
0A
07
06
00
01
02
F7
F6
F7
0A
09
09
05
05
02
F3
F4
F6
0C
06
06
02
00
02
F5
F7
FA
FA
FA
FD
F2
F4
F5
F2
F4
F4
09
08
05
05
03
04
FB
FA
F9
0A
06
09
0C
0A
08
09
05
08
0E
08
0C
0D
0A
09
0B
08
07
0E
0A
0A
0A
07
09
09
07
07
0C
07
07
0A
06
08
04
02
02
F4
F7
F7
F4
F8
F7
FA
FC
FB
03
05
06
05
05
04
00
01
01
0A
08
09
0B
09
09
05
06
05
F3
F7
F9
F8
FD
FB
06
01
08
F1
F7
F7
F9
FE
FE
0E
0B
0A
F6
FA
FC
06
06
03
10
0C
0C
F9
FA
F9
FA
F8
FB
F9
F8
F8
F7
F7
F7
F6
F9
FA
F7
FA
FB
F4
F8
F7
F6
F9
F8
FC
FC
FB
