04
03
04
00
08
01
FE
FF
04
02
02
FE
01
FE
FE
02
04
01
00
FE
FD
FD
FD
04
02
03
03
FF
01
FE
FD
03
FF
00
FF
FE
FB
FE
FE
05
FF
00
FF
FF
F9
FE
FE
05
FF
01
01
01
01
00
FE
03
FF
00
FF
01
FE
00
00
05
FE
00
00
03
FC
02
01
06
07
04
05
FD
09
FF
FE
FE
06
04
05
FC
00
FC
FD
04
01
00
FE
FF
F9
FF
03
05
04
04
05
FE
00
FD
FE
02
FF
01
00
FF
F7
FF
06
08
FB
FD
FC
03
FE
05
08
04
00
02
03
03
FD
00
03
02
FB
FD
FC
03
FF
06
0A
02
FE
FD
FE
02
06
06
03
FC
FF
02
02
06
01
03
FE
FA
FE
03
03
07
FD
05
FD
FF
01
01
02
02
FD
01
00
02
05
FF
FE
01
01
00
FE
FD
01
01
01
05
03
02
FE
FC
FD
05
06
08
FE
05
FF
FE
03
FF
FF
00
FD
FE
FF
FF
04
FE
FD
FF
FF
FE
00
FE
01
03
03
04
03
01
00
FC
01
01
01
FF
FC
FE
FF
05
FE
FD
FC
03
F7
02
06
08
FD
FE
FE
04
FC
06
07
04
FD
FE
FD
03
FA
03
08
04
FD
FD
FD
05
00
08
06
FF
01
01
02
01
04
03
02
FC
FD
FC
FC
01
04
04
06
FF
03
00
02
FF
04
02
FF
FB
05
03
04
FE
01
FF
FD
FF
00
FE
FE
FE
FD
FD
0C
03
FE
04
07
02
07
03
03
FD
02
06
08
FE
02
00
01
01
FE
FF
FF
FC
FB
FF
0F
03
02
06
08
02
08
00
04
F9
00
08
09
01
FD
FF
01
01
01
01
01
FF
FB
00
0B
00
05
05
06
FE
01
FC
04
FB
00
07
08
01
FC
FF
03
FF
04
04
05
04
FC
01
02
FE
03
FF
FF
04
FF
01
09
FF
03
06
08
05
02
05
FF
FE
00
07
07
06
FD
04
00
FD
03
FF
FE
FF
FE
00
06
FE
05
07
06
04
01
01
00
FB
01
04
05
04
FF
02
FF
FE
02
01
00
02
FC
02
02
FE
05
03
04
03
FD
01
04
FC
FE
FF
FE
05
FB
03
03
04
FD
FD
FD
04
FD
05
04
03
FE
FE
FE
05
FE
05
03
02
FD
FD
FC
02
01
03
02
01
FE
FE
FE
02
03
03
FF
FF
00
FF
00
FF
04
01
FE
FF
00
FE
FE
FC
02
FF
FE
00
03
FF
FF
FC
03
FE
FB
01
05
00
00
FC
01
FC
FD
03
02
02
00
00
FD
FE
00
08
03
FE
FD
FE
FF
FD
03
06
03
FE
FD
00
07
01
02
04
FE
02
02
01
FC
FF
FD
09
00
FF
FE
FE
FC
FD
01
07
02
FD
FC
FD
04
FE
04
07
FD
03
03
03
00
01
FD
07
FF
01
01
FF
FC
FE
00
0A
00
FE
FC
FF
FF
FF
06
09
04
01
00
06
FA
03
FD
01
07
FE
FE
01
FC
FF
FD
03
08
FC
FB
FD
02
FC
02
02
FF
01
02
0C
00
07
FF
FD
FE
02
03
0F
FE
0A
FE
FE
01
00
01
08
F9
06
01
02
04
FF
FE
00
02
00
FF
FE
02
01
01
05
05
03
FE
FB
FE
05
05
09
01
06
FE
FE
FD
FE
FD
FF
00
01
07
02
01
01
02
FE
05
01
00
FD
05
03
05
FD
03
FE
00
00
00
FF
00
FD
03
01
06
FE
05
05
06
FD
05
FE
FF
FD
03
03
03
FD
FC
FD
03
02
05
01
03
FD
00
FE
04
FE
03
06
06
FF
FE
FD
FF
FF
FE
00
FF
FF
FA
00
04
02
02
02
02
08
FD
04
02
FB
00
02
02
0B
FC
08
FF
FE
03
00
00
05
FB
05
01
00
06
00
FF
01
01
00
01
FF
05
00
00
05
FF
02
FF
FB
01
04
03
09
00
05
00
FD
01
00
00
05
FD
04
02
01
03
FF
FE
03
00
02
01
00
03
01
01
04
03
02
01
FD
0B
FC
FB
FD
00
FD
FF
FF
0E
FC
FB
FE
06
FE
FE
FD
08
FD
FC
00
0C
00
FE
FD
03
00
00
06
FB
04
FD
01
07
FF
FE
03
FA
01
FE
02
09
FD
FC
FE
FE
FC
02
01
FF
01
01
07
FF
05
00
FF
FD
02
02
0B
FE
08
01
00
00
02
03
08
FB
06
01
03
02
05
05
FD
01
FC
FD
01
FF
01
01
FE
FA
FE
08
03
FE
FF
00
01
01
04
07
00
01
04
06
00
FB
FD
00
03
FD
FF
FE
01
FC
03
0E
03
FF
02
04
01
07
05
04
FC
FE
02
03
02
FB
01
05
01
FE
FE
FE
00
03
05
0C
FC
01
04
05
FF
07
00
00
FB
01
FC
FC
04
05
05
02
01
02
FD
FC
04
06
07
FF
FF
04
FF
FF
03
07
05
FF
FE
04
FD
FD
FC
06
FE
FC
01
08
FE
FE
FC
01
FE
FB
00
08
00
FE
FC
03
FD
FB
FF
04
01
00
FC
02
FD
FD
05
04
00
00
FD
FF
FC
FC
06
02
FF
FE
FD
FB
FB
FE
04
FC
05
06
06
04
03
FC
FD
FE
04
04
02
FC
00
FF
05
FF
FD
FC
FE
00
FD
05
03
FF
02
03
03
05
00
00
FD
FB
08
09
05
01
02
FC
01
FF
FD
FC
FC
FC
FD
07
04
00
FE
FE
FE
01
FD
03
FC
FD
07
09
05
03
00
FD
FD
FE
01
01
FF
FB
FF
05
04
FC
FF
FE
00
02
00
01
03
FB
FE
FE
01
04
01
01
03
FB
FF
FF
FF
04
00
FF
02
FD
FD
FD
FF
03
FF
02
03
FB
FE
FE
FE
07
00
FF
01
FB
FE
FF
FE
06
00
FD
01
00
FE
FD
FE
04
FF
02
01
FE
FD
FD
FE
05
FF
FF
01
FE
FF
FF
FF
08
00
FD
FE
